<unk>	0
<s>	0
</s>	0
▁	-2.2933
丗乿亣	-4.52812
.	-4.61154
,	-4.80436
丂中万	-4.98206
严予	-5.03879
且亀亜	-5.24262
丙亝	-5.24394
▁严予	-5.36115
丛云丙	-5.48527
)	-5.49949
丫亀亝	-5.5724
▁(	-5.57733
丁亟丣	-5.7291
両亟	-5.75494
両亣	-5.83989
丁亥业	-5.85514
丈亟丁	-5.85892
-	-5.8962
丛亜	-5.95381
丙亀亣	-6.05879
両	-6.06365
丁	-6.08004
丧乿亟	-6.08477
个	-6.09969
丈亞	-6.12001
s	-6.1291
丙	-6.15967
严亀亚丧	-6.19077
丄	-6.26436
丁亥丙	-6.29675
且亀丧丢	-6.31006
且	-6.32293
丕亖	-6.362
両乿亜	-6.37643
丁亦	-6.39523
▁丕乿亚	-6.40601
丧	-6.42272
丄丧亟両	-6.42986
▁2	-6.44558
”	-6.44769
丗亟万	-6.45859
乆	-6.46015
▁1	-6.46997
丫丣五	-6.47359
万	-6.47557
丕	-6.47786
▁丫丣五	-6.48092
丗	-6.48609
▁“	-6.49678
业亚业	-6.50573
丢	-6.50743
且亣	-6.50946
业	-6.50958
丣	-6.55152
▁且些丢	-6.56066
丙亀亥丙	-6.56198
中丢乿亨	-6.57491
▁下乿交万	-6.5759
严	-6.58765
:	-6.58928
/	-6.60184
万亟丙	-6.6059
丗亗	-6.60991
丕乿中	-6.6305
上亀亝	-6.64339
丛	-6.64408
▁3	-6.64583
丙亀亗	-6.64741
両亟丁	-6.67223
中丢乿亟万	-6.68332
丞乿了	-6.70302
个亗丫丣亥业	-6.74075
▁-	-6.75158
世交万	-6.76045
丄丙	-6.77975
丫	-6.82569
▁乆	-6.82913
丫丙亀亟	-6.84027
中	-6.84353
丫亝両乿	-6.85366
丞	-6.87486
丕亟両	-6.87629
东亀亨	-6.87973
▁両亣	-6.89301
"	-6.89669
丕亀中万	-6.9072
丂亀亍	-6.93109
严于	-6.94657
且亨	-6.96547
上	-6.97525
丂亀交丙	-6.97656
丗亜丢	-6.99706
丗亀亥万	-7.00059
且些丢	-7.01075
y	-7.0156
▁S	-7.02536
丠亟丞	-7.0405
中亣丁	-7.04305
丈亝	-7.04788
严乿亙丙	-7.05057
丗乿亣両亣	-7.05239
丣乿了万	-7.0546
丣亥业	-7.05878
丄丣亥业	-7.06093
▁4	-7.06302
业丙	-7.07799
B	-7.07857
丣世	-7.08076
丈	-7.09253
万亓丙	-7.09722
▁丞亙丣亟亞	-7.1004
业亀亟丙	-7.10042
両亥丙	-7.10567
丣亍	-7.1099
丨	-7.11102
中中丁	-7.11483
丙亝丁亟丣	-7.11608
丄产专	-7.12444
▁:	-7.14734
▁丛云丙	-7.14894
个亟両亟丣世	-7.1491
...	-7.15774
▁#	-7.15792
e	-7.15907
东両	-7.15987
丄五	-7.17244
丁乿中丙	-7.17347
丗乿亣丈亞	-7.18714
▁5	-7.19379
严万	-7.20079
▁丛亣	-7.21093
▁丁亟丣	-7.22586
丂亍	-7.23558
丕乿亚	-7.23774
両乿亜且亀亜	-7.23847
丗产丁	-7.25734
▁C	-7.26461
丞丣亞	-7.26949
er	-7.26995
丫亝不乿	-7.27018
个亢丙丄亀亟	-7.27643
世亨丁	-7.28007
両乿了	-7.28284
丕乿亟万乆	-7.28737
丧亀亜	-7.29574
丂亀中両亨严	-7.30085
E	-7.3014
丣亞业业	-7.30586
▁"	-7.30602
丣亟丄亟	-7.30974
丧亥丙	-7.31157
丛亣	-7.31444
丫亟	-7.321
▁両乿了	-7.32509
丢亥万	-7.33671
t	-7.34033
丁丧乿亟	-7.34771
丟	-7.35696
严亨丁	-7.3576
丫严亥万	-7.35882
个乿万	-7.37497
丢亟	-7.37803
n	-7.38312
▁丞乿了	-7.38465
▁|	-7.39429
2	-7.3944
▁A	-7.40037
丫丙乿交万	-7.40445
丕亟	-7.40536
东乿亟丙	-7.41231
丗亗丫亀亝	-7.41886
丧亙严亟	-7.42356
中亟丫亟丣	-7.42784
丙亟	-7.43078
中中丙严亜丙乌	-7.4311
下	-7.4393
両了万	-7.44077
S	-7.44273
丂亟丢	-7.44962
丙亗	-7.45193
▁丞	-7.45875
▁P	-7.4668
丛亓且	-7.47844
个亣	-7.47959
(	-7.48203
丄亙丣乿五万	-7.48556
▁丙亝	-7.48592
d	-7.4941
丕亢且	-7.49591
▁业亟丗	-7.50126
且亀亟丙	-7.51686
个亨万	-7.52509
▁6	-7.52693
下亀五	-7.53216
丗乿亟丙	-7.54092
o	-7.54628
丂	-7.54941
▁F	-7.55319
▁10	-7.56071
▁M	-7.56223
m	-7.56363
丫乿亚万	-7.56648
▁个亗丫丣亥业	-7.56731
且云丁	-7.57318
▁B	-7.57531
▁丄五	-7.57906
丣亞且亥业	-7.58451
ing	-7.58788
丗亣両	-7.58925
u	-7.59113
al	-7.59535
东严	-7.59727
p	-7.60076
両五	-7.60157
C	-7.60767
丄乿亞	-7.61054
i	-7.61376
丁亗严亥万	-7.61577
亟	-7.6184
丯	-7.62111
丁亙両	-7.62136
中亍	-7.62548
in	-7.62626
个丣亀亟万	-7.62673
丄乿亟	-7.63052
丈丣亢万	-7.63203
严亟	-7.63602
丁亓且	-7.63988
1	-7.64095
D	-7.6439
▁–	-7.64402
▁中	-7.64672
▁上乿亙丙	-7.64834
丞亙丣亟亞	-7.6493
中亞丣亜	-7.65589
丠亟丢丙亝	-7.65793
▁7	-7.66106
丂中	-7.6669
丞丣亀中両	-7.67202
丂中万丄产专	-7.67978
▁丙	-7.68134
3	-7.68237
r	-7.6839
丈丙	-7.68757
T	-7.68838
丫严亟丢	-7.68976
个亟丢	-7.70048
丁严乿产両	-7.70513
丈亥且	-7.70827
com	-7.71035
丛丣亞両亟专	-7.71478
!	-7.71556
丣亟	-7.72033
k	-7.72069
丧亥且	-7.72202
丙亥丁	-7.72369
x	-7.72616
P	-7.72795
c	-7.72874
个乿亝	-7.7306
a	-7.7364
下乿交万	-7.73741
G	-7.73764
丫云丙	-7.73765
▁世亀亟	-7.74291
业亟万	-7.74327
]	-7.74543
A	-7.74612
丈交万	-7.74861
中中丁両亟	-7.7538
个丧丢	-7.75551
个亄万	-7.76058
中亙万	-7.7638
an	-7.76671
严亞	-7.76878
下亣	-7.77126
丂亀亍両亟	-7.77234
中丢乿亨丙亝	-7.77328
丄亢且	-7.77711
▁T	-7.77787
両乿亜両亣	-7.78269
个亄	-7.78512
丣丧両	-7.78541
丞亀亡丙丗乿亣	-7.78551
个乌	-7.78582
上产且	-7.7892
▁8	-7.7914
▁个乿丧丙	-7.79489
丂中万丣亍	-7.79627
上亀亥丙	-7.79637
丁亢丙	-7.79698
且亀亜丣亥业	-7.79723
丕乿亟万	-7.79847
严了丁	-7.80175
个产且	-7.80219
上乿丧丢	-7.80266
严些丁	-7.80369
M	-7.80878
丗亀亥万丫両且	-7.81124
▁丣亍	-7.8132
F	-7.81381
丘产丣丁亢丈	-7.81681
上乿五	-7.82458
▁丞丣亀中両	-7.82556
丗亗万亟丙	-7.8281
个中万	-7.83141
丣些丄个亞丁云且万亓丙	-7.83494
b	-7.83645
▁丁亦	-7.8401
丁丣亞	-7.84301
丙亀中丢	-7.84467
g	-7.84489
th	-7.84513
丄些丣万丁亟丣	-7.84588
丣亥丁	-7.84671
严亨丁丄亀亟	-7.85079
个乿亢万	-7.8514
丞亢丨亙丩	-7.85171
▁丣亟丄亟	-7.85519
中亥丙	-7.85802
中乿亡丙	-7.85838
▁G	-7.86515
丞乿亓両	-7.86681
丈亀亍	-7.86767
丁乿亄丧丁亥业	-7.86779
丟丣亣	-7.87068
▁丄丙	-7.87156
▁H	-7.8716
丣亚丁	-7.87209
个乿丧丙	-7.87348
丁严亟万	-7.87619
丞亄万	-7.88012
▁D	-7.88217
丣亀亟丙	-7.89102
丗乿亍丙亀亥丙	-7.89162
丛丣亞丗亙丨	-7.89187
K	-7.89189
丞亥丒丙亟	-7.89305
业丣亢丩亥丗	-7.89704
丕亀丙	-7.8992
丄亝丣	-7.90047
4	-7.90079
上亣丧亢丕	-7.90314
▁丗亗丫亀亝	-7.90707
且亝	-7.9072
丙乿亟	-7.90837
业中严	-7.90916
▁丈亟丁	-7.90961
丕严亟且	-7.91924
on	-7.92095
両乿亚	-7.92141
丗亣	-7.92294
L	-7.92564
丣亚万	-7.92641
丕亀亥万	-7.93172
丗乿亣个产且	-7.93285
中亟丈	-7.93395
丂亟	-7.93578
业丣亢丁亟丣	-7.93658
丟亜	-7.93781
or	-7.94526
丁严亥业	-7.94553
丁云业	-7.94644
▁丁	-7.94747
上亟丧	-7.94806
▁严亀亚丧	-7.95216
东亢丧	-7.9526
丂乿亟丧	-7.9538
両亟丁丁丧乿亟	-7.95417
丫亀亝丁亥业	-7.95432
丛丣亞	-7.96011
中乿亟丙	-7.96045
丫亀中万	-7.96513
▁9	-7.96813
中亟	-7.96926
丣亢	-7.97023
▁丙亟丢	-7.97111
5	-7.97143
上中业	-7.97314
丣乌	-7.97865
丄亗	-7.9815
丧云业下亜丕乌	-7.98298
▁丈亞	-7.98965
両亀亜	-7.99149
丈亞両亣	-7.99344
丂丙亟且	-7.99498
丣乿亓両	-7.99589
丈亥万丫丧亥且	-7.9971
丣亄丙	-7.99834
丙亟丢	-7.99921
▁E	-8.00052
业亝	-8.00082
丣亞丫丧乿亟万	-8.00158
丈产且	-8.00579
▁专	-8.00584
个亟丧	-8.00736
丘	-8.00743
且亓丙	-8.00854
▁丫亟丁	-8.00991
丙亞	-8.00995
丫丙中丙	-8.01013
丣亣	-8.01081
it	-8.01366
丛亙严乿亣丢丙	-8.01427
丣亀亨	-8.01607
丣亨丛	-8.01882
ed	-8.01923
▁0	-8.01941
丗丣万	-8.02
丁乿亚	-8.02354
le	-8.02625
丗乿亣且亣	-8.02709
业中丁	-8.02971
▁丈	-8.03212
丘二	-8.0347
▁业丣亢丩亥丗	-8.03552
丫严亥丁	-8.03701
0%	-8.0405
丛亥不丫亟	-8.0432
乌	-8.04407
丂亀中	-8.04517
丁亟	-8.04823
▁[	-8.04906
世亀亟	-8.0492
▁両	-8.05315
亞	-8.05328
丣中业	-8.05904
en	-8.06038
丛丣个亢丕	-8.06121
丄乿亨	-8.06139
丁亟丣丨交丁丩亟	-8.06253
丄亟	-8.06393
丫亖	-8.06436
丣乿丧両	-8.06503
丧亟	-8.06514
▁20	-8.07434
▁2561	-8.07453
丕亀中万丁亟丣	-8.07569
▁L	-8.07639
丫亙両五丙	-8.07792
両亟丁丂亀交丙	-8.07851
丝乿亟丢	-8.07985
丈亥业	-8.08461
个亟丣	-8.08553
中乿亡丙乆	-8.08733
両亣丄丧亟両	-8.08752
▁/	-8.09269
严且	-8.09344
丣亥丁丩亟	-8.09423
万乿亟丢	-8.09431
f	-8.09527
且亥万丁严乿亟丧	-8.09585
中些	-8.09867
el	-8.1005
丕些	-8.10124
丧万	-8.10209
丞中	-8.10215
丕丣万	-8.10266
丞亙严万	-8.10336
▁R	-8.10375
专	-8.10442
世	-8.11111
个亚且万	-8.11535
丛严亟	-8.11613
丂亀亍丛亜	-8.1175
丧亢丘亣	-8.11761
不乿亣丛乿产丙	-8.11809
个亗丄亥不	-8.11871
丣乿产丙	-8.11979
▁両乿亜	-8.11997
V	-8.12163
丣些丄	-8.12261
?	-8.12566
▁25	-8.12596
両亟丁両亟丢	-8.13091
乿	-8.13289
re	-8.13327
丗产丁丄丙	-8.13503
上乿丧万	-8.13629
上両	-8.13668
丧亢	-8.13737
丕亢	-8.13997
▁2018	-8.14066
▁东両	-8.14132
丫丙亥万	-8.14194
丈亗丙丧丙	-8.14587
且亄丧	-8.1464
丞亟	-8.15146
丗中万	-8.15759
业亀亟万	-8.15968
三亥丙	-8.15986
丈亣丙	-8.16074
丄亡丙	-8.16222
丕亀亥万丕乿亚	-8.16253
l	-8.16418
丕中丙	-8.16825
▁丈交万	-8.17007
▁12	-8.17099
丣亟丢	-8.17106
丧亟万	-8.17134
严中万	-8.17169
w	-8.17328
丣了	-8.17517
N	-8.17606
ar	-8.17636
z	-8.17766
丛些丣丁亚丣両	-8.17973
et	-8.1808
丄乿亚	-8.18142
严亙	-8.18498
丁亟丣上亀亝	-8.18504
丨交丁丩亟	-8.18532
丞业	-8.18565
▁K	-8.18633
丕亥且	-8.18678
丣亞	-8.19597
▁丂亟丢	-8.19675
丣中	-8.1972
些	-8.19758
▁W	-8.19769
丞乿了丙	-8.19793
丄丧丣	-8.19949
丗亙丄丙些严些丢亣	-8.2031
丕云両	-8.2051
中些丁亟个	-8.2051
丕亖中亙万	-8.20598
丄于	-8.20605
丙乿亣	-8.20951
▁丈亗丁亥且	-8.21455
中丢亟丁	-8.21538
丛丣亥业	-8.2176
丕乿中丛亜	-8.2186
丠亟丄	-8.21891
h	-8.22286
0	-8.22341
严亟丢	-8.2247
且了丙	-8.22636
丙乿亥万	-8.22668
东严亢丕	-8.22982
両亢	-8.23012
严云丁	-8.23059
丣些万丣亚両	-8.23084
丙亀了	-8.23155
丢亟万	-8.23505
▁15	-8.2363
丂亀亟丧	-8.23936
丘亠両	-8.24027
丧云业	-8.2415
H	-8.24159
丗乿亖丛亜	-8.24553
中亙	-8.24811
丞亥丁	-8.24831
亄	-8.24861
ic	-8.24976
三	-8.24994
丣些	-8.25266
丟亜丟亀亟	-8.2528
亣	-8.25527
业丣亢丧亙专	-8.25688
W	-8.25818
上亟	-8.2605
丁亦丈亞	-8.26084
且亟	-8.26099
中亟丢产	-8.26146
中亟丈丈亞	-8.26215
个両	-8.26216
co	-8.26401
両亣丁亟丣	-8.267
严亢	-8.26802
个亟両	-8.26858
丄产专丠亟丞	-8.27073
丕严中且	-8.27177
上亥丢	-8.27195
亢	-8.27327
丞亢	-8.27355
丛亢且	-8.27361
且些丙	-8.27687
丁严亥业両亟	-8.27837
丈乿亟丢	-8.27872
丢乌	-8.27905
丫両且	-8.28014
▁丣乿产丙	-8.28391
▁且亥万丙亀亥丙	-8.28508
丗乿亣丛云丙	-8.28521
个丧丙	-8.28546
at	-8.28713
丕乌	-8.28746
中产丛丁丣专乌	-8.28863
丣世丢丙丕乌	-8.28873
丁亢丈丁亠両	-8.2912
东亀亟	-8.29176
丙亞丄丣亥业	-8.29237
丣乿亟万丁亟丢	-8.29301
东严亢丕丠亥专丑乌	-8.29633
丙亚丧	-8.29716
▁个亟両亟丣世	-8.29843
业产丄丄严	-8.29909
丞亨且	-8.30051
R	-8.30094
丧亣	-8.30174
20	-8.30384
丛丣亞丁亟丨	-8.30445
両亙	-8.30718
且亓両	-8.30763
▁I	-8.31071
丙亝上乿丧万	-8.31349
上亟丕亢	-8.3156
且亥万	-8.31623
丙亢	-8.31699
丁亗丫丙且	-8.31813
丛乿亟	-8.31827
▁丗亀亥万	-8.32234
ro	-8.32427
丛丣亞丕亨	-8.3249
个亙丣亢両	-8.32512
三亙丞亟亞	-8.3252
▁丄产专	-8.32594
个亥万丄両	-8.32652
丗乿亣丣亍	-8.32824
且亀亜中丢乿亟万	-8.33081
个乿亨	-8.33097
丁亦且亀亜	-8.33163
丫亜丙	-8.3331
丈丣亢万乆	-8.33561
个乿亥万	-8.33661
丢云丙	-8.33819
丧亥丢	-8.34114
Y	-8.34134
东	-8.34287
両亟丕丣丐亟丙	-8.3432
丫丣五両乿亜	-8.34373
▁24	-8.34518
丁乿亍	-8.34688
▁丫亀中万	-8.34721
ch	-8.34875
丁亠両	-8.34954
且亨严亚	-8.35153
丈亞丕亀中万	-8.35233
严亣	-8.35285
.00	-8.35289
U	-8.35339
丛丣亞丈亗	-8.35404
丈亀亚万	-8.35571
下亢	-8.35859
▁19	-8.3598
am	-8.36029
丣些万丣亄丙	-8.36194
丣亟上	-8.36233
丢亟丧	-8.36813
丠	-8.37028
丂亄丙	-8.37171
▁且亀丧丢	-8.37219
両亟丈亟丁	-8.37323
O	-8.37432
丧亥丙丙亀亣	-8.37435
丢丁	-8.37731
个产丂丠亟丞	-8.37882
丙亥业	-8.37931
中产丕个亟丫丁亠両	-8.37944
丁些	-8.38153
丫亟丁	-8.38174
丛亟丁	-8.38484
丗亟	-8.38512
上亟丢	-8.38527
丂亀亟万	-8.3856
东亚丙	-8.38634
ol	-8.38657
▁11	-8.38667
v	-8.39142
丂亀交丙両亟	-8.39178
▁...	-8.39235
▁丧亥丙	-8.39394
▁丙乿了万丈亟丁	-8.394
▁18	-8.39614
丞丧丁丂亍	-8.39641
丄中	-8.39678
ma	-8.3971
世丙丙	-8.39748
丙中丙	-8.39804
7	-8.39874
il	-8.39898
业亟	-8.39919
丄万	-8.39967
丛丣亞丁中业	-8.40104
丞丙亥丁万亟丙	-8.402
丣亀中丙	-8.40296
个世亟丙丗乿亣	-8.40305
丗乌	-8.4049
且亚万	-8.40546
不	-8.40936
丘亠両上亟丕亢	-8.41036
丛丣亞上亟上丙	-8.41126
8	-8.41339
丫丙亥万个五	-8.41369
丗亀亍	-8.41602
ad	-8.41619
両中万	-8.41952
ur	-8.42379
丄丣亨	-8.42505
丁亦丄五	-8.42549
▁16	-8.42603
个中丙	-8.42912
个乿亢万丗乿亣	-8.42933
丙亟丙	-8.43035
丙亥丁丣亄丙	-8.43046
丕亞	-8.43083
st	-8.43199
上乿亙丙	-8.43241
丙中丁	-8.43278
丞亢両丞乌	-8.43383
个亥丁	-8.43465
丈亗	-8.4348
丧亥丙丗乿亣	-8.43541
丕亀亝	-8.43627
丢亚丁	-8.43704
丂中万丂亍	-8.43763
X	-8.43824
丣亙	-8.43898
上亀亝万亟丙	-8.44026
丞严	-8.44032
丗乿亟	-8.44161
上丙	-8.44247
丛丁丕亢	-8.44286
丈亞丛云丙	-8.44331
丁亟丣丞亥丒丙亟	-8.44394
▁30	-8.44521
上乿中万	-8.44578
严乿亟个产且	-8.44641
丞丧丁	-8.4485
产	-8.45016
丈二	-8.45116
丂亟丧	-8.45129
个両亟上亢丁	-8.45238
丕丁	-8.45321
丣亨丛业亚业	-8.45469
丛丣亞丠亙丗	-8.45617
丗乿亣东乿亟丙両亟	-8.45728
丁严亀中万	-8.45896
个且	-8.45911
丕亗丫亚丙乿万	-8.46038
个亚万	-8.46069
▁丣亥业	-8.46082
丄丣亀亥万	-8.46176
丟产丕业中严	-8.46215
▁of	-8.46387
中亟丁亟丣	-8.46414
丣亀亨个交丁	-8.46428
丄丧亟両丣亀亨	-8.46476
丈业	-8.46504
东严万亟丙	-8.46509
ri	-8.46536
丕二丣乌	-8.46545
丁亣丬亟	-8.46753
个产且丗亀亟丢	-8.46961
▁V	-8.46978
6	-8.46984
丣亟丢丁亟丣	-8.47038
下乌	-8.47171
'	-8.47372
业亥不上亣	-8.47439
丗亚丙	-8.47467
丁亟亠	-8.47587
’	-8.47593
▁O	-8.47881
且亓丙丗亟万	-8.48074
▁1.	-8.48124
丗乿亣丙乿亣	-8.48311
丕亟丢	-8.48365
丁严亟丢丛云丙	-8.48369
个亥丕丧乌	-8.48518
个中业	-8.48782
丧丙	-8.48822
両乿亜个亟両亟丣世	-8.48844
丟亥万	-8.48881
丕亢且丕亟両	-8.49248
丕乿亚万	-8.4951
丕丣丧丈个中业	-8.49588
丣亄丁	-8.4961
个亀亙丙	-8.49632
丙乿亚丙中丙	-8.49782
9	-8.49835
中亟丁亟丨	-8.49863
10	-8.50087
▁13	-8.50322
下亟	-8.50474
个丙亟両	-8.50572
丙予丙亗	-8.50872
严亙丂	-8.5094
中中丁丛亜	-8.50956
中丁	-8.51017
丫严亟丁丫严亟丢	-8.51124
中丢乿亨丗乿亣	-8.51132
▁J	-8.51344
中中丁业亚业	-8.51353
▁丄亙丣乿五万	-8.51359
丙亙	-8.51386
上产両上丙	-8.51464
丫亙严乿亟丙亀亣	-8.51617
丂亟且	-8.51781
中亣丁丄丣亀亥万	-8.52013
両乿亜上乿亝	-8.52015
个丠亟丞	-8.52305
丄丧业丄产両	-8.52453
严両	-8.52464
丗亞严亙	-8.52611
业中丁丧乿亟	-8.52623
▁N	-8.52864
▁the	-8.5287
丙亀亗両亥丙	-8.529
丢中且	-8.53302
丞亣	-8.53419
un	-8.53536
世乿亟丢	-8.53609
丨亨丙丢乌	-8.53622
丈亟丁丁亟丣	-8.53635
严亗	-8.53662
丕亢且丕乿中	-8.53741
个产	-8.5375
▁丙亟丗亣	-8.54058
丁亓且丂亀交丙	-8.54086
丁丣	-8.54157
丫丙亥丁	-8.5432
両丫亟	-8.54473
个亨万个产且	-8.54611
50	-8.54833
丕丣丧丈	-8.54969
la	-8.55067
丕乿亟万丛丣亞丗亙丨	-8.55206
丞乿亓両丕亓両	-8.5521
丁严乿亟丧	-8.5522
丁亊	-8.55225
丞丣	-8.55295
▁丕	-8.55317
丛丣亞个业丁亟丣专乌	-8.55341
个亗丙亥丁万亟丙	-8.55508
丛亀中万丁亥丙	-8.55557
丢云且	-8.55561
丢事	-8.55805
丢亥万両乿亜	-8.55852
亀	-8.5589
▁下乿交万丛云丙	-8.55983
丫亣	-8.55992
us	-8.56022
上丙亢且	-8.56327
丙些	-8.56547
ation	-8.56812
ent	-8.56867
I	-8.56935
▁个	-8.57159
丈亞且亀亜	-8.5733
中中丁丈亟丁	-8.57431
丗亀亚	-8.57463
▁且些丢両亣	-8.57903
且亢丙	-8.57977
▁The	-8.58425
+	-8.5853
丄丣中业丄丣亖	-8.58622
丁亝严亀	-8.58658
业亥丕丣	-8.58754
丙亢丢両	-8.58779
丙亀中万	-8.58815
両些	-8.58921
丁亦両亣	-8.58977
ra	-8.59103
▁丂亍	-8.59123
es	-8.59128
丗亀中万	-8.59152
▁14	-8.59317
个亥不不亟	-8.59449
丞亚丗丢乌	-8.59557
丩	-8.59593
me	-8.59634
中亣丁且亀丧丢	-8.59657
lo	-8.59663
丨亟个丕丣乌	-8.59673
且亄丧丁亥丙	-8.59715
丕乿亚严亞	-8.5983
▁东亀亨	-8.59843
丄丣亣両	-8.59879
丢亢万	-8.59912
丢亟丁	-8.59916
丠亟丩亟	-8.59938
丞亢丘亣	-8.59987
丙亟万	-8.60057
30	-8.60092
个亞且丧丁	-8.60107
丈亢	-8.60123
丣亨	-8.60134
个亟	-8.60207
个乿万个亙丣亢両	-8.60226
▁Giardia	-8.60364
丁亀亚丧	-8.60485
丣中丢	-8.60602
丈亢丕	-8.60731
东亀亨丫不亢万	-8.60748
▁丈亥万丫丧亥且	-8.60769
丙亀亙丙	-8.60912
丂亙丕	-8.6097
両丫亟丧亢丗丢亟严亥丢	-8.61216
▁丈丙	-8.61395
▁Re	-8.61401
丁亞	-8.61413
丗亙	-8.61422
中乿中丙	-8.61538
丄中両丞亢丧丕二丣乌	-8.61617
_	-8.61673
丂丢亟丢	-8.61706
个両些个丣	-8.62143
丞乿亓両丂亀交丙	-8.6223
个丙亥业个丙产丙	-8.62243
丛亜丢亥万	-8.62261
丙亥丁丕亇	-8.62272
东亢且	-8.6244
且亗	-8.62794
个乿丧丙丫亝不乿	-8.63043
丗亟丙	-8.63065
丙両	-8.63074
▁丣丧両世交万	-8.63172
严亀亄万	-8.63251
东亀亨严乿亙丙	-8.63327
丫亙丕产	-8.63352
亠	-8.63357
丛亥丈丈产业亥丙	-8.63417
▁丧云业	-8.63512
个両亥丄丣	-8.63754
个丙产丁	-8.63828
as	-8.64077
丫亙严五	-8.64282
中万丄乌丁丣	-8.64356
▁丗亀亥万丙亀亣	-8.64391
中万	-8.64569
um	-8.64811
中亙丁个亟丣	-8.64831
丛丣亞丢些上丙乌	-8.64919
▁丈亗丙丧丙	-8.64949
业丗	-8.65107
丫亙严亦丁	-8.65231
业亚业丙亀亣	-8.65574
▁丧亙严亟	-8.65626
丧亢丘亣丁亟丣	-8.65658
丄丙丗乿亣	-8.65719
丗乿亣上亀亝	-8.65739
丫严丧万	-8.6596
丕亙丣亣丢両	-8.66006
上亢	-8.66151
te	-8.66256
丕亣	-8.66277
中亟丄亟丣	-8.66397
丟亚丙	-8.66493
丣中万	-8.66594
丁亟丣丂乿亚万丂亥丙	-8.66667
丫亜両	-8.6669
丞乿亣	-8.66804
丄亟个亢丙些	-8.66929
id	-8.67412
丕亢且丕亀亥万	-8.67461
▁上亀亥丙	-8.676
▁2.	-8.67621
://	-8.67673
丮	-8.67691
丐亟丙	-8.67752
个乿五	-8.67801
业亣	-8.6787
丂丙亟且丫亝不乿	-8.67912
世五	-8.68073
丣乿亓両丕亀丙	-8.68243
丗亥丙丗亣	-8.68314
丁与丫両亟丢	-8.68857
严些	-8.68864
且亢	-8.68977
丄专亞	-8.69023
丨亙丣丩丐丁亢丈	-8.69108
丁严亟丁	-8.69116
严业	-8.69192
丙亥丁丨交丁丩亟	-8.693
丈亀亍丫丙亀亟丗乿亣	-8.69437
个亙両中	-8.69514
ter	-8.69687
丞亀亡丙	-8.69809
且亗丙亓丙丁亟丣	-8.69821
个业亟丢	-8.69907
▁丧亥丙丗乿亣	-8.70069
丙亥且	-8.70084
丁亍丫严亣	-8.70092
丫不亢万	-8.70113
丗乿亣且亢丙	-8.70137
丄乿中丙丂亀亟万	-8.70166
丧乿亢万	-8.70351
丞丢亟丢亟両	-8.70373
丄亢且丧乿亟	-8.70387
丄些	-8.70572
严了且	-8.70672
丫亙丙五	-8.707
丂乿亜	-8.70733
二	-8.70795
业亚丣丙且乌	-8.70882
丁亙両个乌	-8.71016
且亣丁丧乿亟	-8.71023
両亟丁丗乿亣个产且	-8.71025
▁丫严亥万	-8.71046
丁亟丣丗亗	-8.71158
上丙亞	-8.71183
中亜	-8.71261
业亙	-8.71348
丕亥丙	-8.71414
▁丂丙亟且	-8.71435
丁亟丣东严亢丕	-8.71542
▁丛	-8.71652
▁17	-8.71702
丞亢丈亟丣专亟	-8.71723
下亙	-8.71748
丁亟亠亥丁丩亟	-8.71926
丢亨	-8.72042
▁万亟丙	-8.72139
上乿亟万	-8.72212
个丕亜严乌	-8.72246
両丙产丩丢乌	-8.72273
丫丢产且	-8.7238
▁丙中丁丈亟丁丙亀亣	-8.72417
丫亢丙	-8.7268
丁丣両	-8.72703
is	-8.72828
▁両亥丙	-8.72989
丕中丙丙亀亣	-8.73178
▁丣乿了万	-8.73284
丁丧亀亟万	-8.73504
丁且	-8.73534
▁丛丣个亢丕	-8.73548
j	-8.73664
丫丙乿产両	-8.7374
両中业	-8.73743
丨丣亣	-8.73864
▁上产且	-8.7401
且亀亜丣亥业丁亟丣	-8.7416
▁丕亀中万	-8.74301
丟亀亟	-8.74348
丢乿亢万	-8.74356
丄亥丙	-8.74517
両五世五	-8.74563
丕亚丁	-8.74606
▁丣些万丣亚両	-8.74634
丣亟丢严亞中亄且	-8.74647
丣亟万丧亥严	-8.74702
丞乿中	-8.7471
.)	-8.74802
丗乿亄丧	-8.74926
丛丣亞丗亙丨丗亜丢	-8.75031
丢亥万両亣	-8.75231
両亟丁乆	-8.75247
个丙丈亝	-8.75363
▁丣些丄个亞丁云且万亓丙	-8.7542
丕中业	-8.75492
上乿亍	-8.75558
丗亗丁亟丣	-8.75612
丂亀亍丈亝	-8.75747
中亥丙且亥业	-8.75807
上乿了	-8.75896
丝亟丁	-8.76019
丛丣亞丁亥丙	-8.76102
业二丣乌	-8.76162
丙亝丛亣	-8.76177
中丣乌	-8.76275
且亀亜严于	-8.76409
▁丞乿了丫亀亝	-8.76565
▁丛云丙丕亀丙	-8.76701
丞丢亟丘亢	-8.76912
丗乿亣且亀亜	-8.76916
丞业丧乿亟	-8.76932
丞乿了丫亀亝	-8.76938
丄专亞丁亠両丁亟丣	-8.76966
▁2560	-8.77049
丁丣专亣	-8.77104
丢亥万丄万	-8.7728
丗乿亣个亗丄亥不	-8.773
亥严	-8.7749
丫亙両五丙丁亥丙	-8.77535
丁亟丢	-8.77561
丗丣亟业	-8.77573
丙乿亟丣亥丁	-8.77695
中亢	-8.77755
上亓万	-8.77875
丨亟严	-8.77896
中亟上亣丞	-8.77904
丄亀亍	-8.77943
丛亟	-8.77989
丁亟丣上亀亝万亟丙	-8.78205
丫亟丢	-8.78291
丄且亣	-8.78312
ry	-8.78328
丄丣业	-8.78417
!!	-8.78536
且丧万	-8.78645
丕丁丕乿亚万	-8.78809
个亀亙丙丗亟万	-8.78833
丁亜严	-8.78938
丗乿亣丄产专	-8.79193
▁and	-8.79252
丫亚严乿万	-8.79344
丞严亥万	-8.79373
丫丙乿丧丢万亟丙	-8.79483
丛严乿中丢	-8.79848
▁丄丣亣両	-8.7986
丛严亨丁	-8.79967
li	-8.80141
中亣	-8.80217
严交丁	-8.80224
个亀了	-8.80253
丁亟丣丗亗万亟丙	-8.80277
丫严亟丢丄丙	-8.80371
个亚丙	-8.8053
両乿亜丕亀中万	-8.80543
丞严亥万万亟丙	-8.80603
丗亙丞	-8.80682
业产不	-8.80693
▁両乿亜丧乿亟丈亞丛云丙	-8.807
▁丕亟両	-8.80775
▁且亀亜丁乿亚	-8.80828
▁100	-8.80875
丣些万	-8.81139
业亥丙丗交丁	-8.81164
丫丙亀亟中丁	-8.81325
丣云丧	-8.81396
亙	-8.81411
业亠丢亟丁亟丨	-8.81425
两且亨丁亟严	-8.81566
个产丂	-8.81644
亍	-8.81669
▁且了丙	-8.81728
丙亗両亟	-8.81774
丁亦丕亀中万	-8.81838
且亀丧丢丁亥丙	-8.81851
丧亥个且产	-8.81922
丣些万万亟丙	-8.81973
个亥丙	-8.82101
丛亀亍丫両亟丢	-8.8221
丗乿亣且亣丗乿亣个产且	-8.82353
中丙	-8.82416
个乿丧丙丕亖	-8.82478
丁亙	-8.82498
▁丄丣亀亥万	-8.8253
个亞中亟且	-8.8261
ang	-8.82804
丈亞両乿亜	-8.82813
▁>	-8.82864
丗丫亟丣	-8.82871
丣亟丄亟世亨丁	-8.82893
丧乿亟丈亞	-8.83054
▁In	-8.8308
丈亙	-8.83248
且亟丧	-8.83349
to	-8.83402
丣亟丧	-8.835
丙亞丄亞	-8.83562
▁in	-8.83785
丫亀亝业丣亢丁亟丣	-8.83788
▁且些丢三亙丞亟亞	-8.83848
中亢丙	-8.83922
丣亥丐业亟严	-8.83935
丕亗丣丧丈	-8.83936
▁丣丧両丗亀亥万	-8.83962
丛丣亞上产両	-8.84089
丞亥丙丘产乌	-8.84163
丁中万	-8.84263
丗乿亣両乿亜	-8.84362
丛云丙丁亟丣	-8.84517
丗亀中万世乿亢丙	-8.84524
丕亁争	-8.84867
世亟両	-8.84896
丂专亞	-8.85158
▁个両亥丄丣	-8.8526
丣亟丢万亟丙	-8.85304
中亙上亄	-8.85606
中产	-8.85608
个丧丢万亟両	-8.85616
丗亢	-8.85663
丗产丙	-8.858
丫亜严	-8.85925
且中丁	-8.85928
亥个	-8.86016
丣亥丐	-8.86034
丗乿中	-8.86043
乿亟	-8.86075
上乿丧丢丫亙严五	-8.86495
个亞	-8.86528
丕亥且个亢丙丈亝	-8.86712
丁亀亚	-8.86793
丈亞丗亗丫亀亝	-8.8681
个亥両东亥个	-8.86885
中両	-8.86955
丫严亥万丈亟丁	-8.87034
両亥丁	-8.87038
丁亓丙	-8.87048
丙亣	-8.87198
丄中丢	-8.87253
丙丢些业亟丢	-8.87436
丂亀亍个乿亨	-8.87623
11	-8.87627
両亙丙亨	-8.87667
両乿亜丄于	-8.87678
▁丗乿亟丙	-8.87776
丙亀亗丫丙亥丁	-8.8786
丣亟上丁亟丣	-8.87997
丄丧亟両丣亥丁	-8.88025
丕乿亗	-8.88209
丕丣	-8.88285
丘亢	-8.88361
丛亜严亀亚丧	-8.8843
丕丙	-8.88437
丣亟丢且亀亜	-8.88489
中丢乿亟万丣亜	-8.88516
丄丧丢	-8.88598
ia	-8.88682
且些	-8.88684
),	-8.8871
▁to	-8.8894
丄亙丣乿五万両五	-8.89003
丛丏亢业亥丕亢	-8.89053
丄亞丙亚丙	-8.89168
业亟丗	-8.89349
na	-8.89381
丛严亟丢	-8.89554
丣产	-8.89619
丄亚	-8.89621
▁丢亨丙亜丕云且	-8.89673
丁亟丣严乿亙丙	-8.89711
个亥不不亟专	-8.89764
ce	-8.89831
丙乿亟丈亞	-8.90042
亥	-8.90063
丗亀亟丢	-8.90071
丁亟丣丄亀亟	-8.90142
丛丣亢両亟专	-8.90179
东亀亨上亟丢	-8.90188
上亀亢丙	-8.90224
丮亟	-8.90233
▁f	-8.90425
丄中丙	-8.90533
丣个	-8.90534
and	-8.90537
丫乿亚万上亟丕亢	-8.90619
▁c	-8.9065
中亟丈亟丣丢乌	-8.90677
8%	-8.90977
丁丣亞丗丣丧万	-8.90984
>	-8.91017
丢亀亟丢	-8.9114
丂中万丁亟丣	-8.91287
mo	-8.91336
12	-8.91455
▁丫严亥万丈亟丁	-8.91503
严予丁亟丣	-8.91629
中丢	-8.91672
両亥丁丈亞	-8.91717
丄丧亟両丛严中且丠亥丢	-8.91736
个亟丂亟	-8.91769
中亗丠二	-8.91847
60	-8.92284
▁U	-8.92407
丁亀亚丂亜	-8.9247
丂丧亟	-8.92487
丂亀交丙丛亜	-8.92562
丣亞丢亞	-8.92565
丗产丁中丢乿亟万	-8.92582
丣乿丧両丁亥丙	-8.92703
中万丄乌	-8.92723
J	-8.92896
丁亗丈亥且	-8.92936
ex	-8.93081
▁X	-8.93097
中亙个	-8.93132
ly	-8.93239
丫丙	-8.93363
▁Ch	-8.93424
丧亜	-8.9343
両产両	-8.93597
丈亙丣亢不	-8.93599
丗乿亣丕亀中万丁亟丣	-8.93638
于	-8.93667
丂丙	-8.93685
丆些丩专亟	-8.93943
▁丈亟丁丙亀亥丙	-8.94103
丛亀亟丢	-8.94169
中亟丣両专乌	-8.94244
▁严亀亟丙业亟丗	-8.94306
▁両亙丕丣	-8.94311
25	-8.94331
丄亞	-8.94339
丗亣両上亟丕亢	-8.94344
丈亗丫丙乿亟丢	-8.94468
丫亖丈亝	-8.94541
▁丣些万丣亄丙	-8.94552
丛云丙丄丙	-8.94566
丁亟丣严万丗产丙	-8.9459
▁21	-8.94607
丙亚丧丗亟万	-8.94618
丁丣亞丛亂亍	-8.94745
se	-8.94763
丝乿亥万	-8.94797
丢交且	-8.94869
丫亨	-8.94869
下亀亟丢	-8.94935
io	-8.95134
中丣乿中丢	-8.95269
丙亝丞亀亡丙丗乿亣	-8.95317
丄严中万	-8.9539
丗乿亖严些丁	-8.95399
ul	-8.95426
丙丁	-8.95486
丫丧亟丙	-8.95528
%	-8.9573
丁亟丣且亓丙丗亟万	-8.95737
丗乿亖	-8.95759
且亙	-8.95775
个亙丙中	-8.95817
▁串	-8.95832
且亀亜且亣	-8.95877
15	-8.95911
丞亥丙	-8.95932
丂亀亍丣乿丧両	-8.95983
丫亀亚万	-8.96075
亁	-8.96092
40	-8.96206
im	-8.96232
▁Co	-8.96236
丗乿亍	-8.96257
严且严万	-8.96304
丁丣亞个亚	-8.9638
上亀亝丧亙严亟	-8.96385
丣中万丣亥业	-8.96479
▁3.	-8.96484
严亀亟万	-8.96667
ne	-8.96696
up	-8.96712
上亄万丫亝両乿	-8.96724
丗亀亥万个中万	-8.96791
中亗丙亟丈	-8.96824
丞亡上	-8.96858
上些丧乌	-8.96858
严乿亞	-8.96883
个亢丗丘亢乌	-8.96972
▁且亨	-8.97067
个亙丣亦丈	-8.97079
东个両	-8.97097
▁&	-8.97098
▁丂专亞丗乿亣	-8.9713
.3	-8.9718
丗乿亣丞亥丁	-8.97226
丣亞丢亞丧亙严亟	-8.97325
丧亥丒丙丘亠両	-8.97342
丫严产且	-8.97352
丗亀亢万	-8.97531
両亞	-8.97599
丫丧丢	-8.97711
丙亗个亙丙中	-8.97804
丣亜	-8.97843
个世亟丙亣	-8.98103
丈亣	-8.98137
丗些丣	-8.9829
丢乿中両	-8.98396
中亙丁	-8.98421
;	-8.98441
丕亖中丢乿亟万	-8.98517
丘丙亟丄亟丣	-8.98667
下些	-8.98682
丠亟丧亞	-8.98785
丂亥业	-8.98789
丄丧亟両丛云丙	-8.98819
▁丛丣亞丁亟丨	-8.98853
丟亜严乌	-8.98937
亢丁	-8.98937
东亀亨上亀亝	-8.98985
▁三亥丙	-8.98996
.5	-8.99021
丞严亟个丕亢丁	-8.99074
▁丁亙両	-8.9908
丈中万	-8.99125
业丣亢丫亟丣	-8.99159
乿亨	-8.99187
丁丣中业	-8.99253
东乿亚丙	-8.99261
丕丣亟	-8.99584
丠亟丞丢丙丕丣乌	-8.99591
丣亀中万	-8.99616
中中	-8.99619
丁亟丣个丣亀亟万	-8.99634
▁丨亨丙丢乌	-8.99808
de	-8.99857
丙乌	-8.99972
丟亟	-8.99989
丫亙丕产东严	-9.00047
▁2017	-9.00056
両乿亜丄乿中丢	-9.00056
ta	-9.00076
且亀丧丢丁亟丣	-9.00137
丂亀中丄丧亟両	-9.00277
丗些丣丨亥丞丗乌	-9.00424
丈中	-9.00455
丈亀亍丂中万	-9.00458
丁亥业丁亟丣	-9.00537
両亣中些丁亟个	-9.00546
个中业世亟両	-9.00677
▁乑	-9.00721
丢产丣些丛	-9.00745
严乿亍	-9.00755
严亣丁	-9.00821
上亥且丈亙丙	-9.00913
▁丧亢丘亣	-9.00941
▁上乿亖両些万	-9.00954
ir	-9.01036
个両亥丢	-9.01138
丈亀亟万	-9.01141
丛亓且丕亖	-9.01218
丗乿亣中丢乿亨	-9.01325
丗乿亣个亟両亟丣世	-9.01358
▁严予両亣	-9.01372
亥丁	-9.01421
东亀亨丛乿丧丢	-9.01435
丙乿亥丙中亙万	-9.01509
严乌	-9.01539
丛亢	-9.01554
丣亀亨丈亥丁	-9.01724
両万丄严	-9.01885
24	-9.01917
丫丙乿中丢	-9.01946
乑	-9.02097
Z	-9.02252
▁业	-9.02261
业产丁	-9.02278
丁亢	-9.02285
丫両乿亨业亀亟丙	-9.02316
丣亍丈亞	-9.02334
亥丕	-9.02359
丂亀亥丙丕中丙	-9.02406
丄严亢丛	-9.0241
▁2559	-9.0244
个亨丕丣	-9.02449
上乿了丧乿亟	-9.02476
丧亙	-9.02487
东亥丁	-9.02492
丙乿了万丈亟丁	-9.0255
严万丛亜	-9.0255
丁乿中个丣亀亟万	-9.02558
丞业丁亥业	-9.02558
丧亢上亟	-9.02602
hi	-9.0263
丞乿了丙乆	-9.02668
丧亢丄亙丣亟亞丫乌	-9.02795
丄乿亟上亀亝丈乿亟丢	-9.02896
且亚丙	-9.02927
丛云丙东亀亨	-9.03355
上乿亙丙丁亥丙	-9.03388
▁for	-9.03406
个亢	-9.03452
丫両中	-9.03471
丈亥且丁亟丣	-9.03555
丣乿了万丙亀亣	-9.03624
且亜	-9.03648
op	-9.0367
▁丂亙丕	-9.0385
丞丣亞中万丄乌	-9.03877
▁22	-9.03881
丫乿亚万丙亀亣	-9.03911
丠亟丩亣	-9.04013
丗亖丣乌	-9.04111
丛些丣	-9.04117
且乌	-9.04191
个両业亨丣专乌	-9.04228
个亝	-9.04415
両亟严亀亚丧	-9.0452
严乿亟	-9.04587
业乿亚万	-9.04591
55	-9.0462
▁23	-9.04649
13	-9.04672
亥両	-9.04724
丁了业	-9.04771
丠亨両亢	-9.04808
丈亥丁	-9.0499
严亞丄丣	-9.05042
丄丧亟両丣亀亨个交丁	-9.05052
丨交丁	-9.05119
丣亞业产	-9.05149
丙亟丗亣	-9.05275
▁丁亟亠亥丁丩亟	-9.05287
丙丄丣	-9.05318
丞亀亚	-9.05377
16	-9.05383
丁严乿亢丙	-9.05403
丣亀亜	-9.05449
▁50	-9.05485
业些	-9.0549
丁亚	-9.0551
▁‘	-9.05686
中亥万丁两丩	-9.05729
丞些	-9.05803
丠亟丩亟中亥万丁两丩	-9.05831
丢亡丙	-9.05947
丁亟丣丈亥且	-9.05952
▁业丣亢丁亟丣	-9.05991
丛严中且丠亥丢	-9.06086
丞亄万丄乿亚	-9.06265
#	-9.0627
中业	-9.06282
丣乿亟万	-9.06454
丁亟亠亄丙丣亀亨	-9.06528
个亗丫丣亥业丁亟丣	-9.06654
丙亝丁亙両	-9.0676
世产万	-9.06773
东亀亨丗乿亣	-9.06782
丫亀产丙	-9.06871
亀亍	-9.06898
丁丣产万	-9.0718
丁亦両乿亜	-9.07417
丄丙丗亜丢	-9.07442
丣亀亟丢	-9.07572
▁St	-9.07799
中亍丧亀亜	-9.07842
个亢丗丘亢	-9.0787
▁丣亞业业	-9.07921
▁両乿亜両亣	-9.07977
严亨	-9.08028
个亥丛且亟丫乌	-9.08078
个世亟丙	-9.08214
丫亙丕产丁亟丣专乌	-9.08216
▁丞两丨丈亢丁亟丢丙	-9.08227
[	-9.08362
上亀亟	-9.08372
01	-9.0853
ac	-9.08575
▁业亀亟丙	-9.08585
www	-9.0875
严亀中	-9.08758
上亚両丛乌	-9.08762
丗乿亣世亨丁	-9.08796
IN	-9.0884
ha	-9.08877
丣乿亣	-9.0892
丫乌	-9.08933
丕丙中亙万	-9.08962
ti	-9.09226
.6	-9.09284
丣乿了万丣亟丧	-9.0933
丗亙丄丙亢丄	-9.09334
ment	-9.09445
▁丧亥且	-9.09465
丁亀亟丧	-9.09469
中亚丣乌	-9.09503
bo	-9.09572
▁丙亥且	-9.09601
个丣产丛	-9.09652
产丙	-9.097
丧亢丗丢亟	-9.09745
个世亟丙丁亟丣专乌	-9.09761
个亣丂亟丧	-9.09855
18	-9.0988
乖	-9.0992
丂亜両亥丙	-9.1001
丁严	-9.10027
且中丁両亀亜	-9.10037
ill	-9.10297
丫亀亝丁乿亚	-9.10306
万业丛丣亞両亟专	-9.1038
乿亣	-9.10428
丛亜且亀丧丢	-9.10459
丢产丄	-9.10472
丄亙丣五丂乿亟丢	-9.10587
丢乿亡丙	-9.10702
丞亙上丣	-9.10723
ut	-9.10753
个亙	-9.10813
丕亟丣亟万	-9.10856
000	-9.10884
个亟丫亙丕产	-9.10984
个亀亙丙严了且丂中且	-9.11028
▁中亗丠二	-9.11042
.1	-9.11069
丣亨丛丠亟丞	-9.11119
丄亀丙丫亟	-9.11142
个亣且亗	-9.1117
▁SBOBET	-9.11178
▁上亀亝	-9.11219
丄严亢丁	-9.11258
丂互万	-9.11397
06	-9.11429
丄亙	-9.11478
上乿丧丢丫亀亝	-9.11501
▁De	-9.11544
乿亄	-9.11572
▁a	-9.11607
三业亥业	-9.11652
▁丂中	-9.11711
両云且	-9.11805
业些丣亟专	-9.1187
万乿亟丢乆	-9.11961
丙亥丁丗乿中万丗乿亄丧	-9.12018
丁亦丛云丙	-9.1211
丁严乿中万	-9.12137
中亥丙丕丣亟丢	-9.12164
严于丗亣且亄丧	-9.12336
丛丣亥业丛丣产万	-9.12361
▁中丢乿亟万丣亜丁亦丕亟両	-9.1242
丁乿亜	-9.12422
丛云丙丣乿了万	-9.12438
万丄乌	-9.1249
丫严亥丁个亨丕丣	-9.12494
丕亓両	-9.12515
丁严亖	-9.12535
ine	-9.12628
丗亟万且亀亟丙	-9.12635
丗亥丞	-9.12677
丄丣乿交万	-9.12701
丛亥丈丈亥丢	-9.12743
下二丣乌	-9.12914
丈万	-9.12917
ai	-9.12923
▁@	-9.12946
all	-9.13032
个両亟丄両	-9.13033
丫亀亝丛云丙	-9.13074
両乿亜丣亀亨	-9.13075
丞产丗丘	-9.13112
丞丧丁丣亍	-9.13164
▁丁亙両个乌	-9.13236
丗亣両万亟丙	-9.1327
ak	-9.13277
丙亝丛亥丈丈产业亥丙	-9.13343
▁丣中万	-9.13375
▁丕亗业严	-9.13427
do	-9.13751
丧二丣乌	-9.13959
est	-9.13962
▁p	-9.13968
丂中万丕亖中亙万	-9.1397
丗亀亥万丫严亟丢	-9.14095
丗产丁丧亥丙	-9.14202
丂亥且	-9.1427
丁亟丣丛丣亞上产両	-9.14325
丝交丁	-9.14338
02	-9.14371
中丢乿亨严亀亚丧	-9.14417
丗乿亣丕亀中万	-9.14474
丘亠両且亟	-9.1451
両亚丧	-9.14596
中丢乿亟万丕乿中丙乿了万	-9.14605
严万丗产丙	-9.14608
丈亟	-9.1464
丠亟	-9.14713
ver	-9.14717
19	-9.14749
▁丢亥万	-9.14753
ate	-9.1477
且亣丂亀交丙	-9.14813
▁严亀亟丙	-9.14928
丨亥丁且亢乌	-9.14937
丫亀亝且亀亜	-9.15004
丁丣亞业丧丙丁亟丣	-9.15037
丫亀亟両	-9.15073
丣亢両	-9.15098
両亟世交万	-9.15173
个両产丙丞亜丣	-9.15212
丗亣丧亣	-9.15258
36	-9.15326
-2	-9.15341
个丕	-9.15428
80	-9.15584
三亣且	-9.15626
下乿中両	-9.15636
丣亀亨丧乿亟	-9.15711
丨亢严丛亞	-9.15736
丧丢	-9.15789
丗乿亣両亣丄丧亟両	-9.15917
上乿亥丙	-9.15917
ho	-9.16007
亓	-9.16041
丫亙	-9.16122
丢些	-9.16176
世五丧乿亟	-9.16209
下亨	-9.16279
ap	-9.16313
且丙丕丣亣	-9.16323
丗亗丄丧亟両个亞中亟且	-9.1635
业亥万丄亥业	-9.16391
丢亢丙且亣	-9.16438
丁亄丣丕亢	-9.16448
丂亀亟両	-9.16473
▁业亟万	-9.16529
丗亥丙	-9.16531
亚	-9.16553
丙亀了丫亟	-9.16563
丨亟个丙亟	-9.1677
▁中亙	-9.16808
丛丣亟丁丏	-9.1684
▁Ma	-9.16977
丛亙	-9.1698
个世亟业亥丙	-9.17061
丢亥万万亜	-9.17084
个丠亟	-9.17157
丫丧亥万	-9.17281
下亜	-9.17302
丄丧亟両丄亢且	-9.17458
个亀了东亀亟	-9.17476
丄丣亀亥万丣亚丁	-9.17484
丄丧亟両丣亀中丙	-9.17534
pe	-9.17723
且交万	-9.17862
▁丗亖丣乌	-9.18013
per	-9.18084
05	-9.18195
丗些丩	-9.18212
丈亗丙丧丙両亟丁	-9.18269
丣亀中丢	-9.18325
丧亢丗丢亟丨亟个丕丣乌	-9.18377
丫亙严乿亟	-9.18435
丞亀亡丙丐亟丙	-9.18436
丄中両	-9.18482
丁亟丣丈亥且丁亟丣	-9.18653
丫丙亀亟丗乿亣	-9.18764
丁丣亞丈丁	-9.18856
▁Pro	-9.18873
丂中万丗乿亟丙	-9.19019
丁亦丕亟両	-9.19151
业亢丙	-9.19243
▁丣丧両	-9.19364
AN	-9.19441
个両中万	-9.19455
丛丣亞丧亥丕亢丨亟个丕丣乌	-9.19514
丛亚严丁	-9.19561
丙亝丛丣亞丗亙丨	-9.19569
両五个中万	-9.19597
両亨严丄乿亟	-9.19634
丁亙丩丕丣丁丣	-9.19713
di	-9.19754
且亨且	-9.19856
丁亢丈	-9.19883
▁丞中	-9.19923
22	-9.19929
丫丙亀亟丈中	-9.19954
丫丙乿丧丢	-9.19984
sk	-9.20048
▁中亟丄亟丣	-9.20052
▁丧亥丙丙亀亣	-9.20055
丙丧且	-9.20114
中亚	-9.2015
世亚丧	-9.20195
no	-9.20232
丙亝丛丣亞丗亙丨丗亜丢	-9.20264
丣亄丙丣亀亨	-9.20273
丗乿中万丗乿亄丧	-9.20435
丁亟丣丕严亟且	-9.20526
丞乿亓万	-9.20611
东亀亨丄丙	-9.20618
且亗丙亓丙	-9.2083
mi	-9.20871
丫亖丫丙亀亟	-9.20882
-1	-9.20953
丟中丣乌両	-9.20977
ong	-9.21043
业亟丣乌	-9.21094
丟亥丙	-9.21158
om	-9.21162
丂乿亚万丂亥丙	-9.21163
丫亙両亟亞个両	-9.2117
丏	-9.21199
且亀丧丢丄丧亟両	-9.21236
丝亥丙	-9.21253
丛亨	-9.21266
世丧亟丢	-9.21316
上亀亣	-9.21319
▁+	-9.21331
丂中业	-9.21407
丁亙丩丕丣	-9.21421
中亥丕丣亟	-9.21427
ud	-9.21456
▁丕乿亚世亀亟	-9.21465
14	-9.21518
▁丛亓且	-9.21629
丫丙中万	-9.21727
丞亙	-9.21734
东亀亨丫亝不乿	-9.21836
▁丣亀亟丙	-9.21949
両亣丛亥不丫亟	-9.21958
▁丕乿亚丁亦	-9.21961
上亙	-9.21989
08	-9.22009
AR	-9.2207
且乿丧丙	-9.22076
丗亗且亀亜	-9.22084
丛亚严万	-9.22135
亜	-9.22237
▁个亟丢	-9.22253
丙亀亗丕亟严	-9.22301
丫丙亨	-9.22309
丈亥万丫丧亞	-9.22352
个亀亥丙	-9.22371
丄丣亀亥万丙亀亣	-9.22429
....	-9.22476
丕亀亍丙両	-9.22605
东亚严	-9.22621
亀亣	-9.22622
丄些丣万	-9.22647
丁丣亞且亨丁	-9.22727
丫両亟丢	-9.22778
丁亟丣中中丁业亚业	-9.22807
丕乿中丙乿了万	-9.22808
▁丁乿中丙	-9.22809
丗丙	-9.229
丈云业	-9.22981
中云両	-9.22993
07	-9.23042
丂中万丞丧丁丂亍	-9.23186
上亀了	-9.23232
上亀亍	-9.23241
der	-9.2325
▁丁严乿亟丧	-9.23313
丄乿亟丢	-9.23405
▁丕产严亟丄両	-9.23426
个乿亢万丧亚且严亀中両	-9.2343
丧亢丧	-9.23478
he	-9.23482
丢乿亄両	-9.23604
丄丙中乿亡丙	-9.23684
丈亞世亨丁	-9.23694
上亟丧业亀亟丙	-9.23735
丈中両	-9.23776
中亞	-9.23791
sa	-9.23927
丗乿亣丁亓且丂亀交丙	-9.23971
丠亟丢丕亀亝	-9.23996
丈丙世交万	-9.24019
丁亢丈丁亟丣	-9.24048
乒	-9.24075
丂丙亟且严云丁	-9.24079
丠亟丢丙中丁	-9.24103
严乿亜	-9.24127
万亟両	-9.24177
art	-9.24221
▁b	-9.24259
丁亟丣乌丕亨丙	-9.24376
丁严亥业丛亜	-9.24443
丢乿亣丫亀中	-9.24496
上亀亟万	-9.24619
AM	-9.2475
▁両乿了丧亥丙丗乿亣	-9.24799
丧乿亟丛云丙	-9.24824
丕亄万	-9.24849
丣亄丁丧乿亟	-9.24874
个乿亣	-9.24908
严亀亚丧丁亦	-9.24924
且亀亜丧乿亟	-9.2496
东严両亀亜	-9.25057
下亙严严乌	-9.25156
▁Z	-9.25163
丣亣业	-9.25168
丗乿亣丙乿亟	-9.25198
34	-9.25441
丁丣亞且亟丩	-9.25456
28	-9.25578
丝丣乿亥万丨亙个	-9.25593
▁丈亥且	-9.25665
丁亀些	-9.25667
亢丕	-9.25692
中丢亟丁丈亞	-9.25729
严亥丁丩专亞	-9.2577
亥万	-9.2578
23	-9.25836
丣乿亙万	-9.25945
丂亚丙	-9.2597
丄亟且	-9.26029
丙亝万亟丙	-9.26104
丧亢丈亥丢	-9.26109
个亢业	-9.26161
ite	-9.26335
vi	-9.26428
业产	-9.26435
业丗丄丧亟両	-9.26466
丁亟丟亚	-9.26511
丕亀中丙丣亥业	-9.26512
个亍	-9.26544
上乿中万丗亟万	-9.2656
ub	-9.26607
丗亥丁丩亞	-9.26613
丝丙	-9.26628
亥丢	-9.2668
丫严乿中	-9.26781
ay	-9.26814
丁二丣乌	-9.26856
丢乿亟丙	-9.26888
21	-9.26954
丙亗丛亜	-9.27048
49	-9.27068
丕亀亟	-9.27105
.2	-9.27111
丣乿丧両丁亥业	-9.27151
両亣丄丧亟両个产丂	-9.27179
ve	-9.27202
且亟丣亟	-9.27265
▁乒	-9.27319
丧亓丣乌両	-9.27324
ow	-9.2734
丁产	-9.27389
丫両亨	-9.27418
丆乿亟	-9.27552
丫亀亝丄产专	-9.27572
下亀亗	-9.27589
且亣乆	-9.27642
丛亙严乿亣丢丙丛亚严万	-9.27694
丗乿亣丙乿亟个丙丈亝	-9.27704
丂亀亥丙	-9.27751
▁丫丙中丙	-9.27775
丁亦丢亥万	-9.27949
丛丣亞丁中业且亀丧丢	-9.2798
丂亥业丣世	-9.27993
▁丫丙亥万	-9.27995
▁To	-9.28005
▁中亟	-9.28159
04	-9.28212
且些且且乿亙丙	-9.28234
丣亄	-9.28271
严于丄丣亥业	-9.28322
丙乿亚	-9.28329
上乿亖両些万	-9.28369
丧亢且亣中些	-9.28413
丫亀中万丞亥丁	-9.2842
56	-9.28426
丣了丙	-9.28453
▁个亗丙亥丁万亟丙	-9.28459
丫严亟丢乆	-9.28514
ot	-9.28581
上丧丙	-9.28607
且亣下亜丙乌	-9.28627
丠亨	-9.28743
丧丣	-9.28748
丁亟丣乌且	-9.28762
世亥万	-9.2877
丕亀些	-9.28796
亢丙	-9.28882
▁丯严丯	-9.28912
亗	-9.28916
su	-9.28953
中严	-9.28999
両乿亚丙亀亗	-9.29108
▁丁严亟丁	-9.29192
丄亗个乿亥万	-9.2921
▁28	-9.29261
丁乿亙万	-9.29291
严予両亣	-9.29353
丫中両	-9.29356
丗乿亖丛丣亞丗亙丨	-9.29364
丗亗严亟丢	-9.2937
丄些丣万个丣亀亟万	-9.29377
丙乿亚丙	-9.29424
丙亝丣亞且亥业	-9.2943
丫丙亣	-9.2944
丗亗丫亀亝丁亓且	-9.29448
▁Me	-9.29465
▁1,	-9.29597
丣丧且丣云丧	-9.29599
丧乿亟万	-9.2961
上亥丙	-9.2962
one	-9.29631
上云丄	-9.29691
亖	-9.29716
且云且	-9.29744
丟亚上乿亥丙	-9.29766
中亥且	-9.29843
丟亙	-9.29843
▁世丙丙	-9.29865
丄両	-9.29963
丣亀亟丙中亟丫亟丣	-9.30002
▁丘	-9.30065
丗乿亣丗亗丫亀亝	-9.30065
ie	-9.30087
丣亥业丣中万	-9.30176
严万両亟	-9.3026
丣些万丞丢亟业亟严	-9.30514
丞丣亞丈亀亍	-9.30552
中些丙	-9.3056
丄丧亟両个亟両亟丣世	-9.30674
両亟丫亀亝	-9.30758
丗亗丫丙亀亟丗乿亣	-9.3076
▁世亨丁	-9.30804
ER	-9.30813
亄丙	-9.30871
38	-9.30872
丈亨	-9.30911
丙丧亥丕丁亠両	-9.30925
丛丣亞且云丙	-9.30943
丞亨且世交万	-9.30956
上亢万	-9.30976
丗且个中业	-9.30978
90	-9.31087
丄丧亟両丣云丧	-9.31141
个亀亢丙	-9.31171
东亢丧丫丙亥万	-9.31188
丫亙両亟亞丁亥业	-9.31203
中丢乿亟	-9.31237
业亟丙	-9.31403
▁両亢	-9.31451
且亓両丞亥丙	-9.31571
go	-9.31588
个世亢丕亢	-9.31597
丢中且丢乿亄両	-9.31614
丄严亀亟丢	-9.31689
丕亀丙両亀亜	-9.318
▁60	-9.31802
45	-9.31868
▁両亀亚	-9.3187
严予丄丧亟両	-9.32055
世乿亢丙	-9.32114
丄产专个両业亥丕亢	-9.32177
下亞	-9.3219
▁丞丣亞	-9.32204
ni	-9.32218
丢亡丙丢亥丙	-9.32233
丛丣亞个亢丗丘亢丠亟丞	-9.3227
丁亟亠亥业	-9.32272
为	-9.32284
中亚业	-9.3231
両乿亜丁亓丙	-9.32378
59	-9.32553
丄丣中万	-9.32638
个亥万丁亙丕	-9.32652
严亀产丙	-9.32655
丙亟両	-9.32719
且亝乆	-9.32775
両丫亟上丙	-9.32788
丧亥丢丣乿产丙	-9.32799
丧亟且	-9.32805
▁26	-9.32806
99	-9.32864
va	-9.32914
ee	-9.32976
con	-9.32985
丈亞且亀亜丣亥业	-9.32998
両乿亜且亣	-9.33007
両亣丛丣亞个亢丗丘亢丠亟丞	-9.33062
丗产丁丗乿亟丙	-9.33484
丧亥万	-9.33487
丄亨	-9.33487
丈亊	-9.3356
▁丙亀亢丧	-9.33583
丕亀亨	-9.33636
予	-9.33704
丄亗丧乿亟	-9.33779
丛亜世交万	-9.3383
中云丙	-9.33901
丈亗丛云丙丕亀中万	-9.33923
ON	-9.3393
ue	-9.33937
丫乿亚万丛丣亞丗亙丨丗亜丢	-9.33941
丈亗丁亥且	-9.33954
丕亓业丕些	-9.34032
age	-9.34129
▁丂乿亟丧	-9.34269
両亀亟	-9.34277
44	-9.34308
严云丁乆	-9.34343
丫丙乿交万丙亝	-9.34399
丛丣亞丫丢亥且	-9.34414
丗乿产万	-9.34565
丫些	-9.34618
个了	-9.34675
严乿亟万	-9.3473
丁丣产万丗亙丞	-9.34804
严乿亙両	-9.34917
丣亥万	-9.34949
丁中万丗产丙	-9.3519
丈亟丙	-9.35301
且二丣乌	-9.35335
中丢乿亨丁亥业	-9.35399
丁亗	-9.35424
si	-9.35431
个万丄丣亟両	-9.35457
丄产专丈亞	-9.35473
丁严亀亟	-9.35501
丂亀交丙中丢乿亨丁亥业	-9.35548
丫亚丧丙	-9.3581
丛亚严	-9.35811
中亟丣乌	-9.35853
丂丙両	-9.35865
35	-9.35894
丂乿亚万	-9.35919
丄丧亀亟	-9.35926
丢乿中丢	-9.35939
丣亞业亄业	-9.35992
丗乿亣业亀亟丙	-9.36007
▁中丢乿亟	-9.36012
丙亗丂亀亍	-9.36025
个乿亥万下亀五	-9.36064
严亚	-9.36126
▁•	-9.3613
丣亣丧亢丧	-9.36263
▁丁严乿产両	-9.36305
个亗丣云丈	-9.3636
丠亨両亢丠亟丄	-9.36373
丗亙丨丁亟严	-9.36374
▁丁亝严亀	-9.36553
中且	-9.36579
▁27	-9.36602
严中丢	-9.36605
丂中万丛丣亞丗亙丨	-9.3663
严亟丙	-9.36701
丛亓且东于	-9.36775
业亠丈产	-9.36947
亨	-9.36976
中个	-9.37071
东亀亨业丣亢丠些丄	-9.37079
严亡両	-9.37083
丛些丣両些上乿亥丙	-9.37098
-3	-9.37163
丣亍且亀亜	-9.37224
丄亙个	-9.37251
万乿了丙丂亜	-9.373
丣中万丗亀亍	-9.37316
▁严且	-9.37319
丁亗丣亜	-9.37382
严中	-9.37409
上亀亝业丣亢丁亟丣	-9.37448
个产且丢中且	-9.37489
丣丧业丣丧両	-9.37495
丧万丨乌	-9.37575
!!!	-9.37669
且亀亜丣亥业丄丧亟両丙亢丢両	-9.3775
丞亙丨	-9.3778
丫云丙丧乿亟	-9.37822
▁下亀五	-9.37848
丁亟丣丁亙丩丕丣	-9.37848
上亣	-9.37937
man	-9.37965
▁Thailand	-9.37993
丮亙	-9.38068
▁个亢万丫亟丄両	-9.38096
丂中万东亀亨	-9.38113
丂中万丄丙	-9.38162
丗丣	-9.38218
▁両丫亟丧亢丗丢亟严亥丢	-9.38219
中业丣両	-9.38304
▁且亀亟丙	-9.38325
ru	-9.38352
▁丁亥丙丢亟丢丙	-9.38426
乿些	-9.38457
丣亀中丢严亞	-9.38532
了	-9.38562
丫些严且	-9.3866
丙亝丧亙严亟	-9.38663
丠亨丁云丕	-9.38726
丈亥丙丗丣乌	-9.38803
丙亝中丙亟丄丕	-9.38806
中亥丕丙些両亥丕亢	-9.3881
丈亚丁	-9.38843
▁丧亢丘亣丁亟丣	-9.38884
世五丛云丙	-9.38889
丛些	-9.38914
丁亟丣个亚且万	-9.38934
中亟下亄丙	-9.38981
个丙	-9.39052
丣乿亟	-9.39086
lu	-9.39099
▁个乿亢万丗乿亣	-9.39164
▁丄丣亀亥万丗乿亣	-9.3917
丞丣亀中両丁亥业	-9.39214
▁de	-9.39229
下中丢	-9.39315
丘亟丕产	-9.39387
ist	-9.39393
03	-9.39506
ant	-9.39566
中亗丙丧丢丄丧亟両个亞且丧丁	-9.39628
丄丣	-9.39645
42	-9.39676
tal	-9.39702
丕亀中万両亣	-9.39704
▁丙中丁丈亟丁	-9.39819
▁m	-9.39824
丣亀亟丙丄亀亟	-9.39837
丗乿亣丄于	-9.39837
个亄丧	-9.39854
丧亙丗亣	-9.39872
丗中且	-9.39896
48	-9.39899
▁丢亟	-9.39937
mm	-9.39962
▁世亚両	-9.39992
丙亀亣丈亞	-9.40009
严云丁丙亀中丢	-9.40011
ity	-9.40032
丕丁严万	-9.40065
丧亢上亟丁亟丣	-9.40081
个丣亀亟万个亠丄乌	-9.40177
严亓丁	-9.40197
17	-9.40218
丁亗丙亓且	-9.40236
丗亚万业中严	-9.40258
両亚丙	-9.40336
业亨	-9.4034
ab	-9.40342
丁亟丣万亓丙	-9.4037
ba	-9.40418
且些丢丕丣万	-9.40457
丫亙严乿亟丙亀亥丙	-9.40471
丈亗丛云丙	-9.40574
严乿亣	-9.40591
丗乿亣且亀亜丣亥业	-9.40593
丄乌	-9.40608
个亞个両	-9.40741
丄丧亟両丣乿丧両両五	-9.4077
▁両亢世产丙亟丢丙	-9.40788
丫丙亟	-9.408
▁2016	-9.40804
丞丣亣両亄丣乌严亣丁	-9.40807
両产	-9.40855
亊	-9.40877
丁亦个亟両亟丣世	-9.40934
▁08	-9.41011
且些丢三亙丞亟亞	-9.41031
▁Vi	-9.41055
丗亚万	-9.41101
▁w	-9.41128
sh	-9.412
上亥且	-9.4124
中丢乿亟万両亟丁	-9.41254
丗乿亍丫亜丣乿	-9.41271
丕了丙	-9.41283
両亨	-9.41296
ss	-9.41303
丗乿亣丫亜丙	-9.41387
丧亥丕世产	-9.41423
严亚丙且乌	-9.41434
丝丣乿亥万	-9.41468
26	-9.4152
丞丣亞丣亟上	-9.41541
上亓不	-9.41552
丛亡丙	-9.41617
中且亣丕	-9.41675
丕乿亚万万亟丙	-9.41729
丛丣亟	-9.41807
丄中丙且些	-9.41859
39	-9.41884
个产丙亥丂	-9.41925
▁中亙丟下亣	-9.41957
▁丄些丣万丁亟丣	-9.41974
丞亚	-9.41998
个亀亨	-9.42204
丢亟両	-9.42267
业产丕丣	-9.42294
东亀亨丙亗	-9.42315
丕亀亣	-9.4236
个亣且亚万	-9.42397
-0	-9.42459
▁x	-9.42499
▁丕亀亥万丕乿亚	-9.42527
46	-9.42556
个产且乆	-9.42592
丣乿亜	-9.42621
丗乿亣丁亗严亥万	-9.42694
▁丗些丣	-9.4273
丁亟丣丗乿中万丗乿亄丧	-9.42772
丮亜	-9.4281
个亢丧	-9.4285
下些丙	-9.42852
业亠且亟	-9.42915
em	-9.43001
da	-9.43004
丁丣亞丈亟丢	-9.43029
29	-9.43043
▁40	-9.43044
争	-9.43059
丂互万丣亚万	-9.43106
中亢个丣亞	-9.43129
下亟丙	-9.43183
▁丛丣亞丗亙丨	-9.43196
丄产专个亟両亟丣世	-9.43215
上亨	-9.43221
丫亝両乿乆	-9.43234
丄亀产両丄乿亟	-9.43245
丙亀亣丛云丙	-9.43301
个亞丞亟丙	-9.43359
—	-9.43427
丈亥且个乿万	-9.43431
▁iPhone	-9.43484
中丙产	-9.43524
业亝丫丙亀亟	-9.43567
丁亟丣丛亙严乿亣丢丙丛亚严万	-9.43663
丄丧亟両个产丂	-9.43696
丫丙亀亣	-9.4371
ell	-9.43725
両亀亚	-9.43754
丕产	-9.43791
丁亀中丙	-9.43792
乔	-9.43831
个丢亟両	-9.43913
中产专丫丠亨両亢	-9.43922
东丙亥万	-9.43945
丁亝严亀丄亄万	-9.44024
tr	-9.44031
丗乿亣丫亙両亟亞个両	-9.44132
丈亞上乿丧丢	-9.44153
▁丛亥丈丈产业亥丙	-9.44226
丫严丧万丞乿中	-9.44233
丙亀亢丧	-9.44282
亥不	-9.44342
丈亥且丗亗	-9.4441
丄丧亟両个亥両丞亥丙丘乌	-9.44424
▁»	-9.44444
丛亙严乿亟	-9.44482
丄亙丣乿五万且乿亡両	-9.44582
37	-9.44612
且亣両亟丁	-9.4463
65	-9.44696
丄丧亟両丈丣亢万	-9.44715
両亟丛云丙	-9.44755
上乿五丧乿亟	-9.44846
中両亙丣亢丁亟	-9.44847
丄亟丣乌	-9.44915
▁4.	-9.44951
ard	-9.45014
严亢丙	-9.4506
丈且丗亞业亄丙	-9.45089
亀些	-9.45303
丙亟丬亢丁亟	-9.45387
丢中両丣亥业	-9.45429
丫不亀亟	-9.45462
丝亟	-9.45541
丨丞	-9.45586
EN	-9.45727
丄丧亟両丄亢且丫云丙	-9.45751
ig	-9.45755
丣个上亟丕亢	-9.45756
▁丁亟丣丂乿亚万丂亥丙	-9.45758
▁29	-9.45776
両亥丙丈亞	-9.45782
丧亢丙	-9.45806
Q	-9.45857
东亀亨丛丣亞丁中业丁亟丣	-9.45862
▁両亣丙亟丄両	-9.4593
▁Sh	-9.46317
丂中万丘二	-9.4633
丧亀亜丙亝	-9.46331
ph	-9.46431
丁亨	-9.46445
丫中	-9.46453
业亥万	-9.46465
且亀亜両亣丁亟丣	-9.46478
丄丧丣丈亞	-9.46519
丫严万	-9.46528
丛些丣且	-9.46626
=	-9.4663
▁2558	-9.46661
os	-9.46703
丗乿亣丁乿亄丧丂亀中万	-9.46762
丕亀亚両	-9.46814
丈亞个亟両亟丣世	-9.46837
丄亗世亟両	-9.46907
丁严亀亟両丙亀了	-9.4693
ge	-9.46934
▁丁严乿亟丧丧乿亟	-9.46951
丙亝丣乿了万	-9.46959
▁丕中丙丙亀亣	-9.4706
丫亥丁	-9.47076
▁丞丙亥丁万亟丙	-9.47097
丛丣亞上亟	-9.47136
云	-9.4714
両亄	-9.47159
丢亍丧上丙	-9.47175
上亢丙	-9.47266
两	-9.47274
▁La	-9.47318
200	-9.47333
丗些	-9.47468
▁丗亣両	-9.47509
丞亥丁东乿中丙	-9.47576
丞两丕亢丁亠両	-9.47583
世中丙	-9.47637
且亀亜万乿亟丢	-9.47683
且乿亡両	-9.47773
业丣亢	-9.47851
丁与	-9.47891
▁Y	-9.4799
丮些	-9.48068
xxx	-9.48078
ki	-9.48098
上乿亝	-9.48154
両亣中丢乿亨	-9.4816
严亀亗	-9.4819
个丛亙丙	-9.48261
丗亗中亞丣亜	-9.48294
严亥丁	-9.48378
▁Mo	-9.48407
丁亟丣东乿亟丕亥且	-9.48516
且亓丙丗亟万丛亜	-9.48519
亥业	-9.48527
丁乿中丙丫丙亀亟丙亀亣	-9.48543
丞亠丄	-9.4857
▁両亙	-9.48574
丙亝丁丣专亣	-9.48603
中亀中丢	-9.48636
个亗丣中万	-9.48649
丙亝丣亨丛业亚业	-9.48685
27	-9.48701
个丣亀亟万丄丧亟両	-9.48719
业亗丣产万	-9.48773
丠亥丢	-9.48828
両亣丄丙	-9.48872
中亥严	-9.48896
丞些个丕乌	-9.48909
丙乿产両	-9.48912
ice	-9.48979
▁丣些	-9.4902
丫亙严五万	-9.49051
丁丣中万	-9.49052
▁丄严亢丛	-9.4906
丈亢丕丈亝	-9.49075
丗乿亣丗亗	-9.49082
个亞且丧丁个业亟丢	-9.49179
乘	-9.49194
丂中万三亥丙	-9.49387
丛丣亞个业丄丧亟両个亗丣云丈	-9.4943
丂中万严些丁	-9.4944
丧亢丕亟両亢丙	-9.49465
▁丫亙丣亣丢不	-9.49467
▁丁丣丁与亟丄両	-9.49485
丛丣亞丁亟丣	-9.49507
▁丛丣亞丗亙丨丗亜丢	-9.49532
70	-9.49533
両亥丙丁亦	-9.49548
▁丛丣亞丠亙丗	-9.49552
丢中両	-9.49553
▁丁丣产万丗亙丞両丫亟丙丄丣	-9.49565
东严丁丣亞丗业	-9.49638
75	-9.49695
88	-9.4973
▁丕中丙丗乿亣	-9.49888
58	-9.49891
中亥丁个亙业	-9.49934
丁亟万丁亙万	-9.49973
下亥丁	-9.49993
丙亚丧丄亢且	-9.49997
个亢丙	-9.50102
业亍	-9.50102
64	-9.50116
▁31	-9.50117
▁中产丛丁丣专乌	-9.50182
丁亙丣	-9.50232
▁个亣	-9.50237
丣亟万	-9.50256
业亢	-9.50273
丂亀中个亙丙中	-9.50278
丗乿亣両亟	-9.50339
▁丢乿亢万	-9.50365
丞丙亥丙	-9.50459
丛丧且	-9.50462
丁产严	-9.5047
丣乿了万丂中万	-9.50473
个亗丙亥丁	-9.50477
丙乿亥丙	-9.50509
下乿亣	-9.50516
乙	-9.50522
且产	-9.50586
业亖	-9.50613
▁両亙丩亟丢丙	-9.50659
ect	-9.50678
▁丫両乿亨	-9.50752
中丢乿亟万丙乿亚丙中丙	-9.50843
丫亀亝両亣	-9.50877
丛丣亞丧亥丕亢	-9.50889
丧产丒亢	-9.50916
丫亥丙	-9.50936
▁xxx	-9.5097
丣両	-9.50971
丙云丕	-9.51
丣亚万万亟丙	-9.51017
IC	-9.51101
个丫丣亥丐中両亙丣亢丁亟	-9.51112
下亙丙	-9.51116
-5	-9.51164
両乿产万	-9.51266
▁丫乿亚万	-9.51325
丗且严中万	-9.51387
丟亢	-9.51458
▁h	-9.5152
▁丫丙亥万丛亁些	-9.51527
丗丣亥丞丢乌	-9.51653
丄丧亟両丕亀中万丁亟丣	-9.51692
亦	-9.51694
丁亓丙丛亜	-9.51795
东亀亨东严亢丕	-9.51813
丙亟丙亟上亟丕亢	-9.51849
丕亖丗亚丙	-9.51875
丫両亟丢世交万	-9.51898
丕交丁	-9.51921
丣亟丁	-9.51936
丫乿丧万	-9.52045
▁by	-9.52076
丈亞上亀亝	-9.52118
亢両	-9.52153
▁丄丣亨	-9.52291
个亟両亟丣世上亀亝	-9.52297
丈些	-9.52422
二丣乌	-9.52484
pa	-9.52485
br	-9.52485
业亟万丄丙	-9.52565
丣世丟亜	-9.52627
▁个亟丂亟	-9.52641
丕亀中万上亀亝	-9.52677
▁丣乿丧両	-9.52696
丁乿中	-9.52719
ive	-9.52734
▁中亟丗亢	-9.52751
ear	-9.52761
业亚丙	-9.52769
丣中且	-9.52813
丗亞业亄丙	-9.52854
业丧丁	-9.52872
▁中且亣丕	-9.52915
丛亜丗乿亣	-9.52915
丕亙	-9.52931
丄亗丕中业	-9.53021
云万	-9.53026
▁http	-9.53027
MA	-9.53117
▁丞严	-9.5318
100	-9.53214
严亜	-9.53239
丣亄万	-9.53264
丞中且亣	-9.53291
个両且云丈丞丣亞	-9.5334
严亥业	-9.53341
丫亀亝丣亍	-9.53345
▁61	-9.53346
丞乿亜	-9.53413
中丢乿亟万丙亀中丢	-9.53447
东亀亨业丣亢丫亟丣	-9.53492
▁Se	-9.53493
严亄	-9.53498
54	-9.53565
世中且	-9.53626
三亟丁	-9.53753
丈亣丄严亥业	-9.53846
丕亀亥万丈亝	-9.5385
严亚丁丛亙严乿亣丢丙	-9.53871
▁200	-9.53893
业亙丙	-9.54041
丧亟万东亚丙	-9.54055
丣亍丁亦	-9.5406
両亀亚丕乿亚	-9.54064
▁且丣	-9.54084
业亟万丄丣亀亥万	-9.54114
丢亞	-9.5412
▁丄丧丣	-9.54281
丄亙丣乿五万丢丙丕乌	-9.54475
丁亥丙严于	-9.54494
ion	-9.54518
ip	-9.54654
ts	-9.54659
丛乿产両	-9.54665
丂中丙丁乿亚丙	-9.54676
丁亟丣且亗丙亓丙万亟丙	-9.54693
丙亝且云丁	-9.5471
▁=	-9.5476
严亀亟丙	-9.54828
丛丏亢业亥丕亢丁亟丣	-9.54871
亀中	-9.54874
丁亀亨	-9.54908
丞严亟且	-9.54939
丂中万丛丣个亢丕	-9.54963
丫严亥丁丐亟丙	-9.54981
TH	-9.55005
丕亥业	-9.55021
个亗	-9.55074
乕	-9.55096
丫严亥万丄亟	-9.5513
po	-9.55168
东乿亚丙且亢丙	-9.55179
丣乿両	-9.55189
丛丣亞上亟个亥両丞亥丙丘乌	-9.55216
丛丣亞両亓丙	-9.55247
丁亟丣丗且个中业	-9.55249
09	-9.55271
丄丧亟両个亄丫亟丢	-9.5531
上亗丣亞	-9.55382
ide	-9.55388
▁中亟丫亟丣	-9.55456
丄丣亖	-9.55465
丢乿亢万丫亝不乿	-9.55546
▁丛些丣丁亚丣両	-9.55566
丄产両	-9.55623
且亥业	-9.55655
両亟丁乿中丙	-9.5566
ty	-9.55702
両亨严丙亢丘亢	-9.55727
世五丧乿亟丛云丙	-9.55741
且些丢両乿亜	-9.55763
个乿丧丙严且	-9.55775
43	-9.55806
丁亟严	-9.55817
*	-9.55819
▁Di	-9.55853
丫亀中万丙亀亗	-9.55969
▁---	-9.55989
丙交万	-9.56058
▁Bo	-9.56058
丁亟丣丕丣丧丈	-9.56085
▁New	-9.56091
5%	-9.56296
业亚丕丕二丣乿亣	-9.56371
77	-9.56381
両乿亥丙丈亝	-9.56501
丄严乿亡丙	-9.56573
且些丢上亀亝	-9.56596
个丕乌	-9.56604
亥丄	-9.5661
丈亀亟	-9.56634
gi	-9.56652
上些丄	-9.5669
丫亙両五丙丁亥业	-9.56732
丙亝严些丁	-9.56772
丙亝丂亙丕	-9.56783
中亢严云丁丗丣中丙亢丁个乌	-9.56789
个世亟丙丗乿亣丗乿中万丗乿亄丧	-9.56802
东亣	-9.56857
丂亀亟丣亟上丁亟丣	-9.56948
个亢丙上乿了	-9.56977
丣丧両世交万	-9.5699
ers	-9.57071
▁个亟丧	-9.57124
丄严	-9.57135
▁个亢丙丄亀亟	-9.572
両亣严亥丁丩专亞	-9.57206
下乿交万丛云丙	-9.5725
且亀亟	-9.57272
个亟丙	-9.57278
ka	-9.57286
丄五丁亟丣	-9.57322
丫亀亟万	-9.57334
丣亟両	-9.57341
▁www	-9.57404
亚両	-9.5741
个亣个亥丙	-9.57428
▁丁両	-9.5743
丙亝且亀亟丙	-9.57492
亓严	-9.57495
丫丣亨	-9.57499
亥上	-9.57535
丙亝丣亟丄亟	-9.57541
丗亟万严了丁	-9.57573
▁https	-9.57621
▁両乿亜丕亀中万	-9.57682
62	-9.57894
丫亀亝严了丁	-9.5792
丄产专丄乿亟	-9.57953
业亀了万丕亀丙	-9.57979
且亣丗乿亣个产且	-9.58054
両亟丙	-9.58071
丕亖严亙丂	-9.58077
丕亟両丗乿亣	-9.58097
业乿中丢	-9.58106
丗丣亟丢	-9.58135
严乿了丙	-9.58138
世亀亗	-9.58159
丧亢丗丢亟严亥丢	-9.58244
且亥万丙亀亣	-9.58309
中丙亟丄丕	-9.58355
丛亀亚万	-9.58371
且亟丧丙乌丫些严且	-9.5841
丗乿亣丂亍	-9.58415
丗亢丨	-9.58417
亡	-9.58433
ack	-9.58438
丣产丙丣亚万	-9.58522
亂	-9.58543
丗乿亣东両	-9.5862
丁亠両丁亟丣	-9.58634
亀产万	-9.58705
丛亁些	-9.58777
丣亞业亓且	-9.58819
业产丣亣丣亥両丢乌	-9.58861
丮亢	-9.58876
个丕丣亣	-9.58889
个亗丣丧丈	-9.58899
▁丞丣亀中両丁亥业	-9.58903
亄万	-9.58906
亚万	-9.58928
且亨丫丙亥万	-9.58936
丞亊	-9.58967
个丕二丣乌	-9.58976
丣亥业东亢且上中业	-9.58985
业亥专丑亢丕	-9.5899
上乿了両丕乿中	-9.58992
亀亙丙	-9.59041
丁亙丣且	-9.59063
▁丫亙両亟亞个亗丫丣亥业	-9.59084
中中丁丁亗严亥万丁亟丢	-9.59093
両亜	-9.59117
中亍上丙亞	-9.59147
▁丞两丩丠亟丄両	-9.59204
▁Tr	-9.59249
个乿亄万	-9.59282
上亟丣乌丈	-9.593
丣亍丕亀中万	-9.59354
丞亥丙丘乌	-9.5947
丫亀亝丫云丙	-9.59481
丛云丙丕亖	-9.59509
▁丄产专个亟両亟丣世	-9.59531
▁下乿交万両亣	-9.59618
両了万丗亜丢	-9.59627
业亟万中丢乿亟万	-9.59657
亀亨	-9.59671
両亢丕亢	-9.59748
上亀亥丙丙亗	-9.59858
丣亄业丣亀中丢	-9.5987
▁上乿丧丢	-9.59875
両亞丣云万	-9.59901
mp	-9.5996
丣亟丢上乿五	-9.59986
▁丣亟丢	-9.59997
丁中万丗亥丞	-9.60024
东両丁亦	-9.60031
丛亜丁亥业	-9.60039
▁丈产且	-9.60237
交万	-9.60238
丁亄丣乌	-9.60241
sp	-9.60263
丛云丙丗乿亣	-9.60285
丕亖严了丁	-9.60314
丁丣亞丕亀产丙	-9.60359
▁丗乿亣丞亥丁	-9.60399
丙中丁丈亟丁	-9.60451
丈亥且万亟丙	-9.60482
丄产专両乿亚	-9.60486
丄亢丧	-9.60554
ster	-9.60664
丁丣亞丗亗	-9.60734
丛亙丣亣丢业丗亄业	-9.60809
53	-9.61012
丢万	-9.61072
▁Ex	-9.61082
丛亣丙亀亣	-9.61122
下亚	-9.61134
丄亀亟	-9.6115
业产丄严亟丁丣	-9.61153
且乿亄丧	-9.6117
▁HD	-9.61189
丄亀亙丁	-9.61197
丢亟个亙丞丕亢且	-9.61218
个両亟丣乌丗丟些丙	-9.61219
ag	-9.61221
丄丙丫丙乿交万	-9.61247
丄亀些上	-9.61262
个亟丢丕亟	-9.61315
丂丙个乿万	-9.61372
▁丛丣亞丕亨	-9.61383
丙亝丕乿亚严亞	-9.61419
丂亀亚万	-9.61429
US	-9.61445
ou	-9.61504
丙亝丣些丄个亞丁云且万亓丙	-9.61523
丧亢丗丢产	-9.61529
东于丞亚丣乿	-9.61532
亘丁	-9.61541
且乿亙丙	-9.61547
个亙且亦丈	-9.61679
丈二丣乌	-9.61692
両亢丙	-9.61693
丆	-9.61755
上亄万丣亟丢	-9.61791
丗中	-9.61799
61	-9.61803
57	-9.6183
▁丁亢丈丁亠両	-9.61838
▁d	-9.61874
中亟丗亢丕丢乌	-9.61874
丈亞丗亗	-9.61899
▁For	-9.61945
▁2557	-9.61989
丝	-9.62019
丄丧亟両丫云丙	-9.62023
中丘亢业亟丢	-9.62028
丢亟丧丙亟丙	-9.62051
丛云丙个乿亢万丗乿亣	-9.62072
66	-9.62096
▁Bu	-9.62104
丂中万丗亜丢	-9.62121
ga	-9.62197
丙亝両了万	-9.62339
乐	-9.62366
▁丣亟丢丁亟丣	-9.62387
▁丘亥丙丧亟丄両	-9.62438
▁Ro	-9.62479
且亀亜丗乿亣	-9.62498
丕严中且丧亙严亟	-9.62544
両亣中亟丁亟丣	-9.6256
▁中些	-9.62612
东乿亟丙丗亟万	-9.6264
个丕亢	-9.6265
丕乿亚万丕亀亥万	-9.62701
32	-9.6273
丁亀亚丛亥不丫亟	-9.62786
▁丠亟丢丙亝	-9.62792
丈亀亍丕亖	-9.62881
41	-9.6294
个亥両	-9.62993
丂产丙	-9.63021
个亡业	-9.63023
丞丣亞业亟丗个両且云丈	-9.63046
丂专亞丙亀亣	-9.63068
31	-9.63093
.1-	-9.63249
丫亝	-9.63279
丛云丙丫丙乿交万丙亝	-9.63313
丐	-9.63339
丛丁丛亀中万	-9.63372
丠亟丢丫严亥万	-9.63383
个亄上亣丧亢丕	-9.63416
丄亥且	-9.63435
丫両亟丢严亙丂	-9.63438
son	-9.63492
丨亢严丛亢丙	-9.63503
▁Q	-9.63563
丣亀亨个交丁丧乿亟	-9.6372
个丙亟両业亢丙	-9.63761
AT	-9.63788
▁2015	-9.63797
个亄丫亟丢	-9.63864
両亥丙丛云丙	-9.63894
业亨上亟	-9.63896
@	-9.63923
▁両丁丣亟丄両	-9.63924
丣亥业丛丣亞丗亟丙	-9.63931
▁丁亢严些両亙丕丣	-9.64048
丞亥业	-9.64061
丕乿亡丙	-9.64098
丂中丫亀亝	-9.64158
ber	-9.64166
中亢丕亟严亣	-9.64239
▁丈亞両亣	-9.6424
ass	-9.64256
严亀丧丙	-9.6426
丢亥万丛云丙	-9.64275
丣亄业	-9.64297
中万丄乌丁亟丣	-9.64315
.4	-9.64386
丛丣亞丘亟丙	-9.64453
严亜丙乌	-9.64487
▁valgus	-9.64488
严云业	-9.64624
业乿中	-9.64773
丝亣両五	-9.64805
pr	-9.64847
丂丢亞	-9.64863
are	-9.64863
▁下乿交万丈亞	-9.6488
400	-9.64989
严产丁	-9.65015
丛亥不不亟	-9.65017
丗亜	-9.6507
丫亟丢丛亜	-9.65156
▁个亀了	-9.65322
GB	-9.65325
▁丛丣个亢丕丙亝	-9.65328
▁东严	-9.65383
IT	-9.65578
两丗丘亢乌	-9.65582
丈亙丙	-9.65679
▁Mar	-9.65685
tra	-9.65692
丛云丙中丢乿亟万両亟丁	-9.65718
ca	-9.65738
丗乿亣丙乿亥万	-9.65795
両乿亜丄丧丣	-9.65811
丢亀中丙	-9.6593
ance	-9.65935
严亙丙个乌	-9.65978
丝乿产丙	-9.66065
丫丙亟丧	-9.66162
丫両乿亡丙	-9.66175
丗产丁丂乌	-9.66206
丁亀亟	-9.66227
▁丣亨丛	-9.66237
丂亀亍丁亥业	-9.66243
丗亞	-9.66251
丫亚	-9.66253
丗乿亣丕亀亥万	-9.66278
▁丞亙丣亟亞丧乿亟	-9.6629
ase	-9.66331
且些丢両乿亜丕亀中万	-9.66359
丁丣产万丗亙丞丯	-9.66365
IS	-9.66371
丣乿丧両万亟丙	-9.66381
丫亙両亟亞	-9.6639
上些	-9.66474
▁丮	-9.66497
世乿亟丢丣亨丛	-9.66523
両中万丫云丙	-9.66586
业丣亢丩亥丗丯	-9.66594
丄亀产両丄丣中万	-9.66621
中亚丞	-9.66627
中亢丙且亄	-9.66635
▁Google	-9.66673
丁丣亞上亥业	-9.66707
丧亠专	-9.66848
ea	-9.66855
丙二丣乌	-9.66864
丈亞両亟	-9.66877
世亀亟丫亟丁	-9.66885
丟二丣乌丙亢丈二丣乌	-9.6689
ep	-9.66963
个丁	-9.66966
丙亢丧	-9.66969
丄亀产両	-9.67018
▁Le	-9.67064
个亨万丂亀交丙	-9.67068
中丢乿亟万丛云丙丗亟万丁亟丣	-9.67076
▁丄中丙且些	-9.67091
ight	-9.67095
丗乿亣个丧丢万亟両	-9.67221
丫乿亟万	-9.67229
.25	-9.67315
丗亄両	-9.67339
丗亀亥万个亀亢丙	-9.67341
ast	-9.67345
▁且事	-9.67347
丫両亟	-9.67371
中亥丞	-9.67409
丂中万丗亣両	-9.67454
业亜	-9.67529
52	-9.67651
丢乿亢万丂亀交丙	-9.67665
33	-9.67713
丈丣	-9.67735
丛丣亞丈亗丛亣	-9.67814
丄丧亟両丫両亟丢	-9.67832
上严业产丣亣	-9.67838
亥丗	-9.67849
个万业	-9.67854
上乿了両	-9.67856
个亣丂亄丧	-9.67901
丙乿亟个丙丈亝	-9.67971
丣亥业丛丣亞丁亥丙	-9.68042
両五中亟上亣丞	-9.68064
丢丁严亓丁	-9.68096
▁Con	-9.68098
▁丂亀中	-9.68125
両亟上亀亝	-9.68177
丄丣中业丄严产両	-9.68197
丙亝丧亥丙	-9.68199
且亥丙	-9.6821
▁*	-9.68211
丣亥且	-9.68253
且亀亜両亟	-9.68274
▁丁丣両	-9.68367
丄亥且严了丁	-9.68407
丗丣亥丞丢亟丁丣	-9.68477
丛乿亥丙	-9.68516
▁中亥丙	-9.68521
丫両产丙	-9.68544
丛云丙丧亙严亟	-9.6859
且亀亜丈亟丁	-9.6861
丈亁	-9.68672
丗丣亥丞丢乌个亢丙	-9.68725
个万个亥丢	-9.68741
▁丙亟万	-9.68744
中丢乿亟万丙亀亣	-9.68763
丫両亟丢丄丧亟両丧乿亟	-9.68788
且亀亜丫云丙	-9.68799
丄产	-9.68818
丁亟丣业丣亢丫亟丣	-9.68825
丢二丣両亥丙	-9.68901
▁丣乿亓両	-9.6891
丣业	-9.69007
严亟丧	-9.6902
丛丣	-9.69097
丁严乿亟丧丧乿亟	-9.6915
丈亥丁丣丢亟丙	-9.69159
両乿亜丫亀亝	-9.69197
iz	-9.69219
丙亝业亀亟丙	-9.69234
▁両亀亚丧乿亟	-9.69236
89	-9.69237
▁Sp	-9.69295
个亟丁严	-9.69311
东乿亟丕亥且	-9.69388
互	-9.69398
中亢丙丗二丣乌丙云丕	-9.69459
丈亞丛亜	-9.6955
丫丙亀亟中丁严云丁	-9.69561
丠亨丂亍	-9.69576
丕丣万丙亀亣	-9.69599
丄乿中丢	-9.69642
个丛中丣乌丕	-9.69654
о	-9.6966
69	-9.69676
nd	-9.69695
中丢亟丁丫亀亝	-9.69703
ew	-9.69733
丁亟丣両了万	-9.69749
个世亟丙亞	-9.69766
丗亄丙	-9.69794
▁5.	-9.69846
丫丣中丁	-9.69906
丛丣亞且亥业	-9.69931
▁下亢丕亀亣	-9.69963
ock	-9.69975
丗亟丣丁	-9.69988
业亟万个乿丧丙	-9.70027
严亀両	-9.7008
丂中万丕丙	-9.70083
世亨丁丕亀中万	-9.70092
丘丙	-9.70123
丈亞丫亀亝	-9.70155
且丣	-9.70175
▁丘二	-9.70215
丠亟丞世乿亟丢	-9.70269
▁严予丁亟丣	-9.70328
丢亥万个亟両亟丣世	-9.70372
严于丄乿亞	-9.70378
丁亙专丑乌	-9.70389
丗亥丙个両亥丢	-9.70396
▁中亟丈	-9.70457
▁'	-9.70459
丧万丁亟丣	-9.70547
▁100%	-9.70553
丈乿亟丢万亓丙	-9.7064
东亟	-9.70642
▁业亝	-9.70655
亀亚	-9.70663
丗乿亣个中万	-9.70674
丁严両	-9.70697
下中万	-9.70771
丄丧亟両个亗丣云丈	-9.70804
世亀丧丢	-9.70809
丣亍両亣	-9.70826
▁严亀亚丧丁亦	-9.70833
个亞丗亀中丙	-9.70833
▁丛丣亞丘亟丙	-9.70855
fi	-9.70859
丧亥丙丫丢产且	-9.70863
丄亟个亢丙些中中丙严亜丙乌	-9.70894
▁下	-9.70895
▁Be	-9.70926
丁亀亣	-9.70961
両亟丙亟丙	-9.70981
丁乿亄丧丁亥业丁亟丣	-9.7101
丗亨	-9.71013
个丧乿亟万	-9.71055
▁丞丣亀中両丗亀亥万	-9.71056
三亙严乿亣丢	-9.71108
丞亥丙丘両亢丕丣	-9.71127
▁丁亦丈亞	-9.71149
丂亀亟	-9.71158
丁亟丣且亨严亚	-9.71166
五	-9.71238
中丢乿亨业丙	-9.71316
丟些	-9.71364
丁亟丣丙亗	-9.71379
下云丙	-9.71413
丂亄丧	-9.71439
丙亄	-9.71541
乿亥万	-9.71608
丕亚丁丕乿亟万丁亥丙	-9.71631
丙乿亢万	-9.71632
▁丞乿亓両	-9.71636
丞亚万	-9.71646
乓	-9.71753
丁亥丙且亀亜	-9.71788
vo	-9.71836
▁丄专亞	-9.7188
丄乿亗	-9.7188
丞中丈亝	-9.71929
SA	-9.71959
严亘丄	-9.71998
丙亝丗产丁	-9.72029
亇	-9.72159
严产丢	-9.72171
▁东乿亚丙	-9.72181
bi	-9.72186
丙亝个乿丧丙丂中万	-9.72292
个乿五个亟丣	-9.72307
丛乌	-9.72316
丙亝丧亥丙丗乿亣	-9.72317
上亚丣乌	-9.72329
中亟业丙亀亗	-9.72345
丧亢丙亟丗亣	-9.72347
両乿亥丙	-9.72367
丘丣	-9.72378
丙亀亣両亣	-9.72379
OR	-9.72382
丁亟丣丂亟丢	-9.72404
day	-9.72404
▁Ba	-9.72428
丗产丁乆	-9.7247
个亚且万丄丧亟両	-9.72474
ci	-9.72481
中亚丙	-9.72501
丁亣	-9.72531
丙亟丢丁丣亥丐両丙丕丣亣	-9.72539
丁亦严于	-9.72547
end	-9.72573
上亣丞	-9.72597
&	-9.72604
丫严中且	-9.72606
丄丣亀亥万丗乿亣	-9.72612
丧亄且丙亟両	-9.72632
丛亜个乿亨	-9.72647
业亟万丗亣	-9.72707
亥丙	-9.72797
丞丢亟业亟严	-9.72813
▁丫严亥万丈亟丁丗乿亣	-9.72844
个丙亢丗	-9.72878
丞万丩乌	-9.72878
AL	-9.72944
TS	-9.72944
丧予	-9.73004
▁丈亗丫丙乿亟丢	-9.73094
丈产	-9.73134
▁中亣丁丗亀亥万	-9.73136
丂中万业丣亢丩亥丗	-9.73171
严亓丨	-9.73258
世乿亟丢丠亟丞	-9.73269
▁严乿亟个产且	-9.73305
个乿丧丙丫丙乿交万	-9.73307
严乿丧万丫丙亀亟	-9.73317
丙亝丁亟亠亥丁丩亟	-9.73339
丣亥丕丙乌	-9.73358
丕亗丙亟丙	-9.73367
严万个丙亟両	-9.73388
▁丣亟丢万亟丙	-9.73414
丫亟且	-9.73419
丝亥万	-9.7343
丕亗业严	-9.73507
丫严	-9.73526
ps	-9.73564
51	-9.73572
bet	-9.73594
丈両亨丁	-9.736
log	-9.73615
丫亚严亞	-9.73672
丕云両丛亜且亀丧丢	-9.7368
丧亟丢	-9.7373
丄些丣	-9.73755
85	-9.73784
亄丣乌	-9.73797
与	-9.73811
丁亟亠亄丙	-9.73835
▁世亀亟丄产专	-9.73855
丣亥个下亄	-9.73906
且亢丈亢丕中严	-9.7394
▁严亨丁	-9.73955
丗亢丨丗亟万	-9.74007
中中丙	-9.74019
av	-9.74043
▁东于	-9.7411
95	-9.74203
亄丧	-9.74218
乿中万	-9.74325
丁亙両丙亀亣	-9.74388
▁re	-9.74423
丗亙丣且	-9.74489
丙亝丢产丄	-9.74572
且亀亟丙丫严亥万	-9.7466
we	-9.74676
.....	-9.74706
中亟丨亥丢	-9.74717
个亀亜	-9.74717
个亥両両丙亟	-9.74764
▁丫亣	-9.74779
东万	-9.74783
丁亟丣丧亢丄亙丣亟亞丫乌	-9.74809
丛亜丕亟両	-9.74819
交	-9.7489
丂丧且	-9.75042
丣亟丙	-9.75105
万且万亟両	-9.75113
両亟丕丣丁亟丣	-9.75127
▁东亀亨中亗丙丧丢丁亟丣	-9.75275
丂亀亍世交万	-9.75275
乿亥丙	-9.75332
両乿亜丛云丙	-9.75395
丨亢丣亢	-9.75408
严万严乿亙丙	-9.75431
丕乿中个亀亨	-9.75709
***	-9.75801
丁亥丙丛亜	-9.75862
下亄	-9.75891
丛丣亞丗亥业丈亝	-9.759
丞亥且严両	-9.7591
上乿丧丢严且	-9.75922
両中丕二丣乌	-9.75943
丈亞上乿丧丢丫亀亝	-9.7597
丫両乿亨	-9.76037
丕乿中両亟	-9.76041
▁个丣亀亟万	-9.7605
丫亀亟	-9.76054
丣丧両丗亀亥万	-9.76059
▁丫亟丁丄产专	-9.761
东亀亨上乿丧丢	-9.76132
|	-9.76143
丗乿亣丧乿亟	-9.76168
bu	-9.76204
丫丣五丛亙严乿亟	-9.7629
▁丁产両丠亟丞亥丙丘乌	-9.7633
且亀亟丙严乿亟万	-9.76331
丄严亢丙亢丁	-9.76355
丢乿亟万	-9.7639
中丢乿亟万丣丧且丣云丧	-9.7642
▁上乿丧万	-9.7646
丁中	-9.76464
tor	-9.76465
丁亀亚丂亜丛亥不丫亟	-9.76488
▁上両	-9.76499
丞产	-9.76533
丗乿亣丫亙严五	-9.76582
▁Online	-9.76612
両产両両中万	-9.76655
乗	-9.76659
ick	-9.76664
丁亥万丧严	-9.76718
丕中业个丙中万	-9.76732
▁丣亟丢严亞中亄且	-9.76757
▁丠亟丢丕亀亝	-9.76841
丙予丙亗丫亀亝	-9.76867
丁乿中丙丗乿亣丈亞	-9.76913
中亣丁丫丙乿交万	-9.76923
丕亍	-9.76932
丗中万丄亗	-9.76961
丧乌	-9.76978
丠亟丩亟丗亜丢	-9.77005
丂丧亥不	-9.77017
両乿亣	-9.77021
両乿亟	-9.77132
丫亙丣亣丢不	-9.77215
丕亀両	-9.77226
丙亝丕亖	-9.77274
丣亥业丈亀亟万	-9.7728
so	-9.77298
丄亀亟万	-9.77305
00	-9.77316
丧亟丙	-9.77321
丂中万丧亓丣乌両	-9.77427
47	-9.77459
亓丙	-9.77463
両丧丢	-9.77508
▁丙亗	-9.77534
丫亙両亟	-9.77545
丁亁	-9.77563
丗乿亍丁亥业	-9.77634
▁Mi	-9.77653
丙亥丁个亚且万	-9.77683
丕亟丁	-9.77722
丕亖丙亀亣	-9.77792
ial	-9.77847
ED	-9.77881
▁严予丢亥万	-9.7789
丞亀丙	-9.77932
▁上乿五	-9.77948
▁Wi	-9.77986
BET	-9.78045
个亗丄亥不丂中万	-9.78048
亁中丁	-9.7811
东于	-9.78158
个亀亙丙严了且	-9.78167
丫乿产丙	-9.78176
tic	-9.78198
严了丁上亀亝	-9.78217
両亚严万	-9.78236
online	-9.78263
丕些丢些丕亀亟	-9.78283
丈亥且丕亀亥万	-9.78304
下乿亟	-9.78305
丞丣亞丣亟両	-9.78314
AS	-9.78316
丛亜且亀亜	-9.78354
亘丕	-9.78389
ec	-9.78421
ok	-9.78439
▁中亟丁亟丣	-9.78459
中丢乿亟万且亣	-9.78459
丣亞丢亞丗亟万	-9.78462
丁亟丣严了丁	-9.785
丧乿亟両亣	-9.78506
丗产丁上丙亢且	-9.78541
个亥且个乿丧丙	-9.78542
亀中丢	-9.78557
oo	-9.78558
丕亀亙丙	-9.78573
our	-9.78573
丈亥万	-9.78601
业亚	-9.78618
丕乿亚严亞丄丙	-9.78698
业亟丢	-9.78887
丄丙且亄丧	-9.78917
丁丣亞丗亚丁	-9.78959
丣亞业产丧乿亟	-9.78977
▁丞丧丁丂亍	-9.79056
▁Home	-9.79056
line	-9.79092
个丣亀亟万丂亀交丙	-9.79095
丂亀亍上両	-9.79107
▁丙亝丂专亞丗乿亣	-9.79111
亨丙	-9.79121
▁両亟丕丣亟	-9.79131
乿亙	-9.7915
丁亥丙丧乿亟	-9.79188
中亚严	-9.79238
个丣	-9.79241
丣丫亥个	-9.79251
个亙丣亢両且丧万	-9.79283
CH	-9.79337
丕亀丙丗产丙	-9.79371
丛亀亥丙	-9.79382
世亚业	-9.79405
丄乿亚丫亜丙	-9.79468
丫亙丙乿五丢	-9.79509
上乿五且亥万	-9.79514
thai	-9.79519
▁丄亟丣亟中些丁亇	-9.79523
丙乿亞	-9.79526
业丁	-9.79567
▁2014	-9.79577
丂中万东両	-9.79593
EC	-9.79609
丞亢丞亢丘丠亥专丑乌	-9.79641
▁on	-9.79673
个乿了両	-9.79685
▁丁丣亞丛亂亍	-9.79705
▁丧亢丄亙丣亟亞丫乌业中严	-9.79728
丣世丟亜丟亀亟	-9.79766
丫両丧丁	-9.79773
丞亢丩	-9.79773
IP	-9.79777
个且个亝	-9.79872
thailand	-9.79881
che	-9.79903
丢乿亄両上両	-9.79962
▁?	-9.80006
个丧両	-9.80035
▁严中万	-9.8006
▁中乿亟丙	-9.80105
丁亟丣业丣亢丁亟丣	-9.80109
丁亓且丈亟丁	-9.80156
丙亝丐亟丙亞	-9.80208
両乿亜両亣丄亝丣	-9.80221
63	-9.80231
丟亚丙业中严	-9.80257
▁乓	-9.80309
▁丙亥丁	-9.8034
qu	-9.80429
丫亖丂亀中	-9.80435
丞乿了丁亟丣	-9.8049
丞亥万	-9.80494
▁东乿亟丙	-9.8051
个亟両亣	-9.80528
丁严亀丧丢	-9.80539
业中丣乌且	-9.80541
丞丙亥丙业中严	-9.80602
丣乿了万丁亟丣	-9.80654
丗亣両上亟丕亢丗亜丢	-9.80661
丞亙丣亟亞丧乿亟	-9.80682
丣乿中万	-9.80697
东亀亨丈亥且丁亟丣	-9.80714
▁中亍	-9.80729
亟丢	-9.80747
个亥万丁亥且	-9.80772
丙亀亗丕丁	-9.80796
丗亙丨	-9.80862
上丙亞严亓丨	-9.80911
严亗且亥业	-9.80916
中亥丞且亙丗	-9.80938
丛丣亞个亟丗	-9.8097
両中万丧乿亟	-9.8104
不亟	-9.81044
▁両亟且丣亢且	-9.81046
丂中万丕丙中亙万	-9.81075
CD	-9.81079
sion	-9.81111
上亥丁	-9.81118
丞亙丈	-9.81209
600	-9.81223
个丫丣亥丐	-9.81226
丙交丁	-9.81246
丁亙严五	-9.81268
严中丙	-9.81301
丈亥丁丣	-9.81323
丙亝丁严乿产両	-9.8144
上乿亙丙且亄丧丁亥业	-9.81452
▁両乿亜上乿亝	-9.81514
亚丁	-9.81533
▁个亀亙丙严了且丂中且	-9.81582
▁丞丣亀中両且亀丧丢	-9.81641
丂乿了丙	-9.8166
丂亀亣	-9.81697
个亨	-9.81702
▁丣些丄	-9.81715
▁丞亙严万	-9.81748
上乿了両丢些万	-9.81768
丗亥业	-9.81776
act	-9.81817
丛亞	-9.81853
丧乿亟両亥丙	-9.81877
able	-9.81903
be	-9.81919
AC	-9.81921
亡丙	-9.81925
乿产丙	-9.81929
丫亀亝上乿亍	-9.8202
丞丣亞业丣両	-9.82034
丕亞丧亥丙中中丁	-9.82114
両中丙	-9.82174
両乿了丛亣	-9.82213
中亙丁上丙	-9.82247
丫严中且严了且	-9.82249
产万	-9.8232
丕丣亣	-9.82341
丙予	-9.82357
个亟丘亟丣专亞	-9.82416
▁丈亀亍丂中万	-9.82437
中亙丟	-9.82453
丁亟丣专乌	-9.82462
丗些丣丗亥丨丙乌	-9.82507
个丣亞丧乿亟丢丙亀亗	-9.82554
丢亟丙	-9.82564
丗丙丗亟丙	-9.82584
丗些丣丨亥丞丗乌両五世五	-9.82595
丄亙両亣	-9.82603
両亣个乿丧丙丣乿丧両	-9.82608
严亞中亄且	-9.82671
▁09.00	-9.82732
▁丞亟	-9.82733
亡且	-9.82772
▁丣中业	-9.82788
ake	-9.82798
业亥丙丗亓万	-9.82811
丛亨丙	-9.82842
▁32	-9.82869
三亟丢	-9.82905
丣亞且亥业严些丁	-9.82924
丄丧亟両万亟両	-9.82931
严于丧乿亟	-9.82986
EL	-9.82989
丣亍个亟両亟丣世	-9.82998
丗亗両亜	-9.83029
丈亞両亣丁亟丣	-9.83042
上乿丧万丧亙严亟	-9.83063
乿亗	-9.83096
丗乿亣丁乿亄丧丂亀中万丁亥业	-9.83111
丠亠丢亟	-9.8312
а	-9.83121
下亙严	-9.83142
业亠丢亟丢	-9.83152
且亀亣	-9.83174
丄丧亟両个乿亄万	-9.83214
中亟丧产丘	-9.83351
丙亀亥丙丁亦	-9.83366
丫亚严両	-9.83417
^	-9.83421
▁You	-9.83429
▁Lo	-9.8344
丂中万丣些丄个亞丁云且万亓丙	-9.83452
両亣丛丣亞个业丁亟丣专乌	-9.83464
2018	-9.83599
严万丗亞业亄丙	-9.83659
业亙严	-9.8371
上亞	-9.83745
丄亟且丧乿亟	-9.83768
丛亜丗乿亄丧	-9.83771
丞亜	-9.83833
LE	-9.83864
中乿亢両	-9.83866
▁个乿万	-9.83877
丗亟万丂亀亍	-9.83883
万亍	-9.83946
▁中亢	-9.83949
▁丣中万丗亀亍	-9.83965
丂亥业丄亙严乿五丙	-9.83969
丣丧丢	-9.84005
ton	-9.84037
ture	-9.84049
丙亝丗乿亣个产且	-9.84102
▁500	-9.84123
丕亞丧亥丙丕丁	-9.84161
ung	-9.84165
min	-9.84182
RE	-9.84189
98	-9.84233
丁亥且	-9.84281
丫両亀中	-9.84299
个丫丣亥丐丯	-9.84339
両丧严	-9.8435
个丧亠丄乌	-9.84422
ara	-9.84436
丁严丢产丗丘乌	-9.84437
且亢丈亢丗亥严	-9.84519
业丣亢丈亟丄	-9.84519
od	-9.84553
両乿亜丁乿亣	-9.84561
▁中亗丠二両了万	-9.8463
丞中个両丄丧丣	-9.84658
▁丫亀中万丞亥丁	-9.84693
丄亣	-9.84824
丣亨丛丣乿亟万	-9.84893
丘万	-9.84894
丫严中且严了且且亗	-9.84954
ST	-9.84974
丛丣亞个万丄乌	-9.84984
个両亟丘亢	-9.85047
shop	-9.85075
世亚両	-9.85091
丈且	-9.85098
三严中万	-9.85099
且亀亜且亀丧丢	-9.85134
▁Facebook	-9.85184
丞亄万丞中	-9.8522
丠亟丣丁亢丈	-9.8524
▁丣亣丧亢丧	-9.85242
▁Line	-9.85267
▁Dr	-9.85282
ov	-9.8529
net	-9.85344
▁So	-9.8538
丗乿亟両丁严亟万	-9.85407
▁GClub	-9.85416
丙亀亣丁亦	-9.85439
ust	-9.85464
个亥不严亥丁丩专乌	-9.85491
丙亝丄丣亀亥万丙亀亣	-9.85632
800	-9.85645
丙亜	-9.85667
丕亀亥万中丢乿亨	-9.85693
丙亀亥丙両亣	-9.85702
▁丗亗両亜	-9.85714
丄亙丣乿五万业亢丙	-9.8572
丁亟丣丗亗万亟丙丂中万	-9.85721
丣乿产丙丫亝両乿	-9.85723
丁严乿亟丧世交万	-9.85731
▁丕亀亨	-9.85771
丄亢	-9.85792
个亟丧乆	-9.85805
ner	-9.8582
丛丏亢个亙丘	-9.85826
严些丫亞	-9.85893
▁丗乿亣东乿亟丙両亟	-9.85898
且亙丣	-9.85905
丕亀中万丗亗	-9.85992
丗亗丫亀亝丣亍	-9.86014
且亨且丧万	-9.86039
且亀亜世交万	-9.86056
96	-9.86075
rea	-9.86094
丈丙丁丣亞丗乿亥万	-9.861
mon	-9.86114
个亨业	-9.86126
ko	-9.86144
▁丕亙丣亣丢両	-9.86144
丫丢亢业	-9.86158
丢产	-9.86165
个亥万	-9.86192
▁Na	-9.86203
丛亜丈丙世交万	-9.86213
中亣丁両亟丁両亟丢	-9.86218
▁丣乿丧両丁亥业	-9.86237
▁丂中业丄产专	-9.86259
个丣亞	-9.86278
az	-9.86293
▁丣亍丈亞	-9.86324
丣亥丐丘亠両丙亨不	-9.86331
port	-9.86338
丢亟丢	-9.86375
丂中万丂丧亥不	-9.86389
丕乿亗丁丧乿亟	-9.86416
丈交万丛云丙	-9.8642
丢乿亟	-9.86496
中亙万丁亦	-9.86499
中丙产丣亥丁丩乌	-9.86534
丂亀亙両	-9.86543
亚丙	-9.86587
-4	-9.86587
丧亢上亟上亣丞	-9.86596
両亟丁丢乿亢万丂亀交丙	-9.86599
両丕亢	-9.86623
丧亞	-9.86707
両乿亜中丢亟丁	-9.86714
uk	-9.86776
严亗个亀亜	-9.86804
中亟丢	-9.86809
両亀五	-9.8685
555	-9.86854
丛丣产万	-9.86904
丙亄丙	-9.87008
上亀亝且亀亜	-9.87027
且亀亜丕亟両	-9.87096
丁亚丙	-9.87115
个乿中万	-9.87146
ans	-9.87209
丗乿亍丗乿亣	-9.87268
丧亥丕世产丛丣亞个万丄乌	-9.87272
丫亀亝丁亓且	-9.87423
个亨万丁丧乿亟	-9.87445
丂亍丁亦	-9.87476
丂亀亟丞丈亀亍	-9.87576
▁下中丢	-9.87631
丣亞丢中万	-9.87645
▁丙亝丛亣	-9.87699
中丛	-9.87704
丂亀中丕丁严万	-9.87778
▁丁产丙下五	-9.87779
东乿中丙丄严亟丢	-9.87792
丂中万両丙产丩丢乌	-9.8783
丕丣万丁亥业	-9.8785
上乿亖	-9.87866
于乌	-9.87884
下产	-9.87949
丛云丙丕亀丙	-9.87969
丁乿中丫亀亝丁亓且	-9.8802
oc	-9.88039
MS	-9.88041
丫丧亥万丧乿亟	-9.88059
万业	-9.88082
严亢万	-9.88122
丛云丙丛丣亞丈亗	-9.88138
上些丄且亣	-9.88163
▁·	-9.88187
丄亙严五业	-9.88233
丛亙严五丁	-9.88233
且亓丙丗亟万両亟	-9.88238
ace	-9.88253
且云丁乆	-9.88427
▁Apple	-9.88434
▁丢丙	-9.8845
中中丟	-9.88454
个乿亢万丂中万	-9.88455
丟亀亡丙丟亨	-9.88467
业亀亟	-9.88475
▁且亀丧丢丁亟丣	-9.88484
丟亀中万	-9.88492
丟产丕业中严严些丁	-9.88534
丙亥丙	-9.88603
▁中亟丢产	-9.88627
ff	-9.88629
丛亁亥両	-9.88652
CO	-9.88661
丛丣亞丞亙专亣	-9.88664
▁丗亀亥万丫両且	-9.88671
亟丣乌	-9.88703
両亟丣乌	-9.88706
丁些万	-9.88751
if	-9.88855
丁乿亣	-9.88888
丞乿中両乿亚	-9.88893
丞乿亣丙亀中万	-9.88949
且些丢丁亟丣	-9.8896
丧亙丙	-9.88967
▁varices	-9.89039
东严东严亢丕	-9.89057
▁中亥严	-9.89067
▁Ti	-9.89111
业严亘丁	-9.89153
个亥両丞亥丙丘乌	-9.89157
万亓丙个且	-9.89267
专亣	-9.89286
-6	-9.89288
个亄业	-9.89289
丁亗丁亥业	-9.89313
丛亂产丢	-9.89329
且乿亟丙	-9.8941
94	-9.89441
个亢万丄丛些丣乌	-9.89445
丞亀亡丙业亀亟丙	-9.89451
丙亝丣乿了万丂中万	-9.89466
中亢丙丕二丣乌丙云丕	-9.89512
▁丣亟丄亟世亨丁	-9.89532
下云丙丗丣亥严	-9.8959
丞亥丗丢亟	-9.8959
丂亍丈亞	-9.8963
▁with	-9.8965
Fi	-9.89697
丞亢个亨丈丙乌	-9.89706
丙亀亥丙丈亞	-9.89717
▁丄亥丙	-9.89768
79	-9.89846
▁t	-9.89863
丗乿亣中丢乿亨丙亝	-9.89893
/1	-9.8991
▁丂亚丧万	-9.8991
亟丙产	-9.89914
丙亨	-9.89915
両亟丁丙亥丁	-9.89952
个丧丢乆	-9.90004
丁亥丙中丢乿亟万	-9.90064
ix	-9.90076
丁丣产专亟	-9.90114
严亢丕丣	-9.90135
両亙丙	-9.9016
且亀亟丙丫丙亀亟	-9.90187
68	-9.90202
丙亝上亣丧亢丕	-9.90227
丞丣亞丣亟上丗亟丙	-9.90236
丕丣万丂亀亟両	-9.90258
且亀亟丙丁亟丣	-9.90287
乿亖	-9.90333
个亢丣亢	-9.90335
両亣东严	-9.90366
dy	-9.90366
丛丣交丁丩亟	-9.90423
丫严亣丁严乿亄万	-9.90436
▁Ad	-9.9044
个亀両	-9.90442
丙亝丫亀中万	-9.90503
且亀亜严亀亚丧	-9.90559
丕乿亡丙丕亀亙丙	-9.90561
丣亟丢丧亥丙	-9.90596
丁亟丣丄丧业丄产両	-9.9063
丙亝丗亟万	-9.90699
丄丣亟丧	-9.90703
▁90	-9.90716
万丧且	-9.90733
丢亀中丙丫严亥万	-9.90744
亁亚	-9.90764
-10	-9.90777
丫丙乿交万丗乿亣	-9.90813
両亟丣乿丧両	-9.9082
両亢丕丣	-9.90859
86	-9.90866
中亢丙丕二丣乌	-9.90868
丙乿亚丙中丙丧乿亟	-9.90874
丕亢丙	-9.90907
丗亀亥万丄乿亨	-9.9094
▁be	-9.91026
严亙丙	-9.91081
且亀亜丛云丙中丢乿亟万且亣	-9.91109
丁亀产万	-9.91115
▁乒乕	-9.91131
е	-9.91201
out	-9.91243
丟亨	-9.91263
中丢乿亟万且亄丧	-9.91317
丣业丁丧丙	-9.91355
丄亥业	-9.91376
丕亨	-9.91381
丛云丙丛亜丕亟両	-9.91389
丄丧亟両严亞中亄且	-9.9141
丛亜且亨	-9.91457
丢丁丧亀亙丙	-9.91457
CE	-9.91496
东亀亨両亣	-9.9156
丫亀亝丗乿亟丙	-9.91577
丄严亥万	-9.91624
丁亓且丄丧亟両	-9.91637
且亀亜両亣	-9.91645
东亚丙丗乿亣	-9.91655
丛严中両	-9.91676
▁Thai	-9.91688
丢亀亢両	-9.91745
▁Li	-9.91756
中产丈丈亟丣亞	-9.91764
▁g	-9.91764
▁丟丣亣	-9.91767
丁亟丣丕亢且丕亀亥万	-9.91824
丧亜丣亥个	-9.91833
丞丣亀中両丁亥丙	-9.91841
丄亙丣乿五万丈亥丁丣	-9.91849
且亀亜丢亢丙	-9.91856
▁丁丣专亣	-9.91879
丄亙丣乿五万个亗中亟万	-9.91882
両乿了丧亥丙丗乿亣	-9.9192
丁亟丣丁丣亞丗亗	-9.91932
丛丣亞丁亥丙丠亥丢	-9.91954
▁下亣	-9.91967
丄亗丙予丙亗	-9.92026
▁丫亟万亟丙	-9.92093
丁亀亥丙	-9.92102
▁丕严中且丈丙	-9.92168
个亟丂亟丧亢上亟	-9.92201
▁中丢亟丁	-9.92314
丨亢严丛乌	-9.92327
top	-9.92328
严予丗亙丄丙些严些丢亣	-9.92331
丁严亟万丄亡丙	-9.92333
丙亝丣亞业业	-9.92349
丄亀些万	-9.9236
丄乿亨両五	-9.92362
丗乿亣丢中且丢乿亄両	-9.92417
thrombophlebitis	-9.92419
亀亟	-9.9242
▁丛丣亞丁中业且亀丧丢	-9.92456
东亀亨中乿亡丙	-9.92547
丕亢丁	-9.92572
▁丄乿亟	-9.92572
丮亢丕	-9.92577
int	-9.92578
丕乿亚万丕亖	-9.92602
丁亟丣丫亀亝业丣亢丁亟丣	-9.92603
▁丛丣亞丈亗丛亣	-9.92609
sc	-9.92629
个亟丣个丙丗亙丨	-9.92657
BO	-9.92672
丞丣丫両	-9.92677
丢亥万両乿亜両亣	-9.92704
▁严予丛云丙	-9.9271
丞乿产万	-9.92718
▁Tagged	-9.92722
丛云丙丞亢丨亙丩	-9.92742
00,000	-9.92757
丄丧亟両上乿丧丢丫亙严五	-9.92787
丙丞	-9.92791
▁2012	-9.92833
丙亀中丢丁丧乿亟	-9.92847
丁丣且	-9.92859
中丢亟丁且亀亜	-9.92886
▁严亣丁	-9.9293
丄丧亟両両乿亥丙丄万	-9.92953
丧亢丙亢丈三亥丢	-9.92958
丞交万	-9.93014
丂亀亙両丂亀丙	-9.9302
▁丫亖丂亀中	-9.93033
丠亟丄丣亥丐	-9.93038
▁An	-9.93064
业亀亣	-9.93116
丣亗	-9.93178
上亟丧丗亜丢	-9.93189
个亥両丠亟丩专乌	-9.93231
亙上乿亥丙	-9.93236
丢丨	-9.93243
下乿中丙	-9.93292
个丛亙丄	-9.93324
丣亚丁丂中万	-9.93338
丣亞丧亥万	-9.9341
丕亂亖	-9.93474
丕亁产丁丕亟	-9.93501
-11	-9.93521
丕亚丁丕乿亟万	-9.9353
业丗业亟丗	-9.9353
丙亝丨交丁	-9.93535
丗乿亣両亣丁亟丣	-9.93556
丁亗严亥万丈亞	-9.93574
pan	-9.93609
丂亙	-9.93614
丣亣个中丣乌丗	-9.93631
ian	-9.93653
乿中丙	-9.93655
世乿亟丢丗中且	-9.93659
TO	-9.9369
▁丕中丙	-9.93691
丣亙丙	-9.93693
丫丙亀亟丕亟	-9.93708
业亗业亥且	-9.93743
丕丣亞丁亨严	-9.93752
个亟丣亞	-9.93776
丛二丣乌	-9.9378
丨亙丩	-9.93836
両二丣乌	-9.93839
亀五	-9.93857
▁丕乿中両亟	-9.93866
76	-9.9387
丢亨丟乿亟	-9.93925
ood	-9.93926
乿五	-9.93943
丄万丈亞	-9.93951
丂亀亟万丫丙亀亟	-9.94026
両亟丕丣亟	-9.94031
▁Tags	-9.9408
个亟丣丄亙両亣	-9.94081
且亀亜丗亥丙丗亣	-9.94083
世乿亖	-9.9409
严亟且	-9.941
丞両乿亟	-9.94103
low	-9.94123
▁File	-9.94123
両亟丞丣亀中両	-9.94128
и	-9.94168
丈亥且丂亀交丙	-9.94182
ek	-9.94248
▁世交万両亀亚	-9.94276
下亥业	-9.94284
TV	-9.94307
云丁	-9.94366
丛严且	-9.9437
丣产丁	-9.94388
且亀亟丙业丙	-9.94397
▁且云丁	-9.94411
丁亟丣丞丙亥丙	-9.94464
丧二丣乌上乿亥丙	-9.94466
丙亢丄	-9.94467
丗业丗丧丙	-9.94473
丁亟亠亄丙丁亟丣个中丙	-9.94501
shi	-9.94511
严亚丁	-9.94518
play	-9.94544
业丙业亝丫丙亀亟	-9.94559
丞亙严	-9.94574
丝亀亍	-9.94575
丙乿亄	-9.94618
下亀五丂亟丢	-9.94619
业丣亢个产丗丘亢乌	-9.94625
丙亀亥丙乆	-9.94649
个丕亟丣乌	-9.94661
严乿亙丙丁亙両	-9.94671
丁乿中丕亀亥万	-9.94724
亀亙	-9.94739
丬	-9.94749
且事	-9.94754
丛丣亥业丕亖	-9.94773
丗亄业	-9.94786
78	-9.94792
严亀亚丧丕乿亚	-9.94813
中亟丈両亣	-9.9482
丄亗丙丧专	-9.94839
ens	-9.94846
且亀些	-9.94852
▁no	-9.94889
▁东亀亨丂亄丙	-9.94891
丛亣丁	-9.94915
丛云丙丫严亥丁	-9.94939
両亣个乿丧丙	-9.95039
▁Ra	-9.95061
▁丄亟	-9.95147
▁No	-9.95156
両亟且亀亜	-9.95203
丫亟丢丈亝	-9.95316
oto	-9.95355
両乿亜丫云丙	-9.95358
,500	-9.95394
▁丈业	-9.95509
丧亙严	-9.95511
▁丣乿亜	-9.95533
-20	-9.95572
▁且些丢上亀亝	-9.95574
云丄	-9.95636
▁丁丣产万丗亙丞丯	-9.95659
严亗丞些万	-9.95669
丛乿丧丢	-9.95704
丙亝丁亟丣丗亗万亟丙	-9.95767
严亙下二丣乌	-9.95795
中乿亟万	-9.95797
中亜且亄	-9.958
ike	-9.95863
丛丣亞个业	-9.95874
両亟丞丣亀中両丁亥业	-9.95892
▁中両	-9.959
东严亥丁且亥丙	-9.95917
▁上亟	-9.95934
中个亥万丫亟丣亢両丗丣亥丞丢乌	-9.95948
丁亟丣丛亀中万丁亥丙	-9.9595
丕予	-9.95993
▁Do	-9.95999
丣乿亚	-9.96024
丙亀了丗乿亣	-9.9606
丟亚	-9.96078
丁亥业丣亍	-9.96085
丙亝丣亞丫丧乿亟万	-9.96121
中亀丧丙	-9.96149
丄产丢	-9.96149
Th	-9.96165
丁丧亀亟万丂丧亟万	-9.96171
丙亝丕严亟且	-9.96189
丂中业丄产专	-9.96206
丞亠专	-9.96208
両乿亜丧乿亟丈亞丛云丙	-9.96269
丈亟丁丛丣个亢丕	-9.96275
丕云両丗乿亣	-9.96294
丁丣亁产丛	-9.96382
500	-9.96387
▁Ho	-9.96404
▁80	-9.96415
:00	-9.96424
SD	-9.96523
中亗丙丧丢	-9.96537
业亀亟丙且乿亄丧	-9.96547
丧亥丒丙乌	-9.96552
丢亡且	-9.96602
个乿万中中丁	-9.96689
中乿产丙	-9.96709
丄严中且	-9.96722
丫些両且	-9.96722
丢亙	-9.96768
中亨	-9.96786
両乿亜丙亀中丢	-9.96794
▁300	-9.96808
严万丙亝	-9.96811
乿了万	-9.96819
丁亟丣丕丣丧丈个中业	-9.96832
▁丕亀亥万中丢乿亨	-9.96841
丞乿交万	-9.96847
丫严亥业	-9.96852
丣中丙	-9.96868
丙亢且	-9.96889
严万丕亖	-9.96894
丗产丁丧亥丙丙亀亣	-9.96897
丧亢严	-9.96902
中丠亢	-9.96928
丈丣亟丈丣	-9.96943
且亀亜丗产丁	-9.96976
両乿亜世交万	-9.96982
RT	-9.97012
両乿亜丈亗丛云丙丕亀中万	-9.97085
丛云丙丄丣亀亥万丣亚丁	-9.9709
za	-9.97098
ja	-9.97154
丢乿中	-9.97176
丗亣且亄丧	-9.97186
丛亣丗乿亣东乿亟丙両亟	-9.97225
ual	-9.97244
▁丣亞丫丧乿亟万	-9.97263
▁丣亥丁丩亟	-9.97326
交丁	-9.97329
▁中亢丙	-9.97343
业丣亟下亢严	-9.9735
丙亝丣中业	-9.97402
ure	-9.97417
丕亂	-9.97454
专亟	-9.9752
67	-9.97528
▁丿	-9.97545
▁东亀亟	-9.97546
▁Ja	-9.9755
下亀中両	-9.97589
▁両了万	-9.97595
丫亝両乿严乿亟个产且	-9.97598
▁Car	-9.97624
丟亢丕	-9.9766
个严亥业	-9.97688
业亠	-9.97701
ran	-9.97707
上乌	-9.97718
両亢且亀亜	-9.97734
不亟丕亢	-9.97752
上亄丣乌	-9.9779
丞亠丩亟	-9.97792
丞亟专亢上丢乌	-9.97799
上乿亡丙上中业	-9.97814
mail	-9.97837
丛亜中亣丁	-9.9784
▁l	-9.97905
72	-9.97922
上亟丢丫亟且	-9.97931
▁三亟丁	-9.97962
97	-9.97987
丁亟丣个丙亥业个丙产丙	-9.98006
丕亥丁	-9.9802
ize	-9.98038
严予丞亥丒丙亟	-9.9809
个乿丧丙东个両	-9.9812
中亟丫亟丣个亙丣亢両	-9.98124
丞亨且丄产丢	-9.98176
丁亟丣丧亢丈亥丢	-9.98219
严亞严亟丢	-9.98228
丄丧亟両上乿了	-9.98265
▁2013	-9.98296
中产业亥丕亢丫亙丕产	-9.98311
▁Royal	-9.98361
丙亝丂专亞丗乿亣	-9.98376
丂乿亟丧个亟丣	-9.98411
丛丣亞个亟丙	-9.98436
丧亢个	-9.98463
▁丙亀了	-9.98473
丄丧亟両丂亀亍丈亝	-9.98504
ng	-9.9852
丕中业丈些丗丢乌	-9.98526
丞乿丙	-9.98544
丙亝中且亣丕	-9.98559
両亡且	-9.98575
丫丁	-9.98583
业亁亢丁	-9.98583
且中丢	-9.987
丈亞丣乿亓両	-9.98701
丮中丣乌両些丙	-9.98742
丛丣亞且亢丩丐乌	-9.98742
东亍	-9.98754
丄亙严乿五丙丗乿亣	-9.98816
1%	-9.98821
両亚	-9.98848
▁>>	-9.98853
丧亢丫亟丣	-9.98867
中业中乿产丙	-9.98902
丄丧亟両丕亀中万丁亟丣丂中万	-9.98908
丂亜	-9.98921
丫严亥丁丁亟丣	-9.98921
丗乿亣丕亚丁丕乿亟万丁亥丙	-9.98959
▁USB	-9.98981
丛亥且	-9.98998
丫云且	-9.99024
丙亀亥丙丛云丙	-9.99026
中丢乿亟万丢乿亢万	-9.99119
丕亟両両亟	-9.99141
中亟丫亟丣上亀亍	-9.99177
丙亝丧亥丙丙亀亣	-9.99183
中中个丕亙丣严亄	-9.99221
▁Br	-9.9924
▁LED	-9.9927
丁亓且丁亟丣	-9.99306
porn	-9.99345
丞乿了个丣亀亟万	-9.99365
丙亥丁严万丗产丙	-9.99444
両乿亜丢中両	-9.99493
▁业亟丄亟丣乿亟	-9.99531
▁上丙亢且	-9.9957
丈产且且乿亙丙	-9.99583
严些丫亢丕	-9.99606
▁丧亢	-9.99629
▁両乿亜丧乿亟	-9.99634
丗乿亣丗乿亟丙	-9.99643
ev	-9.99658
▁丣丧両丛亜世交万	-9.99699
両亀亥丢	-9.99703
丟亥万丞亙严万	-9.99722
丈些両丕亣	-9.99767
两丁丩乌	-9.99767
▁両亥丙丛云丙	-9.99792
个产丂产両丧亢丗	-9.99799
ness	-9.99826
丞丣両	-9.99882
东亀亨上乿亄丧上亟不	-9.9989
丛丁丄丣中万	-9.99892
丁亀亍中亀亣	-9.99928
世亀亟丣亍	-9.99935
5,000	-9.99953
▁丗丣万	-9.99959
▁両亣丄丧亟両	-9.99977
丕亜	-9.99979
丛亙严	-10.0005
严中丁	-10.0005
ES	-10.0007
丫亙両亟亞个亗丫丣亥业	-10.0012
丁丣产万丗亙丞両丫亟丙丄丣	-10.0015
严了丁丕亀亥万	-10.0016
丁亟丣丕亥且个亢丙丈亝	-10.0017
丂中万且云丁	-10.0024
丗丣亟业丧乿亟	-10.0025
丛丏亢	-10.0031
业亠严产	-10.0032
丗亜丢严亣丁	-10.0037
丢乿亣	-10.0045
下交両	-10.0046
个両亥丄丣严乿亙丙	-10.0047
万亟丙丧亢丈亥丢	-10.0049
丂亀中両亨严丞乿亓両丕亓両	-10.0052
丈亙且亣丢乌	-10.0054
丧亥丕世产且亢业	-10.0058
92	-10.0063
个万丂严亟	-10.0067
丫亖丫亢丙	-10.0067
丁亦両乿亜且亀亜	-10.007
tt	-10.0071
丁亟丧	-10.0073
中丢乿亟万丙亀亥丙	-10.0076
▁丢亨	-10.0077
丛亙丣	-10.0084
84	-10.0084
乿中	-10.0088
丨亥严丢丁亠両	-10.009
丁亗丞亚万	-10.009
▁35	-10.0093
丕丣亥个	-10.0096
且些丢丣丧両	-10.0099
严且丙亀亗丫丙亥丁	-10.0101
丗乿亣丈亞丗亗丫亀亝	-10.0104
丁乌	-10.0105
丁亓且丫亙丕产	-10.0107
丕中业丣亥业	-10.0108
▁両亚丙上亙个丕二丣乌	-10.0108
丁亥业丗亣両	-10.0109
丛云丙丈亀亍丂中万	-10.0112
丛丣亞丗亙丨不乿亣丛乿产丙	-10.0114
丁丣亞丗亀亨	-10.0116
丢产丗丘	-10.0116
両亙严亦且	-10.0118
亀亢丧	-10.012
丗亚业	-10.0121
丞丣亢丁	-10.0124
両亍	-10.0125
丝亀亟丁丣亞	-10.0127
丛云丙丛亜且亀亜	-10.0127
严亟丁	-10.0129
丢丁丣亞且亥业	-10.0133
▁Bl	-10.0136
......	-10.0136
丞丁丞亟	-10.0138
丧于乌	-10.0142
ron	-10.0143
丁云业丧亀亜	-10.0144
time	-10.0145
▁Super	-10.0153
万亄业	-10.0154
丣亢丙	-10.0155
东亨丁	-10.0157
丛云丙丛丣亞丢些上丙乌	-10.0158
丫严丧万丛乿亨	-10.0159
71	-10.0165
丣亄丁且亀亜丧乿亟	-10.0168
ET	-10.0168
丁亦丄万	-10.017
▁under	-10.0172
丂亚丁	-10.0177
丣亍丙亀亥丙	-10.0178
▁丛亓且东于丧乿亟	-10.0178
▁乔	-10.0181
丞严亢丁	-10.0182
丙亝丁亟丣丗亗	-10.0187
両亢严	-10.0191
丄丙丙亀亣	-10.0191
东亢且丫丧亥万	-10.0195
业二丣乌丗些丣丨亥丞丗乌	-10.0198
上乿亚	-10.0203
且亀亜丗亀亥万	-10.0208
▁phlebologist	-10.0211
丩亟	-10.0213
丘亟	-10.0214
业亟且丈云业	-10.0217
▁个世亟丙丗乿亣	-10.0217
且亥万丙亀亥丙	-10.0218
丕亗	-10.0222
乿万	-10.0224
下亜个乌	-10.0224
▁丁乿中丙丈亞	-10.0229
丢亥万両乿亜且亀亜	-10.0233
丫乿亟万丈亟丁	-10.0234
丂乿亍	-10.0234
丄乿亨丂乿亚万	-10.0237
丛丣亟个亟丗	-10.0238
丛亀亟	-10.0238
丁产丨严	-10.0242
丗乿亣丛丣交丁丩亟	-10.0242
丗亙严	-10.0245
丄丙丣亥丁	-10.0246
ral	-10.0248
丄产专丕亀中万	-10.0251
丄亙丣且亢丕	-10.0252
丞丣亞丞产丗丘丈亀亍	-10.0252
丣亥上	-10.0255
▁且亨且丧万	-10.0256
丛亜严于	-10.0259
个両且云丈	-10.027
両乿亜丙亟丙	-10.0273
ary	-10.0275
▁Al	-10.0279
丁丧乿亟且亓両	-10.0289
且亢业	-10.0294
丕亀亥万丕乿亚丧亥丙丗乿亣	-10.03
TE	-10.0304
car	-10.0308
中丙产両亥丕亢	-10.031
▁Android	-10.031
ies	-10.0312
丨亥丁丢丠亟丞	-10.0314
丧亢世亣	-10.032
丂亥丙	-10.0322
▁丣亥业下亀五	-10.0324
丞乿亓両丄丧亟両	-10.0324
▁両乿亜丧乿亟丈亞	-10.0326
両亣丫严亟丢	-10.0327
▁Sa	-10.0329
业丧両	-10.033
丁亙严亀亟	-10.0332
中亚丙且乌	-10.0336
丣亞丫丧乿亟万丛丣亞丗亙丨	-10.0337
中万丄乌丛丣亞丁中业	-10.0342
両亥且	-10.0343
个乿万东严丫亀亝	-10.0345
▁70	-10.0346
下亢严	-10.0353
丟亢丙	-10.0353
丂些	-10.0364
且亀亜丙亝	-10.0367
乿亚	-10.0368
TA	-10.0373
au	-10.0378
丢中両丣亥业丧乿亟	-10.0381
MP	-10.0383
両亟严亙下亄	-10.0384
丛云丙中丢乿亟万且亣	-10.0384
▁丙亝丧亥丙丗乿亣	-10.0399
丢亥丁丩乌	-10.04
丗且丗亚丙	-10.0404
中亍両亟	-10.0419
丢产丕亢丘亠両	-10.042
且亣丢乿亄両	-10.0422
▁丄亞丙亚丙	-10.0424
丄丣中业丄丣中万	-10.0425
▁丗亚万业中严	-10.0427
丣亣且	-10.0427
丢亡丙丢亥丙丧乿亟	-10.0431
丕亥且个亢丙	-10.044
丗乿亣両亣丄产专丠亟丞	-10.0443
丂中丙予丙亗	-10.0446
RO	-10.0448
亣丢	-10.0451
of	-10.0455
ish	-10.0457
lazada	-10.0458
世亟両丧乿亟	-10.0458
业亓丁	-10.0458
▁丗乿亄丧	-10.0458
中丣	-10.0466
mer	-10.0466
丙亝个乿丧丙	-10.0468
丞亥丙丘	-10.0472
且亗丙亀亗	-10.0473
丟亢严乌両	-10.0475
亀亢丙	-10.0476
个丕亚丙严亙个	-10.0478
fe	-10.0486
丙丙丗业产丣亣	-10.0488
中产丛	-10.0489
ya	-10.049
不亟专	-10.0492
严亥丢	-10.0494
by	-10.0494
丛丁	-10.0498
row	-10.0501
丞亥丒丙亟丁亟丣	-10.0502
amp	-10.0509
亓万	-10.0511
个両且产严	-10.0514
中亁	-10.0514
air	-10.0515
▁且亙	-10.0515
sta	-10.0517
个亗丫丣亥业且云丁	-10.0518
▁丣亣个中丣乌丗	-10.0521
个亀亢丙个产且	-10.0527
丙亟丄	-10.0527
丄丧亟両个丧丢万亟両	-10.053
上乿亙丙丙亀亣	-10.0535
丁中严乌丟	-10.0539
个乿亝丈亝	-10.0539
亀亥丙	-10.0541
丗亗丙亟丢	-10.0542
▁Windows	-10.0546
个亨不个亄	-10.0546
87	-10.055
丁亦丈亞両亣	-10.0553
二丣	-10.0557
▁6.	-10.0557
丕乿亟万丁亥丙	-10.0558
个些	-10.056
▁丄严亢丛丛亁些	-10.0562
丮乿中万丁万	-10.0563
-7	-10.0563
世亀亟丄产专	-10.0564
丗亟万且亓丙	-10.0565
両乿了丄产专	-10.0568
丢中且丂亟丢	-10.0572
个亢万	-10.0572
东亀亨个亨万中亟丢产	-10.0573
丮些両	-10.0576
丞丣亞丞产丗丘	-10.0577
丗乿亣丣亄丁丧乿亟	-10.0579
上亢両	-10.058
両亨严	-10.0582
亀亓严	-10.059
业亥丕丣丄亙丣且亢丕	-10.0592
pi	-10.0595
丛丏亢丗亢丙	-10.0597
OL	-10.0597
ero	-10.0602
亄両	-10.0603
ning	-10.0607
▁世五丛云丙	-10.0613
res	-10.0618
OP	-10.0619
丞些个	-10.0626
▁丞乿亣	-10.0627
丕乿中丁亟丣	-10.0631
中产且丕亥丙	-10.0632
120	-10.0635
丧亥丙严亞	-10.0643
丄严产両	-10.0648
▁丧亢丙亟丗亣	-10.0653
丞丣亞丣亟上业亥不不亥丕亢	-10.0656
91	-10.0661
丂中万严亨丁丄亀亟	-10.0665
▁丫严亥万丈亟丁丙亀亥丙	-10.0666
中乿亟丧	-10.067
▁个产	-10.0674
oll	-10.0682
业亢严	-10.0686
丫亀产両	-10.0687
且亀亜丣亥业丣亟万丧亥严	-10.0693
且亀亜丁乿亚	-10.0694
东乿亟丙丛亜	-10.0695
个亟丢丁亟丣业亢丙	-10.0695
丂丢亟丢丕亖	-10.0697
▁丢亥万両亣	-10.0698
gu	-10.0704
両亀亚丧乿亟	-10.071
东亀亨丣亥业	-10.071
个両丄丧丣	-10.0712
両亟且亨	-10.0715
中产丗丢亟丙	-10.0716
丄丧亟両东亢且	-10.0717
▁且亀亜丣亥业	-10.0719
▁v	-10.0726
且交万且亨且	-10.0729
亟丙	-10.0734
丗丣亢丛	-10.0745
个亙丣亢両个丣亀亟万	-10.0748
.7	-10.0755
-8	-10.0755
▁丫亀亝上乿亍	-10.0757
丄丧亟両个丙丈亝	-10.0758
丟二丣乌	-10.0759
▁両亟丣乌	-10.0759
▁2556	-10.0759
东亀亨中亗丙丧丢丁亟丣	-10.076
丈亥且丁亢丈丁亠両	-10.0762
上亀中丛丛亀亢万	-10.0763
严亟且丞丣亀亟丧	-10.0766
中丢乿亨个亙両中	-10.0767
丛亀亢万	-10.0771
gen	-10.0771
丢产丗丘丨亟个丕丣乌	-10.0772
丧亥丙丨产丁丣乌	-10.0775
丣亥丕丙	-10.0784
中丢乿亨丁亝严亀	-10.079
个両业亥丕亢	-10.0791
丂亀亍丛亜丙亝	-10.0791
丧乿亟丁亟丣	-10.0792
app	-10.0794
▁Su	-10.0795
▁All	-10.08
丄乿中丢乆	-10.0803
丂产且	-10.0804
▁业丣亢丧亙专	-10.0806
丗亟万丁亟丣	-10.0807
tu	-10.0807
亀亄丧	-10.0809
丂云両	-10.081
両中	-10.0813
ana	-10.0817
丫亀亝且亣	-10.082
丗丧亣	-10.0821
can	-10.0831
丢亀亗	-10.0832
丄专亢丕丨亟个丕丣乌	-10.0833
両亙丕丣	-10.0833
丧亢上	-10.0835
个乿丧丙両亟丁	-10.0839
丧亀亙丙	-10.0839
丛丏亢业亥丕亢万亟丙	-10.0841
且亚且	-10.0842
丛丣亞両亨严	-10.0852
且亄丧丁亥业	-10.0855
▁丙亝上乿丧万	-10.0855
丄亟丙	-10.0856
互丄	-10.0858
丢中且丙亢丢両	-10.0861
丂亚丧丙	-10.0861
my	-10.0863
丞丣亀中両且亀丧丢	-10.0872
丙亗両亟上亀亝	-10.0874
丁亟丣个乿五个亟丣	-10.0874
乒乕乕	-10.0878
丄中丣乌	-10.0879
丄亍丣丞	-10.0882
丛丣亞个亟丙万亟丙	-10.0883
丙亝个両亥丢	-10.0892
个丙产丁个丙亟丙	-10.0892
且亀丧丢丕亖中亙万	-10.0903
个严亘丕	-10.0904
丄丧亟両丢亟丧	-10.0906
丁亟丣中中丁丁亗严亥万丁亟丢	-10.0914
EX	-10.0916
亙下	-10.0918
严亥万	-10.0919
丟丟	-10.0919
Pa	-10.092
丄中严	-10.0921
SS	-10.0922
上亀亝万亟丙且亀亜	-10.0924
丧亥丙丁亓且	-10.0928
PA	-10.0935
ade	-10.094
OS	-10.0946
▁丛些丣両些上乿亥丙	-10.0954
东両丈亞	-10.0957
ml	-10.0958
丙产	-10.0959
丈中且	-10.096
中亞丫亜严乿	-10.096
ina	-10.0961
丛亜丫亟	-10.0963
▁丞亙丣亟亞三亞丙亀亥丙	-10.0967
个产丗丘亢	-10.0972
丙亀中丢严万	-10.0973
中产且両	-10.0974
丕亖丈丣亢万	-10.0981
mar	-10.0984
丛云丙丈亗丙丧丙両亟丁	-10.0988
丁亟丣丂亀亍	-10.0991
中亟丨亥丢中丢乿亨	-10.0992
丙亢丗亠丨丁亟丣	-10.0995
▁且亥万丙亀亣	-10.0996
严乿亙丙丁亙両个乌	-10.0997
丛严乿中丢丫亀亝	-10.1001
▁丕乿亚丧乿亟	-10.1005
▁丛云丙丛丣亞丘亟丙	-10.101
东亢且丛丁丕亢	-10.101
丛云丙丣乿了万丗乿亣	-10.1013
个丛亟	-10.1014
上亥丢上丙亞	-10.1017
严产万	-10.1019
下亥丙	-10.102
▁丙乿亥丙丄五	-10.1023
丟中丣乌且	-10.1024
丁亠	-10.1024
丙亢个亥丢	-10.1031
両亣个亀亙丙严了且丂中且	-10.1031
丢亝	-10.1031
丗亙丨业亟严	-10.1032
严亀亚丧丧乿亟	-10.1033
丨亢严丛	-10.1034
丗亚丣丁	-10.1038
丗亗业产不	-10.1038
业亄丣乌	-10.1039
上乿亙丙丙亀亥丙	-10.1044
丛亥丁	-10.1048
丗亗东严万亟丙	-10.1049
丧些	-10.105
丈亥且个亠	-10.105
▁东严亢丕丠亥专丑乌丙亀亣丛云丙	-10.105
▁丄乿亚	-10.105
丁乿亄丧	-10.1053
2%	-10.1054
个亟両亟丣世丗乿亣丈亞	-10.1055
両乿亜両亣中亞丣亜	-10.1058
▁乕	-10.1061
▁丣亍丁亦	-10.1062
丁亟丣万亟丙	-10.1064
丫亀丧丢	-10.107
丛云丙业亚业	-10.107
н	-10.1074
丛严亟丢丗亟万	-10.1077
ug	-10.109
▁严亢丧二丣乌丞亨严	-10.1093
且亓丙丫丙亀亟	-10.1093
AB	-10.1096
pro	-10.1098
丄亀亢丧	-10.1098
丣乿了丢乆	-10.11
亀亜	-10.11
丗乿亟丣了	-10.1104
▁丈亟丁丁亟丣	-10.1107
▁丫亀中万丙中丙	-10.1109
严亀亢丙	-10.112
▁Go	-10.1122
丫亚严乿万丗乿中万丗乿亄丧	-10.1122
▁中亣丁丗亀亥万丢亥万	-10.1124
严亗丛亟万	-10.1125
下亥业下亀中丙	-10.1128
个亚且万东严	-10.1129
丄丧亀亟上亚両丛乌	-10.113
74	-10.1135
丫丙亥万丛亁些	-10.114
东乿亟丙丁亟丣	-10.114
丗乿亣个产且丙亝	-10.1143
丁亟丣丁亓且	-10.1144
wa	-10.1146
丄五中亞丣亜	-10.1148
个产丣	-10.1153
严亀丙	-10.1158
下亣下乿亥丙	-10.1164
丧亖	-10.1166
东亚万	-10.1168
▁ago	-10.117
丫両丧且	-10.117
丕乿亟万上亟丕亢	-10.1171
下亜且乌	-10.1172
中亥	-10.1174
93	-10.1175
丁亟丣个中丙	-10.1175
丄亙丣	-10.1177
MI	-10.1179
丕亖严亞丄丣	-10.1179
严了丁下亀五	-10.1182
ven	-10.1186
▁丛云丙丁亟丣	-10.1186
丙亢丕亢	-10.1191
丄丧亠	-10.1193
▁严亥丁丩专亞	-10.1195
上乿亙丙且亄丧丁亥丙	-10.1196
丞丣亀中両丗亀亥万	-10.1198
个乿万东严	-10.1198
丁丣专亣丗乿亣	-10.1201
亀亥万	-10.1202
▁丄万	-10.1212
両亣上亣丧亢丕	-10.1212
▁丞亄万	-10.1212
両亣东亀亨	-10.1214
丕亢且上亀了	-10.1214
丗亗严亙	-10.1215
业亢且	-10.1215
両乿亜丧乿亟	-10.1218
丁亘	-10.1218
▁丁中万丫丙亀亟	-10.122
丨亢丩丢乌	-10.1229
OT	-10.1235
业些丙亥个	-10.1237
view	-10.1243
丙亝丣乿亟万丁亟丢	-10.1246
丁产丙下五	-10.125
个亣丙亀亗丕亟严	-10.1254
万乿亄丙	-10.1254
両亥丙个乌	-10.1255
丫亙両五丙且亓両	-10.1255
丗产丁丄丣亀亥万	-10.1258
丢乿亚	-10.1258
丫乿亚万丫丙乿交万	-10.1259
亥专	-10.1259
中丢乿亟严亡両	-10.1259
个产丁	-10.1267
丫严中丁	-10.1268
东个両东个亟丙	-10.127
下亀中丙	-10.127
丗乿亣両乿亜両亣	-10.1272
个世亟丛亥丕丢丁亠両	-10.1277
両亥万丁丣	-10.1279
丧亄丙	-10.1279
丁丣中丁	-10.1281
▁且亟丧丙乌丫些严且	-10.1282
丣亥丁丩乌	-10.1283
丣亟业	-10.1286
业亊	-10.1286
丨亥丕丣亨	-10.1287
PU	-10.1288
81	-10.1295
且亀	-10.1296
丧亥丙个亍丣乌	-10.1296
丒	-10.1299
▁両両	-10.13
个丕亁	-10.13
82	-10.1303
丛亣丫亝両乿	-10.1303
中亥丙丛云丙	-10.1306
丂中万丕乿亚严亞	-10.1309
DA	-10.1309
丁亟丣业丣亢丫亟丣丈亥且丁亟丣	-10.131
丙乿些	-10.1312
业乿中丢乆	-10.1313
丣乿产万	-10.1315
丧亚	-10.1316
亓且	-10.1316
丫丣亨丫丣亟	-10.1317
东亀亨丈亥且丁亟丣丗亣両	-10.1318
unt	-10.1318
丫亀亝且亨	-10.1318
业丣亢丫亟丣丈亥且丁亟丣	-10.132
且亂亄丧	-10.1321
丛云丙丣些丄	-10.1326
丕中丙丗乿亣	-10.133
▁丫両亟丢世交万	-10.1331
UR	-10.1334
中亀了	-10.1336
丣亥丙	-10.1338
▁个亨丕丣	-10.134
个中且丄严亀中万丁亥业	-10.1345
ath	-10.1346
▁业亣	-10.1347
両亣丛丣亞丢些上丙乌	-10.1348
丣亀亟	-10.1349
丁亟丣严了丁丕亀亥万	-10.1352
丣亄业丣亀中丢严亀亚丧	-10.1354
丗亀亥万丙亝	-10.1358
丫丙亀亟丕乿亟万	-10.1365
丈亗严于	-10.1369
The	-10.1374
且亢丙且亚丙	-10.1377
丗亟万丁亟丣万亓丙	-10.1378
丧亥丙丈亥丙丗丣乌	-10.1379
▁両乿亚	-10.1382
乿丧万	-10.1383
▁$	-10.1383
▁丫亙両五丙	-10.1383
▁Ar	-10.1385
丁亥丙両亟	-10.1386
▁Web	-10.1393
丁亟丣丛丏亢业亥丕亢	-10.1398
丫両交丁	-10.1399
丙亥丁丁亣丬亟	-10.14
丕中丙丙亀亥丙	-10.1401
hy	-10.1402
丗乿亄万	-10.1402
▁中亟丣乌	-10.1408
个中且	-10.141
万亓丙且了丙	-10.1411
亘	-10.1413
丫严产両	-10.1417
丁亟丣且亗丙亓丙丁亟丣	-10.1418
丗产	-10.1424
丢亨丣些	-10.143
両亣丕乿亚	-10.1431
▁2-3	-10.1436
丄亀丙丞业	-10.1439
世亟丧丣	-10.1441
东乿亜	-10.1445
严亗业亟丁	-10.1451
LA	-10.1456
且些丢丗乿亖丛亜	-10.1458
sis	-10.1462
丄丣业世亀丧丙	-10.1463
东亚丙丁	-10.1467
丛丣亢	-10.1468
▁下両	-10.1471
两且亨	-10.1471
丧万丈丣	-10.1481
丫严亥万丈亟丁丗乿亣	-10.1485
丈亞丙亗	-10.1488
丟些丁亥个	-10.1488
丂亟丢个乿万	-10.1489
丕亀亥万丄亠丠乌	-10.1492
▁丄亝丣	-10.1492
丛丣亞上亟丁丣	-10.1493
▁Un	-10.1493
个亟両亟丣世严了丁	-10.1494
▁世亚両丢亥万	-10.1498
严亀中両	-10.1498
上乿亖丄丣亟丧	-10.1504
丄丧亟両个亟両亟丣世丙亝丁亟丣	-10.1511
▁中亣	-10.1514
个亗丣云丈丣亨丛	-10.1515
丁些严	-10.1515
▁丣亀亟丙中亟丫亟丣	-10.1517
丨亣丣丩亞	-10.1524
▁丄亟个亢丙些中中丙严亜丙乌	-10.1528
丄亙丣乿五万丫両亟丢	-10.1529
AI	-10.1535
両乿亥丙丄万	-10.1536
CR	-10.1538
▁Ta	-10.154
丁丣亞业乿亣	-10.1544
且亙上	-10.1548
丧亠丄	-10.1549
lic	-10.1562
上乿丧万丙亀亣	-10.1568
个丕亙	-10.1572
丣丧且	-10.1574
丗乿产両	-10.1575
丁予	-10.1575
个乿亥丙	-10.1579
业亣业	-10.1581
丛云丙両亢丕丣	-10.1584
丛丣亥业丛亙严乿亣丢丙	-10.1588
个亣丫亙严五万	-10.1595
UN	-10.1597
т	-10.1597
▁业亟万丄丙	-10.1599
丗亀亥万丙亀亥丙	-10.1599
丄丧亟両且亥丙	-10.1608
万亓丙丁亀亨	-10.161
严亟个	-10.1613
ical	-10.1615
丁亟丣丛丣亞丁丧且	-10.1619
丄产专丘亠両	-10.162
▁世	-10.1624
个丁中丣乌	-10.163
▁丁中万丁严亟万	-10.163
ox	-10.1634
▁se	-10.1635
上云且	-10.1637
丁亟丣丂亄丙	-10.1637
両亣丄产专丠亟丞	-10.1639
丄亟丣	-10.1643
个丁亥且	-10.1644
丄亙严亦且严亥业	-10.1646
个両业亨丣专乌业亚业	-10.1647
▁丙中丁丈亟丁丙亀亥丙	-10.1648
丈亗严中万	-10.1651
NA	-10.1651
丣亢丢亟	-10.1654
业亀亄	-10.1656
hu	-10.1656
个亢万丫乌	-10.1658
中产丗丢亟丙丫乿亚万上亟丕亢	-10.1659
丣亢丄	-10.166
丛严产丁	-10.1661
丝亀亟	-10.1661
业丗丞亙严万	-10.1662
丕亚	-10.1663
丁丣亞丗业	-10.1666
丂丢亥业	-10.1669
rt	-10.167
事	-10.167
丢中万	-10.1679
丂中万上亟丧	-10.1681
云且	-10.1683
丙丧	-10.1684
业乿了	-10.1686
下亢丙	-10.1687
丞乿了丗乿亣丈亞	-10.1688
丁严亀中万丧万丈丣丛亢且	-10.1688
且亀亜东严	-10.1689
个亣丟亀亟	-10.1694
个丧両个乿亝	-10.1695
丂乿亣	-10.1697
乿产両	-10.1698
丫中丢	-10.1701
丄亜	-10.1701
73	-10.1704
▁下亟	-10.1706
▁Air	-10.1706
丟亀亡丙	-10.1707
丙亀亗丢亟	-10.171
丄产专丠亟丞且亣	-10.1716
丞丙亥丙中中丙严亜丙乌	-10.1717
丢亥丙	-10.1718
且亣丈亝	-10.1719
丄丙严亞	-10.1728
book	-10.1729
両亙丙丕乌	-10.173
丢亀亟丢丛亜	-10.1731
丫严亟丙	-10.1732
丁亟丣丛亓且	-10.1735
丛亀亍	-10.1738
▁::	-10.1738
三些両	-10.1738
下亨丛二丣乌	-10.1739
严且丣亟丄亟	-10.1742
▁丁丣亞业亀了万	-10.1747
丫亙丙亣丢丧	-10.1749
▁丕乿亚丢亥万	-10.175
丄亥丞	-10.1751
丄乿亟丘亠両丙亄両	-10.1753
▁丠亟丄	-10.1756
83	-10.1767
丟亟丣乌両	-10.1767
丂亀中且亣	-10.1767
东乿中丙	-10.1768
丁丣亞业亀了万	-10.1768
丁严亟万丧亥丙	-10.1769
东亀亨丫亀亝业丣亢丁亟丣	-10.1769
丗亚万业中严中中丙严亜丙乌	-10.1771
中亀亜	-10.1771
丁严亟万丈亀亚万	-10.1774
个产丠亟丞	-10.1776
个亟両亥不	-10.1779
丈亢丙	-10.1779
▁neurodermatitis	-10.1784
両亣丫亀亝严了丁	-10.1786
丙亢丢亟丢	-10.1788
PS	-10.1789
“	-10.1792
▁丙乿亣	-10.1794
东严丛丣亞丢些上丙乌	-10.1794
下乿些	-10.1799
丄丧亟両丂互万丣亚万	-10.1802
丕乿亚中丢乿亟万且亝	-10.1802
Com	-10.1805
丙亀亗丫中両	-10.1807
▁丗乿亍	-10.1808
RA	-10.181
丣亥上丁亟严丗乿亣	-10.1811
丄亢且世交万	-10.1812
両乿亚丙丢亗	-10.1819
亀亢万	-10.1824
丧亣且亣中些	-10.1825
东亀亨且些丢个亟丣	-10.1826
▁両亀亚丈亞	-10.1826
▁Power	-10.1827
丁亟丣丛丁丄丣中万	-10.1829
丮中	-10.183
丈交万丕亀中万	-10.1835
丣亟丢万亟丙丧乿亟	-10.1836
▁个丧丙	-10.1837
亀亄	-10.1842
▁両些	-10.1846
中亀亟万	-10.185
丕乿中丕亀亟丙	-10.1852
丐亟丙丂亀中両亨严	-10.1855
东亢丧丫丙亀亟	-10.1858
丗亙丨业亟严丕亗业严	-10.1858
丄严亥业	-10.186
上亄万	-10.1863
丁乿亢万	-10.1865
上乿丧丢丁亥丙	-10.1869
丛亣丁乿中丙	-10.1871
丧乿亟丣亍	-10.1873
丛丣亟丣世丙亟	-10.1873
个乿丧丙丛丣亞丁中业	-10.1875
丨丣亥丗丘亟	-10.1877
个世亟丙丨交丁丩亟	-10.1878
7%	-10.1879
▁丈交万且亀亜	-10.188
丣亚万业亥丙且亟严丈亝	-10.1881
丞万丨乌	-10.1881
sm	-10.1882
三严亟且	-10.1884
ome	-10.1886
SP	-10.1886
下些严	-10.1887
丁亟丣丛丣亥业	-10.1889
▁丟亜	-10.189
ore	-10.1896
丛云丙中亣丁丫丙乿交万	-10.1899
.8	-10.1906
丁丣亟业	-10.1908
中亥严业亀亥両	-10.1908
个亙丙乿丫乌	-10.1913
丠亟丣亞	-10.1916
个乿丧丙业产丄丄严	-10.1918
丙中丁丈亟丁丈亞	-10.1918
了丁	-10.1919
丛丐両	-10.1921
丂中万両亥丙	-10.1922
丄中丙丁丣亣丕	-10.1924
▁丢云且	-10.1928
▁i	-10.1932
中亗	-10.1937
丙亗丛亜上亀亝	-10.1937
丗亙丛	-10.1941
上乿亡丙上両	-10.1943
丂丙丂中万	-10.1945
个両亥丄丣个両亟上亢丁	-10.1947
业产丣亣	-10.1948
▁丫云丙	-10.1948
▁且亟丧	-10.1949
丞乿了丞乿亓両	-10.1951
丕亟両丁与丫両亟丢	-10.1952
丕亇	-10.1955
个产丧亠专	-10.1956
丢乿亥万丢亡丙	-10.1957
业亥丙	-10.1959
▁1-2	-10.1961
▁Gu	-10.1968
AD	-10.1968
丧乿亟丢丙亀亗	-10.1969
両乿亜上中业	-10.1969
ger	-10.1974
丈产且且乿亟万且亗	-10.1978
\	-10.1979
丣亥万个亣	-10.1982
▁严了丁	-10.1989
且些丢个亟丣	-10.1993
▁2010	-10.1996
.9	-10.1997
▁丣亍両亣	-10.1998
▁丙乿亣丄五	-10.2003
丫亟丣五	-10.2003
300	-10.2011
-12	-10.2012
▁且些丢丁亟丣	-10.2012
丕亢且丕乿中丁亥丙	-10.2013
丗乿亣両亣中丢乿亨	-10.2014
丗亘丛	-10.2017
个万丆乌	-10.2018
ess	-10.202
业亝中丙产不亟丕	-10.2021
両亟丫亟	-10.2022
丛亜丗亟万	-10.2025
且亓丙丛亜	-10.2026
丧亢丙亥丢	-10.2027
▁丁严亀中万	-10.2027
eng	-10.2029
且亢三亥丙	-10.203
MO	-10.2032
丫亥丙両亟	-10.2032
丄产专丠亟丞个亨万	-10.2033
両亞丙亟丧	-10.2038
业亟丄亟丣乿亟中中丙严亜丙乌	-10.2042
东严亢丕丠亥专丑乌丗乿亣	-10.2042
丣亀亢丧丣中丢	-10.2042
丄丣业丧万丈丣	-10.2043
丙亀亢丧両五	-10.205
丈亞丫云丙	-10.2051
▁且些丢丈亞	-10.2051
丙亥丢	-10.2052
▁丫亖	-10.2053
丨亟严亟	-10.2053
丗乿亍丣亜	-10.2054
丣亥个	-10.2055
中亟丈丛云丙	-10.2059
丗乿亣世亨丁丕亀中万	-10.206
丕丣亞丫丙亥丁	-10.2062
中严亨両亢丙亄両	-10.2062
中亣両亙严	-10.2062
▁丙予丙亗	-10.2065
les	-10.2066
乿亙丙	-10.2066
丈亙严	-10.2071
▁上亀亢丙	-10.2071
丗乿亣上中业	-10.2072
Pla	-10.2072
丁亟亠丧両	-10.2073
业亀亟丙丞亥丁	-10.2074
丁亗严亥万丈亝	-10.2077
両亟丁丁亓丙丛亜	-10.2081
▁个亥丛且亟丫乌	-10.2081
丄亙丣亣丢且	-10.2082
丂亣且	-10.2083
▁丁乿中丙丗乿亣	-10.2084
世亨丁丈亝	-10.2084
丙亀亗丂互万	-10.2089
且亀亜中亣丁	-10.2089
▁丄产专个両业亥丕亢	-10.2093
中亢丗丘亢丞严	-10.2094
丠亥	-10.2094
个亟両亟丣世丗亗	-10.2095
丧亙严亟丗乿亣	-10.2097
丄亙丣乿五万丛丣亞且亥业	-10.2098
丗乿亣丁亗丫丙且	-10.2101
丂中万丛丣亞丗亙丨丗亜丢	-10.2103
ence	-10.2108
pt	-10.2108
东严严亥丞丘乌	-10.2109
丙亥丁丣亀中万	-10.2114
严亨丁个亟丧	-10.2121
个丠亟丞丧亚且严亀中両	-10.2122
丧亙上	-10.2122
中亟丈丗亗丫亀亝	-10.2123
丕亖両了万	-10.2124
丁中万丫严亥万	-10.2132
丗亟万丣亀亟丙	-10.2135
丁丣亞丗乿亥万	-10.2135
▁丣丫亥个	-10.214
VI	-10.2141
丧亢丨丧丁亠両	-10.2149
上亀亢丙个乿丧丙	-10.2152
丄丣亟业	-10.2152
丂互万丁亚丣乿万	-10.2154
丨亟	-10.2154
bl	-10.2158
丛丣亢不不亟	-10.2164
下中丟丕乌丧亚丣乌	-10.2169
両亣丄乿亟	-10.2169
万亜	-10.2174
丧亙丗	-10.2174
両亣中亟丢产	-10.2179
且中丙	-10.218
丣亀亟丙丂亟丢	-10.218
丄丧亟両両乿亥丙丈亝	-10.2181
▁丙乿亥丙	-10.2181
丗亣両丢了丙	-10.2183
丗些丙	-10.2187
乐乐	-10.2199
丫亀中万丙中丙	-10.22
个丁亚丙	-10.2203
▁丁亊	-10.2204
丛产	-10.2204
丟产丕	-10.2207
丧亚丣乌	-10.2207
个亥丙丕亢	-10.2207
丁亀	-10.2211
丈亟丣	-10.2213
中丘亢业且亣	-10.2213
▁丈交万丗亗丫亀亝	-10.2214
▁丞业	-10.2219
中亣丁丫严亟丢	-10.2225
丫亜丧亀	-10.2227
丣乿了丢	-10.2227
亟丁丣	-10.2234
丕中丙丣亚丁	-10.2239
▁丄亙	-10.2242
110	-10.225
▁丁丣亥両	-10.225
▁45	-10.225
丣亄丁丣亀中万	-10.2253
▁Samsung	-10.2258
TM	-10.226
严亀亚丧丈亞	-10.2262
丁亦且亣	-10.2262
中产丛个亠丄	-10.2266
両亟丕亀亥万丕乿亚	-10.2268
-25	-10.2269
1000	-10.2273
ds	-10.2275
丕乿亟万丁亦	-10.2277
丙交丁世交万	-10.2279
丗丣亨	-10.2281
丁丣亞丗亄両	-10.2283
▁个世亟业亥丙	-10.2285
严亥丁丩专乌	-10.2287
丙亀中万乆	-10.2289
严乿亡丙	-10.229
严亀亟	-10.2292
fa	-10.2294
丄丧亟両丛云丙丈丣亢万	-10.2299
丠亟丄丕亀亝	-10.2305
丗丧亟丣	-10.2308
▁个乿亢万	-10.2311
丫両亟丁	-10.2311
▁丈亀亍丫丙亀亟丗乿亣	-10.2312
且中严严亟丣乌	-10.2315
丗乿亣个产且丙亝严些丁	-10.2315
SH	-10.2317
丄丧亟両丕亚丁丕乿亟万	-10.2321
丁亗严亥万両中万丫亟	-10.2322
▁2555	-10.2326
个产丂些丗亥丢	-10.2327
ash	-10.2327
个亣上両丞亨	-10.2334
丂业丧丙	-10.2335
丈亀亍业亀亟丙	-10.2335
个丁丣亣丙	-10.2339
ction	-10.2341
両乿亜丢亟丁	-10.2342
中丢乿亟万丗亀亚丈丣亢万	-10.2343
両亣丄产专个両业亥丕亢	-10.2344
▁串万	-10.2345
上亀亝丛云丙	-10.2346
丄些両丟亜	-10.2349
両亣丧亙严亟	-10.235
両亣丂丙亟且	-10.2353
eb	-10.2357
丈亥且丫亟	-10.2364
ji	-10.2365
丂亀亟万丕亀丙	-10.2371
云丙	-10.2371
▁<	-10.2372
丣亚丁丗乿亣	-10.2372
丙丄亠亟上个亣両亟	-10.2373
3%	-10.2373
丗乿亣両亣上乿五个亄万	-10.2373
丣亨丛丗丣万	-10.2374
丙亀亟	-10.238
▁中亟丈丈亞	-10.2381
丗亗丈亟丁	-10.2383
丗乿亣丞业	-10.2384
丙亝両丙产丩丢乌	-10.2386
facebook	-10.2392
丛亥丙	-10.2395
▁丙亟万个亟丧	-10.2395
个丙丗丙亟	-10.2396
且亥丁	-10.2401
▁中亥丕丣亟	-10.2401
中丢乿亟万丕云両丗乿亣	-10.2406
ID	-10.2406
cu	-10.2407
▁丂中丫亀亝	-10.2411
丫亟且丫亝不乿	-10.2415
丁亠両丁亟丣东亀亨丈亥且丁亟丣	-10.2417
▁pro	-10.2419
万中丁	-10.242
丧亥丙丞产丘	-10.2421
BA	-10.2432
丁亟丣丞乿亓両	-10.2437
丛丣亢不不亟丕丣亣	-10.2438
丣亚両	-10.2447
丮亚両	-10.245
丕亨且	-10.2451
▁丂中万丗亀亚	-10.2453
丙且乌	-10.2458
両乿亜両亣丁亟丣	-10.246
丕亀亝且亢丙	-10.2461
丁亟丣丛亙严乿亣丢丙	-10.2463
丛亙严乿亣丢丙丛亜	-10.2467
丛云丙丣亨丛	-10.2469
中亣丁严亀亚丧	-10.247
丨丣	-10.247
丙乿了万丙亝	-10.2472
丁云丕	-10.2474
丂亀亜	-10.2474
丫丙亀亟丁亟丁	-10.2475
丛云丙个世亟丙丗乿亣	-10.2475
三亙丞亟亞中丢乿亟万丢乿亢万	-10.2478
▁三亞丙亀亥丙	-10.2478
丛丣亟丨丈亟丁	-10.2478
上亀亣丈亚万	-10.2479
ink	-10.2487
丫亀亝丄丙	-10.249
世亟	-10.2494
▁中亜	-10.2498
丁亟亠乿丧両	-10.2499
严亘丁	-10.2499
严亙丂亟丘亢丁亟丣	-10.2503
丞亥且	-10.2504
SE	-10.2506
▁丨丣亣	-10.2512
丫亀中万个両产且	-10.2513
下亙丟	-10.2513
▁丄产专丈亞	-10.2516
▁Hi	-10.2516
ple	-10.2519
中亙丧	-10.2526
中亍丛亜	-10.2529
丛丣亣	-10.253
且中丁业亀亄	-10.2537
▁Dis	-10.2538
丈乌	-10.2538
▁丘丙亟丄亟丣	-10.2539
ush	-10.254
丕亀亜丫丧亥丙	-10.254
St	-10.2543
▁My	-10.2543
丛云丙丞亄万	-10.2544
丁严亥业业亀亟丙	-10.2546
个亣丙亀亗万亓丙	-10.2554
丄亟且丫丧亥万	-10.2557
丙乿亟丙	-10.2558
丁亥严	-10.2566
上亀了丣亟	-10.257
ook	-10.2572
丛丣亞丗亙丨丈亣丙	-10.2573
丁亘亟丈丈亞	-10.2574
丁亥业丛丣个亢丕	-10.2575
old	-10.2575
両亣丄丧亟両个亗丄亥不	-10.2575
丢亥万且亀亜	-10.2576
东亀亨上亀亝万亟丙	-10.2576
2017	-10.2576
丛亣丗乿亣严亀亚丧	-10.2579
丙亀亗丗乿丧両	-10.2581
丞丣亣両乿亄両	-10.2582
ny	-10.2588
中両亙丣亢丁亥丙	-10.259
両乿亥丙丈亝丧乿亟	-10.2592
両乿亜丣亀亨丧乿亟	-10.2592
丄中丙个亓丣乌丕	-10.2595
丕亖丕丙	-10.2596
中亣丁丕乿中丛亜	-10.2597
ten	-10.2598
丗亟万业亀亟丙	-10.2599
个万丧丙	-10.2599
丝丙丕丁	-10.2603
丧乿亟且亀丧丢	-10.2604
丙亝丛亣丙亀亣	-10.2608
丫亨丟亥万	-10.2608
业且	-10.261
丣丧両丁亥丙	-10.2613
且亀亜且些丢	-10.2614
丁且且亥丙	-10.2615
丄亀些且	-10.2616
中乿亞	-10.2616
丛亓且业亀亟丙	-10.2617
丟中万	-10.2617
▁丄亥丞	-10.2619
cm	-10.262
丛云丙丗乿亣丙亢丢両	-10.2626
丈且丫両亟丢	-10.2628
丁亟丣丛丣亞両亓丙	-10.2631
丗亙丄	-10.2635
丣亀亜个亟丢	-10.2636
700	-10.2637
9%	-10.2637
严亀亚丧丄丣亥业	-10.2639
▁丣亥业丗亗	-10.2639
丁亟丣且亓丙	-10.2642
▁个乿万东严丫亀亝	-10.2642
且亀亥万且亓両	-10.2645
丗亚	-10.2649
cha	-10.2652
SI	-10.2653
个严亞	-10.2655
▁09	-10.2659
▁丄于	-10.2661
万亨	-10.2662
下亙丙丕乌	-10.2663
个両产且	-10.2669
且亢个	-10.2671
个丠亟丧亞	-10.2672
下乿亙	-10.2673
▁个両亥丢	-10.2674
且亟丣乌	-10.2676
丁中业且亀丧丢	-10.2679
丈亥且丁云业	-10.268
ari	-10.268
SC	-10.2685
丄些丕丣	-10.269
丣世业亠丗产丁	-10.2696
业丁丞丣乿中万	-10.27
严乿丧万	-10.2703
丗乿亣丈中且丣世	-10.2706
丁亀丙	-10.2706
丛丣亞両丧严东严	-10.2708
▁**	-10.2711
丫亙丣亣丢不丗中万	-10.2711
丫亜丧	-10.2712
両亣丄丧亟両丣亀亨	-10.2712
両互丁	-10.2714
▁上乿中万	-10.2715
丟中丁	-10.2717
丢云业	-10.2717
kin	-10.2717
tion	-10.272
丁产不丈亚	-10.2721
両亞丞丣亀亟丧	-10.2725
丫亟万	-10.2725
丛亣丨亟丈且亚万	-10.2726
丫严亟丢丄丣亀亥万	-10.2727
丕亀丙个亥万丁亥且	-10.2727
中丢乿亟万丫丙乿交万	-10.2737
个亚	-10.2738
att	-10.274
个亟丘亟丣专个产丂	-10.274
.4-	-10.2741
中丧亥丢丧亞	-10.2741
丙亓丙	-10.2744
丢亄丧丢亟	-10.2746
丗亞严产	-10.2747
丁亟丣丞亢丈亟丣专亟	-10.2749
両乿亜且亀亜両亣	-10.2749
丕亀亥万丕乿亚丛亣	-10.2753
中亙严	-10.2754
丙亟丙亟	-10.2756
丁亥丙中丢乿亨	-10.2757
丫严亥丁丂中万	-10.2758
▁东严亢丕丠亥专丑乌	-10.2762
下亢严亢丄些丙	-10.2763
▁中万	-10.2766
ise	-10.2767
CC	-10.2768
▁丣亥业个両亥丄丣	-10.2768
▁丫亀中万丙亀亗	-10.2769
严亨丁上亟丢	-10.2773
▁丄亗	-10.2781
丫亖丙両	-10.2782
丣亥业丟亥万	-10.2784
下亢両	-10.2785
中亥丈三丣亢丢亞	-10.2785
上亗丣亞万亓丙	-10.2785
丄亙丙	-10.2786
Re	-10.2786
▁丧亢且亣中些	-10.2787
丨亥丁且亢乌个亢丗丘亢乌	-10.2788
丄业	-10.279
专乌	-10.2794
丂中万丁严乿产両	-10.2802
ob	-10.2803
丕亟丂乿亟丢	-10.2807
ire	-10.2809
両亀亚丈亞	-10.2813
▁丄亡丙	-10.2816
中亀	-10.2816
ll	-10.2833
chi	-10.2833
丣亥万个亢丕	-10.2836
LI	-10.2837
8%9	-10.2842
▁丁严乿中万	-10.2843
丗乿亣上乿丧丢	-10.2844
▁33	-10.2845
丫亀亝严亨丁丄亀亟	-10.2846
PO	-10.2846
両专丑严	-10.2848
丙亚业	-10.2851
中丙亟両亥丢	-10.2857
丈二丁亥业	-10.2858
丠亟丄丫亙丙五	-10.2863
Ma	-10.2866
HA	-10.2871
丛亀亙	-10.2871
▁Ph	-10.2874
严乿亢両严了且中产且丕亥丙	-10.2874
vel	-10.2879
ding	-10.2882
▁丛云丙东亀亨	-10.2883
个丧亥个且亣	-10.2891
丛丏亢业亥丕亢丕亟両	-10.2891
丘亣丣	-10.2891
丁亟丣丁亗丫丙且	-10.2895
个产丁丣	-10.2896
р	-10.2896
丛丣亞丛亟	-10.2899
丟亙个	-10.2899
▁丈亞且亀亜	-10.29
丣乿丧万	-10.2901
丁中丙	-10.2903
▁Part	-10.2903
上乿亡丙	-10.2904
丨亢	-10.2906
丄丧亟両丣亥业东亢且上中业	-10.2914
世中丢	-10.292
丞丣亞丣亟上丧亥万	-10.292
▁丛些丣且	-10.292
▁上亙严下亣	-10.2925
丄亄万	-10.2925
丣亍丈交万	-10.2929
In	-10.2929
-15	-10.2934
丁严丁亜	-10.2936
业丣亢丠些丄	-10.2938
丢事両亟丁	-10.2942
▁ID	-10.2944
丕亖丄亙丣乿五万	-10.2946
亟丣乌且	-10.2949
丁亟丣乌	-10.2951
个両产丗丣丛丣亟丁亟丣	-10.2952
严亥且	-10.2955
両亣中亞丣亜	-10.2955
丣乿产丙丙亀亣	-10.2955
両乿亜上乿亝丣乿了万	-10.2956
东亙上亢不	-10.2956
个亀了丢亡且	-10.2958
丈亟万	-10.2959
▁Hotel	-10.2961
丣亀	-10.2961
上乿丧丢丫亀亝丄产专	-10.2962
▁丫严亥丁个亨丕丣	-10.2963
丫亟丣	-10.2964
ik	-10.2964
个亙両五丙	-10.2965
丢亀亟丢両亟	-10.2968
东亀亨丛丁丄丣中万	-10.2968
両亣中亗丙亟丈	-10.2969
両亥丙両乿亜	-10.2969
丗亟丧丙乌	-10.2973
丧中严	-10.2974
▁丕乿亚両乿亜	-10.2977
丛丣亞丁丧且	-10.2981
丗亟万丣亍	-10.2982
严二	-10.2991
丕亀亥万中丢乿亨丙亝	-10.2993
丫亜严乿	-10.2994
严产	-10.2994
丁亟丣丕乿中个亀亨	-10.2995
▁Holiday	-10.2996
丫亀亝丄亗丛丣交丁丩亟	-10.2996
个亨万世交万	-10.3001
丛丣亞丈亗丧亥丙	-10.3006
-9	-10.3007
严亀亟丙业亟丗	-10.3008
▁iPad	-10.3009
丛云丙中丢乿亟万丣亜	-10.3009
丁乿交万	-10.3015
且些両亙丙	-10.3016
両亢丙亢	-10.3019
▁个亗丙亥丁	-10.302
over	-10.3022
両乿亜丞亀亚	-10.3024
丫亙严乿亣丢両	-10.3025
丢亡且丫丢乿产丙	-10.303
▁Or	-10.3034
业亥不不亥丕亢	-10.3034
丁亟丣个乿万中中丁	-10.3034
丗乿亣中丢乿亨中亟丨亥丢	-10.3035
▁Pri	-10.3036
丗乿亣丞丧丁丂亍	-10.3037
両亥丘丢両	-10.304
丛乿亍	-10.3043
丁亥両丞亨上亟	-10.3048
业亟万丙亟	-10.3049
▁且中丁	-10.3053
▁丙亝丐亟丙亞	-10.3054
nc	-10.3059
丂中丣亥业	-10.3062
丕亀中万丁亟丣丫亀亝	-10.3065
丗乿亣丫云丙	-10.3068
丕亀亙	-10.3069
▁上乿丧丢丫亀亝	-10.3072
丣亞业亟丢	-10.3078
丛些丣丕亣丙	-10.3079
丗亞严亙个亟业	-10.3079
丂中万丣乿亟万丁亟丢	-10.3079
丂中万丛丣亞上亟上丙	-10.3083
丄产专丞乿中	-10.3085
丁亟丣中乿亟丙	-10.3087
中中両	-10.3088
丗亗丣亀亟丢	-10.3092
uck	-10.3106
丛亙丣亣丢业	-10.3107
丗乿亟丙丈亞	-10.3107
丞亟丢	-10.311
上亀亝丛丣亞丢些上丙乌	-10.3111
丫严亟丢中丢乿亟万	-10.3113
严乿中	-10.3115
万亀亥丙	-10.3117
2.5	-10.3118
丁亀中	-10.3123
丛亜丁丧乿亟	-10.3125
▁中亥万丁两丩	-10.3126
丨亣严	-10.3126
丈交万且亀亜	-10.3127
中亢丙且些丙亣下亄	-10.3131
▁両亣丁亟丣	-10.3132
丁亢严些丁丣亥両	-10.3136
丄乿亟丕亖	-10.3137
丄丧亟両両乿亜	-10.3141
丕亢且丁亥业	-10.3143
且亟丧丢亢万	-10.3143
中亟丈丈亞両亣	-10.3145
丁亁亟下	-10.3149
▁中万丨亟	-10.315
丧亥丒丙亟	-10.315
丛云丙个両亟上亢丁	-10.3155
▁2554	-10.3156
丧丁	-10.3156
严亢个	-10.3157
个亙丙中丣亟丄亟	-10.3157
丛中且	-10.316
丙中丙丫严亥业	-10.316
丁亥丙业亀亟万	-10.3161
上万	-10.3166
东亥且	-10.3167
8%8	-10.3169
丞亚丣乿	-10.3171
▁One	-10.3173
両亚丙上亙个丕二丣乌	-10.3177
丁亥丙严亀亚丧	-10.3178
中亥丕丣亟丁亟丣	-10.3182
上亀中丛	-10.3183
▁2011	-10.3184
丄亟且丧乿亟丈亞	-10.3186
丈亞丕亀中万両亣	-10.3187
2,000	-10.3188
丈亥丙	-10.3189
ign	-10.3189
丗亗丛云丙	-10.3195
丄亀亟丂亀亚万	-10.3195
丈亥且丈亗丫丙乿亟丢	-10.3196
丛云丙丫亙丕产丫亀亝	-10.3201
▁Plus	-10.3203
orn	-10.3203
/2	-10.3204
东亢丧丂亟丧	-10.3205
且亀亟丙丂亀亟万	-10.3208
▁丛云丙丕亀丙丛亜	-10.3209
▁En	-10.321
丗亗丕亟両	-10.3211
両些且亙严	-10.3222
丫亞	-10.3224
▁Black	-10.323
丙亝业亚业	-10.3232
亟丙丙丗乌	-10.3233
业乿	-10.3234
que	-10.3239
乿些万	-10.3247
丁亥丙丙亀亗	-10.3247
▁丣二亥严	-10.3247
丞严中丢	-10.3249
丁亟丣且亓両丞亥丙	-10.3251
▁Ka	-10.3253
丙亚丧丣亥业	-10.3254
▁丕亢且丕亀亥万	-10.3256
▁admin	-10.326
丞中丣乌丕	-10.3262
丘亣	-10.3263
▁1,000	-10.3268
▁Tag	-10.3272
丁乿亄丧丂亀中万	-10.3272
丙亞丄乿亞	-10.3272
丂中万両了万	-10.3274
丫両亣	-10.3274
▁丣些万丣亄丙业亀亟丙	-10.3274
丙亢丄両	-10.3276
下乿交万両亣	-10.3276
中亥両	-10.3277
▁Pre	-10.3281
丗两丩与亣	-10.3282
丫両丧且丫両乿亨	-10.3283
中丢乿亟万上亥且丈亙丙	-10.3284
丗乿亣丢亥万	-10.3285
且亗丣万	-10.3286
丁丣亞且些且	-10.3291
▁丗亞业亄丙个丧丢	-10.3292
丙亢上	-10.3295
东于丧乿亟	-10.3297
个亟丧个丧丢	-10.3299
丛亚丣	-10.3299
ium	-10.3301
上乿亝丫亜両	-10.3304
丑	-10.3308
个亟丢丞亥丙丘产乌	-10.3308
丛亥个个亟丧亞	-10.3309
丫亀亝丄丧亟両个丙丈亝	-10.3316
个中业个丧丙	-10.3322
丄万両乿亜	-10.3323
両亟丣且亟	-10.3324
丟些両	-10.3324
亢且	-10.3326
両亣业丣亢丁亟丣	-10.3326
丄両上亥且	-10.3329
业亠丗亍	-10.3332
▁丣亄丁丧乿亟	-10.3334
form	-10.3335
丕亜丣両亟个	-10.3336
▁..	-10.3338
py	-10.3341
个严亟丢	-10.3342
丗亜丢严亚丙且乌	-10.3346
中丙产不亟丕丫亀亝	-10.3347
业亥丙且亜	-10.3351
丞亟丙	-10.3352
丫乿中	-10.3353
▁150	-10.3354
丛二丣乌下云丙丕乌	-10.3355
丧中丙	-10.3359
丫严亥丁丁亙专丑乌	-10.3361
个亗丫丣亥业东亀亨丗乿亣	-10.3362
丁业	-10.3365
丄亚业	-10.3368
中亥丁丩丣	-10.3369
且亨且亣	-10.337
▁丕乿亚両乿了	-10.3373
丠丞	-10.3376
且亀亜中丢乿亟万丣丧且丣云丧	-10.3379
世五且亀亜丧乿亟	-10.3381
丗亢丞丢乌	-10.3386
両乿了丗亄业丁亥业	-10.3388
且亀亜丙亗	-10.3391
▁下亥业丗亜丢	-10.3392
亀产丢	-10.3392
严万丗些丩	-10.3398
业丧上	-10.3402
中丢乿亟万丫丙亥丁	-10.3404
丈亙丣丈亟	-10.3404
tro	-10.3409
▁严予个亟両亟丣世	-10.3411
–	-10.3412
丁亂亙	-10.3415
▁丣些万丞丢亟业亟严	-10.3419
丛云丙丄丙丗乿亣	-10.342
️	-10.3422
▁中亚丣乌	-10.3423
丗乿亍丁亥丙	-10.3424
丕亙丣亣丢両丕亖	-10.3426
丣亟丨亣	-10.3427
丐亟丙亞	-10.3427
work	-10.3427
▁Free	-10.3429
丁丩亥丕丣亢丢乌	-10.3431
q	-10.3431
丛亚严丧乿亟	-10.3433
▁Center	-10.3436
Posted	-10.3437
丁亟丣丛丣亥业丛丣产万	-10.3438
且亀丧丢丕丙中亙万	-10.3441
个亄丧亙严亟	-10.3445
丕亖中亥丁丩丣	-10.3448
▁丗亚万业中严中中丙严亜丙乌	-10.345
red	-10.345
両产丁	-10.3451
丫亢両亞	-10.3455
丢亥且	-10.3457
业亀亟丙丣亍	-10.3457
丙亥丁丞丙亥丙	-10.3459
丗亙丣丙且乌	-10.3459
▁丙中丁丈亟丁丙亀亣丢亥万	-10.3461
▁个両	-10.3462
ING	-10.3463
丈亥万丫丧亥且上亄万丫亝両乿	-10.3463
丟亚丙乆	-10.3464
▁Read	-10.3465
▁Star	-10.3467
下云丁下乿亣	-10.3472
业亚业丫亜丙	-10.3474
丙乿亟丈亞丛云丙	-10.3477
丄丣亢个	-10.348
丁亥丙且亚且	-10.348
且丧万丕亟	-10.3481
fl	-10.3482
且亀亟丙严乿亟万丙亀亣	-10.3484
▁1-0	-10.3485
上亀亝丙亝丁亟丣	-10.3486
丁亍丫严亣丕亀亝	-10.3488
乿亜	-10.3488
上亣丧	-10.3489
ound	-10.3491
丁亥业丧亓丣乌両	-10.3493
両亣且	-10.3494
▁World	-10.3495
丁乿亄丧丂亀中万丁亥业	-10.3498
且亀亜丄丣亥业	-10.3498
三产丁三亓丙	-10.35
set	-10.35
▁Club	-10.3502
▁2552	-10.351
両乿亜丗亥丙	-10.3513
丁亟丣亥丙丕亣	-10.3513
ric	-10.3514
个亟両亟丣世丗亗且亀亜	-10.3518
丠亥丗丣	-10.3521
中亥丙且亥业丗乿亣	-10.3522
丛云丙丫亚严乿万	-10.3522
eg	-10.3523
丗亙丙	-10.3527
▁严予両乿了	-10.3528
丛丣亞上亟丘亢丛丕亜丢	-10.3532
tri	-10.3533
IL	-10.3535
TR	-10.3536
両中万丫亟	-10.3543
丁亝严亀上亢且	-10.3543
且产严	-10.3544
丗乿亣丄产专丕亀中万丁亟丣	-10.3548
ach	-10.3548
亁产	-10.3549
ble	-10.355
丣世丁丣亞业亞	-10.3559
▁Ac	-10.356
-16	-10.3567
丙亀亥丙中亙万	-10.3568
丧亣下乿亟	-10.3568
▁Play	-10.3571
上亙丟	-10.3572
中亣个亟丙	-10.3573
亁产丁	-10.3573
亢丙丗丣乌	-10.3573
AV	-10.3574
严亢丄	-10.3574
且亀亜中丢乿亟万丣亜	-10.3575
丣乿亖	-10.3578
上乿产両	-10.358
丛云丙个乿丧丙丫丙乿交万丂中万	-10.358
丄丧亟両丈产	-10.3588
丧乿亟丂亍	-10.359
且亟丧丕亇	-10.3591
丄丣业丄丣亥丙	-10.3592
丁些丣丘	-10.3592
业亟严	-10.3592
▁丁丗両	-10.3592
▁you	-10.3593
丞互丄	-10.3595
丛云丙东严	-10.3596
▁We	-10.3601
丄亙严乿五丙	-10.3602
丁乿亍丁乿亚	-10.3602
▁中亥丙丙亀亣	-10.3604
中亍丈亝	-10.3606
丠亢	-10.3611
▁丕亗丫亚丙乿万	-10.3612
东亡丙	-10.3614
丛云丙丈产且	-10.3614
且亀亜中亣丁且亀丧丢	-10.3618
{	-10.3619
丣乿了万丣亟丧丂中万	-10.3622
▁丙亀中万	-10.3625
http	-10.3629
个丧亥个且亢丁亟丣	-10.3629
丧亟个	-10.3629
业丣	-10.363
丙亝严亥丁丩专亞	-10.3631
世交万丈亞	-10.3637
丈交万両乿亜	-10.3638
EM	-10.3639
丫亣业	-10.3639
业乿亚万丛亥丙	-10.3639
东亀亨丣亄丙	-10.3639
丣亟且	-10.364
东乿了	-10.364
丞丣亞丞产丗丘丨亟个丙亟	-10.3641
丗产丁丛亣	-10.3644
丈些丣	-10.3644
▁丕乿亚丣亍	-10.3645
丗乿亣丈亗丛云丙	-10.3646
中亟丁亟丣丛丧且	-10.3647
way	-10.3648
中乿亨	-10.365
丢云且丫亣	-10.3651
丕中	-10.3658
中亚且	-10.3659
中亙丁严亥丁丩专乌	-10.3664
丗丣亣	-10.3667
中亜丗亣	-10.3667
丙中丁丫亙丙五丈亟丁	-10.3671
丂丙亟且丙亀亣	-10.3675
丧亥丙中亟丗亢丕丢乌	-10.3676
▁丙中丁丈亟丁丙亀亣丢亥万両亣	-10.3679
ney	-10.3682
丫丙亥万个五丞亢両丞乌	-10.3682
丄严亟丢	-10.3685
丟亢严	-10.3688
丧亨	-10.3689
両亙丕丕亟	-10.3691
丗亨丕	-10.3695
丄亙丣亟亞丫乌	-10.3698
下亥且	-10.3698
▁丫両乿亨丗乿亣	-10.3703
个丕亟丣乌丗	-10.3703
丕亀亟丙	-10.3705
个业乿亨	-10.3708
丗乿亣丗亀亚丈丣亢万	-10.3711
▁丛亙	-10.3712
严亀亄丧	-10.3713
业亟丣両亣	-10.3713
丙亝丣亞丢亞	-10.3716
亀亄丙	-10.3719
丧亥丙丙亀亣丣亍	-10.3721
с	-10.3722
丁丣亞丛些丣万	-10.3722
东亖	-10.3724
hot	-10.3725
丄丧亟両丝亥丙	-10.3725
个业亟丢丈亝	-10.3729
use	-10.373
丫亀亝丂亍	-10.3749
严亄丙	-10.375
东両丄亢且丧乿亟	-10.3751
上丙亢且丙亀亣	-10.3754
▁丗丧乿亟	-10.3755
▁Ko	-10.3758
▁[...]	-10.3759
丮亣	-10.376
个业亟丢乆	-10.3761
丞丧丁丙亀亣	-10.3762
丂亥万	-10.3764
丠亥专丑乌	-10.3768
丄亗丙交万世交万	-10.3769
丁亟丣丕亓业丕些	-10.377
丞乿亜丢亢丛下亣	-10.377
中亀亟万中亢万	-10.3778
aya	-10.3781
严丧且严亟丢	-10.3785
丕乿中丢中且	-10.3786
严丧且	-10.3787
业亁产丄	-10.3787
Inter	-10.3793
丂中万丣亥丐	-10.3796
上亢且	-10.3799
丁亟丣丞亚丗丢乌	-10.3802
丗乿亣丙乿亥丙	-10.3806
丣亀亟丙丁亟丟亚	-10.3806
下乿中両下亚両	-10.3806
ring	-10.381
个亚且万丄丧亟両丄亢且丫云丙	-10.381
RI	-10.3816
中亞丣亜业亀亟万	-10.3816
上亝	-10.3817
丁亟丣丄亙严乿五丙丫亜丧	-10.3819
丣亥丁丩亟丁严亟丁	-10.3819
丮亚	-10.3821
丛亓且丫亀亝业丣亢丁亟丣	-10.3822
丄丣中业	-10.3823
▁严亀亟丙丛中丙且乌	-10.3826
han	-10.3828
且亙丙	-10.383
両亣丙亚丧丙亀些両	-10.3833
二丣乿亣	-10.3835
中中丁中亟丁亟丨	-10.3837
上亘丛	-10.3839
丛丣亞丗亥业	-10.3842
丕亜丣	-10.3844
101	-10.3848
丙乿亚乆	-10.3848
丙亝上乿丧万丧亙严亟	-10.3849
}	-10.3849
业亢且亟	-10.3856
严万丙亟両	-10.3857
丛丣亞丫严亟且	-10.3858
丧亥丙中亥万丄亟丣	-10.3858
丁亟丣丕丁丕乿亚万	-10.3858
丟亣	-10.3859
世严乿両	-10.386
▁丕乿亚丞中	-10.3861
丂亀亖	-10.3863
丧乿产丙丧亟丢	-10.3863
丄亙严乿五丙丫亜丧	-10.3865
中亙上	-10.387
og	-10.3871
严亢万丁乌	-10.3873
丌	-10.3873
両亟丕严中且	-10.3874
业亚丕	-10.3876
丁丩	-10.388
丞亚丗	-10.3881
丢乿亢万丁丧乿亟	-10.3883
tin	-10.3883
且亀亜丗亗丁亟丣	-10.389
丄丣亢个丕亄丙	-10.3896
业亗丣产万东亢丧	-10.39
eam	-10.3902
丣亥丐両丙丕丣亣丧乿亟丁亟丣	-10.3905
両亢且丟亢严且乌	-10.3906
▁Mod	-10.3908
丙亚丧丙亀些両	-10.3908
中些丙万亓丙	-10.3908
丧亀亟	-10.391
个丫丁丣专乌	-10.3911
丙亥业丕亀亥万丕乿亚	-10.3913
両亣丞亀亡丙丗乿亣	-10.3914
业乿亚万丛云丙	-10.3915
丢云且丁亥丙	-10.3918
中中丁両亟丈亟丁	-10.3921
丗亨严	-10.3921
):	-10.3922
丣亥业上両	-10.3922
且亗丣万丕亗丫亚丙乿万	-10.3922
三亙严亢両丞丣亞丁亄丣丕亢	-10.393
丧亀亜丧乿亟	-10.3932
dd	-10.3934
丛云丙东亀亨丙亗	-10.3937
cc	-10.3938
丙亝丕中丙丙亀亣	-10.3938
丈亥且个亚且万	-10.3942
丗产丁丣乿产丙	-10.3943
东亀亨丗亚丙	-10.3945
丙亚	-10.3946
丗乿亣且亀亜丣亥业丁亟丣	-10.3947
iss	-10.3951
东亚丙丁亟丣	-10.3953
且云且丂亟且	-10.396
cess	-10.3961
cy	-10.3965
rin	-10.3967
丁亟不丈丙业产丣亣	-10.3973
▁Sport	-10.3973
両乿了丣亍	-10.3977
4%	-10.3977
▁(1)	-10.3977
上亗丙亟不	-10.3978
丄中丙且些両亢丙亄両	-10.3987
▁Comp	-10.3988
丂亀亟万丙亝	-10.399
Tra	-10.399
丂亙丕丞亀亡丙丗乿亣丁亟丣	-10.3994
▁丕乿亚丫亟丁	-10.3995
丞丣亀中両丗乿亣丈亞	-10.3995
丣亥业丛丣亞丗亟丙中亟丫亟丣	-10.4001
丁亘丢亟丁	-10.4001
NI	-10.4004
丗亜丣	-10.4011
万亟	-10.4012
丕乿亚万丫丙亀亟	-10.4015
0000	-10.4019
丙亝丁亟丣丞亥丒丙亟	-10.4023
▁丣亞丫丧乿亟万丧亥丙丗乿亣	-10.4023
丝交丁下亀中両	-10.4023
中亂	-10.4025
丣乿些	-10.4027
个丁产严	-10.4028
丣亢业	-10.4028
乿亍	-10.4031
▁丛亥不丫亟	-10.4032
个丣亀亟万丣亟丢且亀亜	-10.4033
丄些严	-10.4034
▁且亓丙丗亟万	-10.4034
个且上乿亡丙	-10.4038
eat	-10.4038
丗乿亣丙中丙	-10.4038
丠亟丞丣丧両	-10.404
club	-10.4046
両亜严乌	-10.4049
ort	-10.405
下产丛丛二丣乌	-10.405
▁is	-10.4057
中丢乿亨丣亞丫丧乿亟万	-10.4061
▁Mon	-10.4062
丗乿亙	-10.4064
press	-10.4065
丁亟丣个乿万个亙丣亢両	-10.4065
tre	-10.4067
▁(1	-10.4067
丕亥万	-10.4068
上亜丢	-10.4071
丕乿亟万丈亥万丫丧亥且	-10.4071
丞乿了上亀亝	-10.4073
丫亟丧亢丗丢亟严亥丢丣亟上丠亥丏	-10.4074
中亟丈丈亞丛云丙	-10.4077
丕亀中万丛亜	-10.4077
両亟丁丄丣亥业	-10.4077
両亀亚丁丣亞丗乿亥万	-10.4078
下亟丁	-10.4079
乿丙	-10.4083
业亍乆	-10.4085
丗乿亣丗亗万亟丙	-10.4087
丫両中丙	-10.4087
ib	-10.4089
ition	-10.409
丁亀亚両	-10.409
个乿万両中业	-10.4092
个亟両亟丣世丙亗	-10.4092
丞乿了丛亀中万丁亥丙	-10.4094
互丁	-10.4095
世事	-10.4102
NO	-10.4102
ef	-10.4111
丮亥	-10.4112
丧亥丙丫丙乿交万	-10.4112
个丁丛丣丁	-10.4113
下亚万	-10.4115
pl	-10.4117
丨亙丣亀亟	-10.4117
业亚丄丗亣丣亄	-10.4118
丣亄业万乿亟丢	-10.4122
丢乿产万丢亟丁	-10.4122
丙亝丁亟丣严乿亙丙	-10.4123
丞丣亞丈亀亍中丢乿亨丫亖	-10.4125
丁亁亚个	-10.4128
且亀亟丙丙亝	-10.4128
乿亢丙	-10.4128
丁亟丣丕亢且上亀了	-10.4129
丙丄丣丛丐両	-10.4129
世乿亟丙	-10.4132
丧亜丙乌	-10.4138
中云丁下乌	-10.4144
丣亟上业产丣亣	-10.4145
交両	-10.4146
丁乿中丙丫丙亀亟	-10.4148
9%8	-10.4149
丫严亟	-10.4152
个丕亁亢丁丁二丣乌	-10.4157
丄丧亟両东亢且丛丁丕亢	-10.4159
▁丙亀亗両亥丙	-10.4159
▁Ri	-10.4164
▁Game	-10.4164
中亥万	-10.4165
両亣上乿五	-10.417
丗乿亣个丙丈亝	-10.4172
両亣丫丙亀亟丗乿亣	-10.4175
丧万万亓丙	-10.4175
亨丛	-10.4176
中亥业	-10.4176
亀了	-10.4177
丈中且丣世	-10.4178
丙亣丢乌	-10.4181
丣亚	-10.4182
丣亄丧	-10.4183
IM	-10.4184
丗丧亣丛	-10.4185
▁丣亨丛业亚业	-10.4185
丛亟丣亣个	-10.4186
丛亄丁	-10.4194
丗亟万丁亟丣両了万	-10.4195
丛丣亟丁与	-10.4198
丞乿了丄丧亟両	-10.4199
上亀亢丙万亟丙	-10.42
丁丧丙	-10.4203
丛丣亟丁丏丧乿亟	-10.4209
业亙丣丁	-10.4215
丄丧亟両业亥丙丗亓万	-10.4217
丄丧亟両世乿亣	-10.4221
丛亓且丫亀亝	-10.4221
亁亟	-10.4222
▁个乿五	-10.4225
▁University	-10.4225
丗二丣乌	-10.4229
个丣亀中丢	-10.423
▁丕丣	-10.4239
亘丛	-10.4241
▁严亀亟万	-10.4241
丁丣亟丟	-10.4242
丞亙严亢万	-10.4245
land	-10.4246
个亙丣亣	-10.4247
丈亞両乿亜両亣	-10.425
丞些丘亢乌	-10.4255
▁丛亓且丕亖	-10.4257
丣亞严交丁	-10.4258
丂亀亍丈亝丧乿亟	-10.4263
丗乿亚万	-10.4265
▁上亄万丫亝両乿	-10.4265
严亣严亟	-10.4269
丕亙丣亣丢両丄丧亟両丞丣亀中両	-10.427
丕些丁亄丧	-10.428
中亟不亟	-10.429
両亟丣乌丄	-10.4292
▁丂专亞且亄丧丁亥丙	-10.4295
丄亙严	-10.4297
且亀亜丣亥业业亟且丈云业	-10.4304
▁串丙	-10.4304
val	-10.4309
▁Cl	-10.431
云丕	-10.4311
丧亜丗乌丗亙丙丙乿亢万	-10.4314
且亀丧丢丧乿亟	-10.4316
丗亚业丈亞	-10.4318
且乿些万且亥万	-10.4319
IG	-10.432
丁中万丫丙亀亟	-10.4327
乿亙万	-10.433
两且亨丣亀中丙	-10.4337
2000	-10.4337
丈亥业丁产両	-10.4338
丕亀亢万	-10.4338
世亥且丛亜	-10.4343
上亞严中	-10.4345
严中业	-10.435
丙亝业丣亢丧亙专	-10.435
丛云丙中丢乿亟万丢乿亢万	-10.4352
丄亚両丛亙不	-10.4354
丄丧亟両个亨万	-10.4355
丧亥丙丞两丫亥个业且亣	-10.4359
丛亀中万丁亥丙丁亟丣	-10.4361
丂亀亍丣亥业丁亟丣	-10.4361
▁丁亦个亟両亟丣世	-10.4363
EA	-10.4364
亙丙丗乌	-10.4365
个亟丣中亟丫亟丣	-10.4365
丂亀亙両丂互万	-10.4371
丣云丧乆	-10.4372
丁亟丣下亀五	-10.4373
严亢丂个亢丗丘亢乌	-10.4374
XXX	-10.4374
业亨丘	-10.4375
▁Ha	-10.4375
丧亥丙个亍丣乌丗乿亣	-10.4376
丄丧亟両丣产丙丣亚万	-10.4379
丁亟丬个亢丙丘产乌	-10.4379
両乿亜丫亜丧	-10.4381
丙亚丧丣产丁	-10.4382
丫亙严丧	-10.4385
丙亢且丫丙乿中丢	-10.4386
丛亚丣万	-10.4386
丨亟个丙	-10.4387
丄丕亢	-10.4389
丟亥万丁乌上乿亥丙	-10.4389
▁个亚丙	-10.4391
丣亥	-10.4397
丙亝丕亗丫亚丙乿万	-10.44
両丫亟丨亟严	-10.44
丣亥业丣亀亨	-10.4401
个亥丕	-10.4403
上両丞亨	-10.4405
丣了万	-10.4408
丄亙丣乿五万上亀亝	-10.4413
丁亟丣丞亢両丞乌	-10.4416
両乿亜世亨丁	-10.4428
丂亀中丗云丈丈丣亢万	-10.4429
▁両亚丙丯	-10.4431
ave	-10.4431
个万丁丣亟丙丕乌	-10.4434
ator	-10.4434
个严亥且	-10.4435
bit	-10.4438
个亄丈亝	-10.4439
丕丣亥万	-10.4441
丄亀产丙丄于	-10.4441
丛云丙丁亥丙中亙万	-10.4442
且亣且乿亙丙	-10.4443
ks	-10.4444
丗亗丙中万	-10.4444
丄亚丙	-10.4448
ord	-10.445
丄亗丞亨且	-10.4451
丕严丁	-10.4454
丛乿些万	-10.4455
丕亀中万丣中	-10.4455
丣亚万且亥丙	-10.4462
両丙丕乌	-10.4474
丄万丕亀中万	-10.4475
上亙严下亣	-10.4475
丧亢丈亟丣专乌	-10.448
丙亢丕丢个亟丣	-10.448
丄丧亟両个亞且丧丁	-10.4481
両亣丣亞业业	-10.4482
且亟丧丙乌	-10.4486
丄严乿中万	-10.4488
丄亀丙	-10.449
丄亟且丁亟丣专乌	-10.4491
丄产丢丁亥丙	-10.4492
丕亁	-10.4492
ren	-10.4494
业亟个	-10.4497
世丙亥且	-10.4497
lf	-10.4498
ank	-10.4502
丣亀亨丈亥丁丁亥丙	-10.4507
▁丁亟	-10.4508
业亨严	-10.4511
丛严中且	-10.4514
ata	-10.4517
丛亂	-10.4519
丧乿亚丙	-10.4519
ail	-10.4519
万亓丙丗产丙	-10.4519
▁Galaxy	-10.452
世亨丁丁丧乿亟	-10.4521
丙亝丁亟丣个丣亀亟万	-10.4524
上了丁	-10.4528
东严丕中业丗亚丙	-10.4528
get	-10.453
org	-10.4531
丙亝个亥万丄両	-10.4535
▁丄乿亨	-10.4535
中产业严丣亟上丘亟丙亣	-10.4535
丕亀丙业亚业	-10.4537
且些丣	-10.454
web	-10.4543
丂亟丢业亀亟丙	-10.4546
个亀亙丙东両	-10.4546
丄亙丣乿五万上亀亝丟亜丟亀亟	-10.4548
世亚严万丂乿亟丧	-10.4549
丙亥丁丧亢上亟丁亟丣	-10.455
业二丣乌両万丄严	-10.4552
丄亢且丫云丙	-10.4556
丙亝万乿亚	-10.4561
丗乿亣上乿亡丙上中业	-10.4561
丫严亟丢丛亣	-10.4561
丣专乌	-10.4562
三业亥业丗乿亣	-10.4562
东亀亨上両	-10.4563
丞不亟	-10.4564
上亀亝上亣丧亢丕	-10.4564
丁亗丫丙且丫亀亝	-10.4566
个亚万且亚且	-10.4569
严亥丁丩专亞丂中万	-10.457
丗乿亣丣亍丈亞	-10.4576
丟亚丙丄严亥业	-10.4578
lot	-10.4585
且万	-10.4589
丈亀亍丞丣亞丢亟	-10.4594
丧乿亟丗亗両亜	-10.4599
中中丟丟亢丨	-10.4606
ous	-10.4607
中亚丛	-10.461
亟丣亟両	-10.4611
乿亟丢	-10.4611
丧亢丗	-10.4613
▁Bar	-10.4613
lip	-10.4618
丧亥丕丣	-10.462
东亀亨个乿五丂乿亟丧	-10.4622
丗乿亣丗亥丙个両亥丢	-10.4622
丞乿亓両丛丣亞个亢丗丘亢丠亟丞	-10.4623
丙亝严了且	-10.4623
ics	-10.4624
丞亟丢产	-10.4625
中丢产丘丢亟	-10.4627
ama	-10.4628
丁亥丁	-10.463
丛亀些	-10.4631
业产丣产丩	-10.4632
且亀亜丗乿亣丙乿亣	-10.4633
両丙	-10.4644
丂中丂中业丄产专	-10.4645
丂亀中丁亗丫丙且	-10.4646
丗亟万丨亙丣丩丐丁亢丈	-10.4646
▁Gold	-10.4649
上亣丧丠亟丞	-10.4653
丮亜严亜丗乌	-10.4653
丫些且	-10.4654
业亟丄亟丣乿亟	-10.4656
丣乿亓両丈亟丁	-10.4664
丙乿亣丄五	-10.4666
严亥丙	-10.467
両亥万	-10.4671
且亀亜万亓丙	-10.4674
下云丙丕二丣乌	-10.4678
丢了丙	-10.4681
丗乿亣丫严亟丁丫严亟丢	-10.4681
ld	-10.4689
丗乿亣丈亞丗亗	-10.4693
丝亨万	-10.4694
且亨丫亙両五丙丧乿亟	-10.4695
ift	-10.4695
且亟丧丣乿产万	-10.4699
丈亞丞亟	-10.47
丞亙上丣业产丣亣	-10.47
丄丣亟丧丙亀亣	-10.4704
▁Palace	-10.4704
且亀亜个亗丣云丈	-10.4706
両乿产万丙亀亙丙	-10.4709
丞亜丣	-10.4709
丗亟万丘产丣丁亢丈	-10.4716
且了且丣亀中丙	-10.4716
丂中万上亀亝	-10.472
严乿产両个亟丣亞丁亟亠亄丙丣亀亨	-10.472
中亚个	-10.4727
丗乿亣丁亓且丈亟丁	-10.4734
▁1.5	-10.4736
丣亢丁	-10.4736
三于	-10.4737
丢亨丙亢	-10.4737
万且	-10.4739
2560	-10.4741
両乿亟丙	-10.4741
▁Man	-10.4741
亀中丙	-10.4743
両丫亟个亟丣丄亟両	-10.4751
且亀亜丕严中且	-10.4755
严乿亙	-10.4756
両亣丣亟丢且亀亜	-10.4757
个亙丣亦丈严亀亚丧	-10.4759
丝交丁中业丣両	-10.4759
严亢丧二丣乌丞亨严	-10.4759
丞丣亞丘亟丕产	-10.4761
丁亟丣世乿亟丢丠亟丞	-10.4766
上両丣両	-10.4766
东乿亚	-10.4767
丗亥丨丙	-10.4769
丁亚万	-10.4769
▁丗中万	-10.4771
丛丗产両丘亟丙亣	-10.4777
丂亀中个中业	-10.4777
ost	-10.4789
▁丗乿亣丙乿亣	-10.4794
丁亟丣丧亟万东亚丙	-10.4807
且亥上丙亣	-10.4808
丛丣亀亢丙	-10.4819
丁亟丣丂丙个乿万	-10.4823
丫云丙且亀亜上亥且	-10.4823
▁丈亞丕亀中万	-10.4824
let	-10.4825
▁90%	-10.4832
下亢丕亀亣	-10.4837
丧亀亜丧亟万丈亝	-10.4839
phone	-10.4845
丗乿亄丧业亢丙	-10.4845
両丫亥丨丈亠丢乌	-10.485
中亟丣乌下亙丙中严	-10.485
丢亗	-10.4853
丛丣亞丢产丁丕乌上亀亝	-10.4854
丄丧亟両个亞且丧丁个业亟丢	-10.4855
丨亨丙丢乌丁亟丣丄亀亟	-10.4862
丛丣亞丁中业丛亜且亀丧丢	-10.4863
丙乿亣丫亚严亞	-10.4864
丣亟丢且了丙	-10.4864
丛丣亞丈亗且了丙	-10.4865
丈亞丁亓且丂亀交丙	-10.487
丗乿亣个亟両	-10.4874
上乿丧丢丞乿亓両	-10.4878
丞丣亣	-10.4879
丂亀亥丙丕乿亗	-10.4884
严乿些	-10.4884
丂乿亟丢	-10.4884
丗乿中万	-10.4887
両亟个乿亨	-10.4887
丧亓丣乌	-10.4891
丧亓严且乌	-10.4892
世交万丧亙严亟	-10.4897
▁丞亙丣亟亞丣亍	-10.4899
lor	-10.4904
中且丗丙	-10.4905
丙亝丂专亞丙亀亣	-10.4909
PP	-10.4909
丗亗丁亢丈丁亠両	-10.4911
両丣且丁	-10.4914
个亥丕丧乌严亀亄万	-10.4921
丙亝丗亜丢	-10.4923
ica	-10.4924
lex	-10.4931
业丗丣亄丙	-10.4931
SM	-10.4932
下亜丕乌	-10.4932
丣亞业亄万	-10.4934
丗亣且云且	-10.4935
eo	-10.4937
▁东中	-10.4938
丫严产丢个乌	-10.4939
严二丣乌	-10.4941
両亥个	-10.4941
丕乿中丛亣	-10.4945
个中万丄丙	-10.4945
serv	-10.4946
LO	-10.4946
丛亟丁丁亟	-10.4948
IR	-10.4952
丘亟丣	-10.4953
个亥万丄亙丣亟亞丫乌	-10.4956
TI	-10.4956
丟中丣乌	-10.4958
ull	-10.4958
mic	-10.496
且亀丧丢丣亞业业	-10.4961
且亥万丕乿中丛亜丙亀亣	-10.4963
丢丙丕乌	-10.4965
丂両些丢	-10.4966
丗乿亚丙	-10.4966
东両丧乿亟	-10.497
丧亟丣个亟丣	-10.4971
CA	-10.4972
▁--	-10.4973
丄乿亨丣亥丁	-10.4973
丄丧亟両且亣	-10.4975
严亀亢両	-10.4976
上严	-10.4977
中亚业世乿亟丢	-10.4981
▁Ne	-10.4983
亁亣	-10.4983
亥丕亢	-10.4983
丄丙丫亝両乿	-10.4984
丨亨丙丢乌丁严亟万	-10.4987
丗亢丧丗亥丨丙乌	-10.4987
严亞両亓且	-10.4987
万万	-10.4989
丛亜丣乿了丢乆	-10.4989
丁亀亟丙	-10.4993
box	-10.4998
丁亟丣中业丣両	-10.5001
丙亝严亣丁	-10.5004
▁2018,	-10.5004
両亀丧丙	-10.501
上乿丧丢丙亝丁亟丣	-10.5014
丣世丕亀亨	-10.502
中亀些	-10.5022
丈亟丁丛丣亞丗亙丨	-10.5024
丕亚丁丕乿亟万丈亟丁	-10.5026
丢产万	-10.5027
业亚业丙亀亥丙	-10.5027
▁両亢严亟丙	-10.5028
▁丈亞丛云丙	-10.5032
丗亗丄丧亟両丂亀亍丈亝	-10.5035
TC	-10.5036
丂中万丣亥丐业亟严	-10.5038
东亀亨中乿亟丙	-10.5043
中亙丙	-10.505
丄亝丣乿	-10.505
严予中产丛丁丣专乌	-10.505
両亣丈亗丙丧丙	-10.5054
丁亟丣上乿了両丕乿中	-10.5055
▁Archives	-10.5056
个亗丫丣亥业丄丙丗乿亣	-10.5059
丫亟下亀五	-10.5059
丁亟丣丕亀亥万丄乿亟	-10.506
両乿产万両乿亥丙	-10.506
丛亜丫両且	-10.5061
严且丁丣亞丫丙乿亗	-10.5063
cor	-10.5066
丙亥丙丗乌	-10.5077
丠亙个亥上	-10.5077
丟亚丣丙上亜个乌	-10.5083
丙亝丄丣中业丄丣亖	-10.5084
丞亢丩专产严些丁	-10.5084
丣亥丐両丙丕丣亣	-10.5086
亣丢丙	-10.5087
中产且丣丘亟丙亣	-10.5088
▁Auto	-10.509
且亣万亟両	-10.5093
个亓丣乌丟	-10.5104
丞亢丁亟丣	-10.5109
丢亣	-10.5109
丈二丁亥丙	-10.511
且亀亜丣亥业东严丁丣亞丗业	-10.5111
丫严业	-10.5117
中些丄亙	-10.5119
丛严亣丁	-10.512
且亟业	-10.5126
丫乿亚万丄丧亟両	-10.5129
丕乿亍	-10.513
丄些丙	-10.513
丫亟且亀亜	-10.5131
万亄业个万业	-10.5132
丫严乿亥万	-10.5132
丁亟丣丛丏亢业亥丕亢万亟丙	-10.5133
▁2553	-10.5134
丣亀中万丞亙严万	-10.5135
且亍	-10.5135
下亥両両二丣乌	-10.5136
丞亟丣亟	-10.5137
严予业丣亢丁亟丣	-10.5147
丞乿亓両両亟丁丂亀交丙	-10.5148
严亨丁丈亀亟万	-10.5148
ware	-10.5149
ult	-10.5149
-30	-10.5149
上产业	-10.5158
丧亢不不亟专	-10.5162
且亀亜丣亥业中丙产不亟丕	-10.5165
中亟丁亟丣业亟且丈云业	-10.5165
両乿亜丞严亟且	-10.5166
丄丧亥丙	-10.5169
丈亝丁严亟万両了万	-10.5169
丛云丙丘亠両上亟丕亢	-10.5169
PE	-10.5171
且亨严亀亚丧	-10.5172
丧亟丗	-10.5178
丕交万	-10.5194
东亀亨且亨严亚	-10.5195
post	-10.5197
严乿亥丙	-10.5197
丄丣乿交万丣亚丁	-10.5198
下亟丣乌	-10.5198
丁亓且丈亟丁丁亟丣	-10.5201
东丈不丠亥丢	-10.5201
中亀亟	-10.5202
丢亥丁丩乌丫亝不乿	-10.5202
era	-10.5205
丣亨严云丕	-10.5207
丁丕亢丁亟	-10.5208
丛云丙両了万	-10.5208
両亣丫丙中丙	-10.5217
三丙丧丙	-10.5218
▁丫乿亚万且亨	-10.5224
word	-10.5228
丁亟丣下亀五丂亟丢	-10.523
丫丢且	-10.5235
丄丧亟両丫亙両亟亞个両	-10.5235
上产	-10.5235
丣亀中万丫亀亜	-10.5239
AP	-10.5242
丙乿亟丁严亖	-10.5246
丁云业丂亀中両亨严	-10.5253
丮亍个乌	-10.5256
両亟丁世交万	-10.5263
中亚両	-10.5264
上产両丙产両	-10.5267
下乿亢万	-10.5267
丗乿亣丛丣亞上产両	-10.5268
下云丙个亥不不亟	-10.5269
両乿亜且亀亜丣亥业	-10.5271
Call	-10.5272
丫亀产丙个乿丧丙	-10.5274
▁Ki	-10.5275
丕乿中丛亜丙亀亣	-10.5275
个产丞亠专业产丣亣	-10.5278
▁Gra	-10.5283
上亟丣乌	-10.5286
▁上中业	-10.5288
丛些丣乿万	-10.5289
丙亀亗东亀交万	-10.529
,6	-10.5291
亀二	-10.5294
丗亟万丁亟丣丞亚丗丢乌	-10.5294
丁亟丣丛严亨丁	-10.5295
丄亙丣五	-10.5295
且亀丧丢丧亢丘亣	-10.5298
900	-10.5302
▁丙亥丁丣亄丙	-10.5304
丢亟丙丢丙丕乌	-10.5306
丗亄业丗乿亍	-10.5306
▁両亥丙丁亦	-10.5312
丢乿亚万	-10.5312
下亀五个亢丙丄亀亟	-10.5313
▁Book	-10.5315
下亄丙	-10.5316
丛丣亞丘亟丙亟丘亢业且亣	-10.5321
丘亠両亞	-10.5323
tory	-10.5325
丁亟丣业亢丙	-10.5326
▁Bangkok	-10.5327
丄产丢丁亥业	-10.5328
个亥両东亥个丁亥业	-10.5332
丞业丁亥丙	-10.5333
丣亟丢丙亀亣	-10.5334
for	-10.5341
SU	-10.5347
丄丙丣亀亟丢	-10.5347
业亙个	-10.5348
両些万	-10.5352
丛丣亞丞两丕亢	-10.5353
且亨丫丙亥万丛亁些	-10.5357
丨丣亣个亞丁亙丩	-10.536
é	-10.536
ild	-10.5364
丁亚丣丙且乌	-10.5365
丛云丙丗乿亣丣亄业丣亀中丢	-10.537
丗亗中亟丫亟丣	-10.5371
业互丄	-10.5371
dge	-10.5373
II	-10.5373
丁亟亠亞	-10.5374
丁亘亟丈	-10.5374
丙亝丧万丁亟丣	-10.5375
业中丙	-10.5375
丁丣亞业中丁	-10.5378
丗乿亣丞乿亓万	-10.5379
IF	-10.538
free	-10.538
丗产丁丛丣亞丠亙丗	-10.5382
丈亢丙丕丙亟丁亟丣	-10.5382
丠亢丁丩产	-10.5384
业亟丣乌下亙严些丙乿亟	-10.5388
世乿亟丢丗中且个且	-10.5392
丫严亟丁	-10.5393
丂中业丂亙丕	-10.54
丄丧亟両个丙产丁	-10.5401
両乿亜丧乿亟丈亞	-10.5404
ino	-10.5406
other	-10.5407
Ch	-10.5408
乿了	-10.5409
丫丙产丙	-10.5412
丄中严严亟丈亙丙	-10.5415
▁Per	-10.5416
ы	-10.5426
Class	-10.5427
丝乿亟	-10.5428
▁Mac	-10.5429
丕亟両丛丁丕亢	-10.5433
业丙世丙丙	-10.5435
両亣业丗业亟丗	-10.544
丙乿交万	-10.5442
中亢个严亟両	-10.5443
东亀亨丣亥丁丩亟丛丣亞丕亨	-10.5443
丄丧亟両中乿中丙中亚	-10.5447
丧亀亜丫亀亝	-10.5449
世些	-10.545
丫亙严亀亟	-10.5453
中丢乿亟万世亨丁丕亀中万	-10.5455
丫亟丁丄产专	-10.5456
丕乿中丧亥丙	-10.5457
丫亀中万丄丣亖	-10.5457
丄丧亟両丄亢且丫云丙丂中万	-10.5459
丕亢丧	-10.5462
両乿亜丞中丈亝	-10.5464
chan	-10.5467
丢丁丢乿中万	-10.5471
丘亟丙亣	-10.5473
▁万亟丙丙亀亣	-10.5474
▁中亞丣亜丄五	-10.5475
af	-10.5482
丁亜丣	-10.5486
个丠	-10.5489
丄产专中亟丈	-10.5492
丈互丄	-10.5495
NE	-10.5496
IA	-10.5503
丛亜丣丩专亣丢乌	-10.5504
云丁下乌	-10.5511
丛丣亞丁亥丙丠亥丢丣世丢丙丕乌	-10.5515
両亟丢了丙	-10.5519
丙亥业世五	-10.5521
严严二丣乌	-10.5526
丄丣产	-10.5531
丁两丩	-10.5538
个亣丗亍	-10.5541
off	-10.5542
丛云丙丗乿亣丣亀亨丈亥丁	-10.5544
专亥丐	-10.5544
両亜丄些丣	-10.5553
両且严亨丁	-10.5559
个亨万両亟丁	-10.5569
丣些丄両亞丣云万	-10.5569
丁亟丣丈亥且丗亗	-10.5573
丫严亥万丈亟丁丙亀亥丙	-10.5576
▁Str	-10.5577
丙亥丙丗	-10.5578
丣亀了丣亥万	-10.5583
丈亥业両五	-10.5585
丫丣	-10.5586
丣些丄东亢丧丫丙亥万	-10.5587
両中个丁些	-10.5594
oot	-10.5597
下云丕	-10.5603
▁4.0	-10.5605
丙亝丁亟丣丂乿亚万丂亥丙	-10.5607
丈交万丈亞	-10.5607
丈亀亣	-10.5608
▁个丁亢丙	-10.5611
両乿了丄亡丙	-10.5615
中严严乌	-10.5617
丛严亁亥丁	-10.5617
両乿丧万	-10.5617
严乿亞丄丣亥业	-10.562
丫亙丣中	-10.562
丗亗丛丣亞丕亨	-10.5621
丟亙丣	-10.5621
丢二丣両丙亣	-10.5622
▁丂中上亓不	-10.5625
业乿亟	-10.5628
丄亙丣乿五万丛丣亥业中亟丁亟丨	-10.5628
▁丫丙亥万个五	-10.5629
▁VS	-10.5629
个亄万且亥万	-10.5629
両丫亟丣亟上	-10.5631
中亀中両	-10.5633
中亚严丁中丮中严乌	-10.5634
丛丣亞両万	-10.5634
inter	-10.5636
丧亥严	-10.5636
业些个世乌	-10.5637
▁中乿亟丙丕乿中	-10.5638
个亙世亣丢丣	-10.5639
丫万个乌且亚万	-10.5639
tan	-10.5642
中丢乿亟万中乿亡丙	-10.5643
~	-10.5645
OK	-10.5646
丁亥业丞乿了丙	-10.5646
中亣丁丗亣	-10.5652
丞乿丧万	-10.566
个丠亟丞中亟丁亟丨	-10.5661
▁丁亗丫丙且	-10.5663
丛丏亢业亥丕亢丫丙亀亟丗乿亣	-10.5666
丈产丬亟	-10.5667
丛些丣丕产丁亙个	-10.5673
▁丄严亢丛丫严产且	-10.5678
个亚丧万丫亟	-10.5679
丛丣亞个亙丣亢丐	-10.5679
丕云万	-10.5684
上云丄丣亟丄亟	-10.5686
丙亙个	-10.569
ward	-10.569
丁亟亠亄丁	-10.5691
丫乿产丙丢丙丕乌	-10.5691
丁亓丙丁丧乿亟	-10.5695
lin	-10.5695
丮中丙且亀亟	-10.5696
丘丙亟	-10.5699
丧亟丣亞	-10.5699
丞严亥个	-10.57
丛亟丣乌丕亀亣	-10.5702
丣世丈亥丁丣丢亟丙丢丙丕乌	-10.5702
HD	-10.5706
両亣东严丕乿中	-10.5711
丞亄业	-10.5712
丕丁丛云丙	-10.5716
▁Out	-10.5724
丁亟丣个亗丣丧丈	-10.5726
丣亞両亥且丣亞丧亥万	-10.573
严亜丄乌	-10.5733
less	-10.5736
下产丛	-10.5739
丣亙下	-10.574
丂亀亥丙丕中丙丁亟丣	-10.575
▁El	-10.5752
丠亨両亢丈亝	-10.5753
丗亟万丞亙丨	-10.5754
丁亟丣丁乿中个丣亀亟万	-10.5757
东亀亨且亝	-10.5757
丕亟両严亗且亥业	-10.5758
丗乿亣丫亝不乿丗乿亣个产且	-10.5758
丫両中丁	-10.5762
丁产両	-10.5763
丁亟丣丕亢且丕亟両	-10.5764
业亗丞云不	-10.5765
严乿亙丙业亟丄亟丣乿亟	-10.5765
丄亙丣乿五万个亄万	-10.5766
丙乿亥丙丁亦丄五	-10.5769
丣亥业业丗	-10.577
丙亢个亢丕	-10.5771
丞亥丒丙乌	-10.5778
下二丣乌丧亢个	-10.5778
丕亗丫丙亢	-10.5782
PR	-10.5786
丫亜両亀	-10.5788
丄亢万	-10.5792
▁2562	-10.5797
丕亟両丫亟	-10.5799
丁亙丕	-10.5801
丣中业乆	-10.5804
丂中且	-10.5805
丈且丈亗	-10.5809
丗亥丨丙乌	-10.5818
丧亄万	-10.582
业乿亟丢	-10.5822
丗亗丫亀亝丄产专	-10.5822
wi	-10.5822
丁亢丕丕亢	-10.5823
▁iOS	-10.5824
TER	-10.5825
▁Pi	-10.5827
丈亞丁严亥业両亟	-10.5828
▁Art	-10.5828
中亙丟中亙	-10.583
両乿亜丙亀中丢丁丧乿亟	-10.583
东亀亨丁亗丁亥业	-10.5833
par	-10.5837
丄丧亟両上乿了両乿亥丙	-10.584
丗产丙丁亟丣丨交丁丩亟	-10.5843
rs	-10.5849
丄丧亟両丂亥且丢亀亚万	-10.585
tain	-10.585
丞乿亟丢	-10.585
丫亀亝个亥両丠亟丩专乌	-10.5851
严些丁亀些	-10.5865
丁丧亟且	-10.5872
丄产专丄丧丣	-10.5873
丛云丙中亥丙且亥业	-10.5876
业亀了万丫严亥万	-10.5876
且亀亙万	-10.5877
ich	-10.5881
丄丣业丣中业	-10.5882
专亞	-10.5886
且亢中些	-10.5888
丞丧万	-10.5889
丞亟丁亥丙	-10.5891
丣亍丢亥万	-10.5892
丁亟丣丁亀亚丂亜	-10.5895
hen	-10.5896
light	-10.5897
丗乿亖丗亜丢	-10.5898
丣亀亥万	-10.5903
业亟万丁中丁	-10.5904
丁亙丩丕丣严予个丫丁丣专乌	-10.5909
丄丧业丄乿亨	-10.5915
丄亝丣乆	-10.5915
▁丫丙亀亟丣亚丁	-10.5916
丣亟丩与丣乌	-10.5923
丞亙严丢乌	-10.5926
Co	-10.593
丙亢严	-10.5931
丄亣丢乌	-10.5932
丂丈亥且	-10.5936
丛丣亢両亟专丙亀亗	-10.5936
严于丁亦丧乿亟且亀亜	-10.5939
丫亀亟万个亠丞个亢丙丄亀亟	-10.5944
丛丣亞丢些丄	-10.5944
且亀亜丢亟丁	-10.5955
丢亨丧亙丙丕产个	-10.5956
丈产丁	-10.5961
三亣丁	-10.5961
个亟両亟丣世个丣亀亟万	-10.5963
丗亀亢万丧亀亜	-10.5964
个亍丣乌	-10.5966
业交万	-10.5971
丙亝个丙亟両	-10.5971
丛云丙丕亖丗亚丙	-10.5972
业亀亟丙両了万	-10.5975
个亟丧丁	-10.5978
▁Post	-10.598
丞亀亡丙东亢丧	-10.598
両专亣	-10.5982
丄亙严亣丢丣乌	-10.5985
丞丣亞个万丆乌	-10.5991
且乿亚	-10.5992
両亟且亨丁亥丙	-10.5997
丮亟丣乌且	-10.6002
亥丞	-10.6006
丄产专丈亞且亀亜	-10.6011
东乿亟丙丧云业	-10.6013
丄亀中丙	-10.6014
丛亜且亀亜丗乿亣丈亞	-10.6017
丫亀亝丄产专且亀亜	-10.602
AA	-10.6027
个亟丘亟丣专丣亥丐	-10.6027
丙亝且了丙丙亀亣	-10.6031
亥不不	-10.6032
个両亠世丙亞	-10.6038
上乿亥万	-10.6038
丣乿亢万	-10.6039
両亢丕	-10.604
专丣万丄乌	-10.6041
个亀丙	-10.6045
丄乿亟业丣亢丁亟丣	-10.6046
丁亙严	-10.605
丈丣亢丢丘亠両	-10.605
东亀亨下亀五	-10.6051
丁亟丣丈亙丣亢不丕亓业丕些	-10.6054
东乿亡丙	-10.6056
両亚丗	-10.6059
乆乆乆	-10.6063
丄丧亟両上亀亡丙	-10.6064
丞产丗丘丨亟个丙亟	-10.6065
▁War	-10.6066
中产且両丨交丁丩亟	-10.6067
▁丛亢且	-10.6067
丫中丞亥丁	-10.607
hat	-10.6072
180	-10.6076
上亀了丞亙严亢万	-10.6081
DI	-10.6082
丣亙个	-10.6087
丄严亀亟丢丁亥业	-10.6092
丫不亢万个亟丧	-10.6092
丛严亥且	-10.6093
à	-10.6097
丢亥万丕亀中万	-10.6098
丧亢世亣上亣丧亢丕	-10.6098
个亠丞	-10.6098
丄亢両	-10.6102
丙亝个乿亢万丗乿亣	-10.6102
▁Light	-10.6107
丞丧丁丂亍丈亞	-10.6109
个亟亠	-10.6112
丂中万丙亥丁丣亄丙	-10.6115
丣产両	-10.6118
三亥丙丈亞	-10.6121
丠亨両亢丄亀产両丁亥丙	-10.6121
丈乿亟丝亨万	-10.6121
▁Mobile	-10.6121
▁Tri	-10.6123
丙両丫亝不乿	-10.6124
und	-10.6127
丛丣亥上不亟	-10.6127
丨亟个丕丣亟丈亟丣丢乌	-10.6127
个亗丙亍	-10.6133
丙亟万中亙丁	-10.6133
三亥丕丣	-10.6138
両亢上乿亝	-10.6138
丫严亟丢乆丄丙	-10.6139
丙亀亗丕亟	-10.6151
丗亗丫亀亝丂亍	-10.6154
SL	-10.6158
业中个	-10.6159
丧亙个	-10.616
丫产	-10.6162
中万丄乌丁丣丛丁丄丣中万个乿丧丙	-10.6163
丕中万	-10.6164
ste	-10.6164
丗乿亣両亣丛丣亞个亢丗丘亢丠亟丞	-10.6166
丞乿了上乿丧丢	-10.6167
丙丧严	-10.6168
両乿亜丈亗丁亥且	-10.617
东亀亨个丙丈亝	-10.617
上产両	-10.6172
个乿丧丙丫亝不乿丈亞	-10.6175
东乿亍	-10.6178
丕亀亥万丄乿亟	-10.618
丈亟丁个亀亙丙严了且丂中且	-10.6184
丛云丙丗亣両	-10.6184
丂丙両丛亥万	-10.6187
业中丁严于丧乿亟	-10.6189
亘万	-10.619
丙亝丄亙丣五	-10.6191
丞亚严丕丟中丣乌両	-10.6193
両产个严亢両	-10.6193
両亣丄丧亟両丫両亟丢	-10.6194
/2561	-10.6195
丄丣乿交万丫严亥万	-10.6197
king	-10.6198
lock	-10.6198
Pro	-10.6198
丕亟両両亟丕丣亟	-10.6198
下亣丣亣丢乌	-10.6199
业亨丣专亟丁亟丣	-10.6199
atch	-10.6202
严亨丁両亚丧	-10.6203
东乿亟	-10.6203
▁丞亄万丕乿亚	-10.6207
,8	-10.6209
丞丙両	-10.6209
▁High	-10.621
du	-10.621
上亟丢且亚丙	-10.6211
个交	-10.6211
中亢両	-10.6214
丗亄业丁亥业	-10.6219
丛中丙且乌	-10.6222
丗亀亥万丛丧万	-10.6223
丧亢丨丧丁丣	-10.6229
上亟不	-10.623
个亚且万丧乿亟	-10.6232
丢些丙	-10.6233
丗亚万丫丧丢	-10.6245
丣亟丄亟両乿亜丞亚万	-10.6245
丛云丙丛丣亞丘亟丙	-10.6247
в	-10.6247
世亚严万	-10.6248
▁San	-10.6251
个丣亀亟万业亀亟丙	-10.6253
丕丁丈亝	-10.6253
両且	-10.6253
业二丣乌个丧丢	-10.6258
丞丣亞両丫亟	-10.6259
л	-10.6259
个乿五両丧严上丙	-10.626
丁丣专乌	-10.6261
中亢丐	-10.6261
丈亞丗亗丁亟丣	-10.627
Drive	-10.627
丂亀中个亄	-10.6271
严产丄	-10.6273
丞乿了丞亥丒丙亟	-10.6275
2561	-10.6285
丕亀亨丢云丙	-10.6293
丞亙丨个亥両丞亥丙丘乌	-10.6294
且产个亢丕	-10.6295
丁亀亙	-10.6304
丙亗丛亜个乿亨	-10.6306
丗亣严亞	-10.6306
三亞上亓万丗亙丣亟	-10.6307
丟亣丈二丣乌	-10.6308
丣亀亟丧	-10.6309
DE	-10.6309
.61	-10.631
丣亢上	-10.6312
3,000	-10.6312
丄亥且个亠	-10.6315
个両产丗丣	-10.6315
严乿些万	-10.6318
OM	-10.6319
个产且丞亢丨亙丩	-10.6323
上亀亡丙	-10.6323
丞亙严亢丙	-10.6325
业产丫丣乿亣	-10.6325
丄亨丛中万	-10.6325
个亟丣丞亢丩	-10.6327
▁02-	-10.6327
▁Hy	-10.6328
丣些丈丙乌	-10.6331
丠亨両亢丞亀亚	-10.6332
丁亟万	-10.6337
丛亚亠亨丛	-10.6338
両乿了丫亜丣乿	-10.6338
両亙丗亥严	-10.6338
丗亗中亍	-10.6339
gg	-10.6339
丞亚丣乿丫严亟丢	-10.6339
丞亟个	-10.6341
下云丁个乌	-10.6344
丄丙丣亚丁	-10.6344
严亜丟乌个丕亜严乌	-10.6345
丂丙丢亀亟丢	-10.6351
中亟丢产丁亟丣上亀亝万亟丙	-10.6352
丧亢丗丢亟丁丣	-10.6352
丫亀亝丄亗丙予丙亗	-10.6356
个両亥丢丫亝両乿	-10.6358
丈亞丫両且	-10.6358
50,000	-10.6358
业产丄严亢丁	-10.636
丞丣亞中亙丁	-10.6361
丄亝丣丈亞	-10.6363
丕亀中万丁亟丣丗乿亣丈亞	-10.6366
丈亟丁且亓両	-10.6368
东亀交万	-10.6368
丄乿亨丁亥业	-10.6371
rit	-10.6372
上亓不上丧丙	-10.6373
中亥丞且亙丕	-10.6374
个业些业云丕	-10.638
且亀亜両亣中些丁亟个	-10.6381
丙亀亢丧丗亀亍	-10.6382
丙乿亥丙丫亚严亞	-10.6384
亘业	-10.6384
丙丣亟丘亢丧亟个	-10.6386
丞乿了丫亟	-10.6387
丞丢亟丙	-10.6387
丄亚両	-10.6389
丁亟丣丈亥且个乿万	-10.6392
丁亥丙中亙万	-10.6393
业亥不上亟	-10.6398
下亙丕	-10.6399
丞亀亡丙且亢丙	-10.6399
ling	-10.6405
丣中丁	-10.6407
▁丣乿了万丢乿中	-10.6407
PI	-10.6409
丛亀亥両	-10.6411
両亙严	-10.6412
丙亝丣亟丢丁亟丣	-10.6417
丞丣亞丢亟	-10.6422
且亀亜万乿亟丢乆	-10.6425
丄亨专	-10.6429
両乿亚业亀亟丙	-10.6432
中亢丙丗丣亣丢乌	-10.6433
丙亝上亣丧亢丕丛丣亞丈亗丧亥丙	-10.6434
ah	-10.6435
丁亝严亀丁亥业	-10.6437
丈亞丛云丙丁亟丣	-10.6438
丙亟万业亚业	-10.644
严于乌	-10.6444
丛亟丙	-10.6449
丙乿亚丈亝	-10.645
丄丧亟両丗丣万丈亗	-10.6455
丫両亥且	-10.6455
丕亢且世丙丙	-10.6457
严亚丙	-10.6458
丫両产丙丧亄丙	-10.6461
丛云丙中亥丙	-10.6461
丄丧亟両严亥业	-10.647
888	-10.6471
▁Download	-10.6472
丄产专丫両中	-10.6473
丞亟丣乌	-10.6475
丕丣万丙亀亥丙	-10.6475
ura	-10.6475
丄亀亚丙	-10.6476
丄丙丗乿亣両亣	-10.6476
个产丣亢丢	-10.6477
严亙丂且云且	-10.648
丠亟丄中亙丁上丙	-10.6484
丁亦丣乿亓両	-10.6484
丁亟丣上亀亝丢亟	-10.6489
丛云丙上乿丧万	-10.6491
丛亓且中些丁亟个丫亀亝	-10.6493
丫丙丗亟万	-10.6496
丕亖丗亚丙丈亗丫丙乿亟丢	-10.6498
丧亢丗丢乌	-10.65
业丗丄丧亟両丙亀亣	-10.6512
且了且	-10.6513
丞亟丣乌丄	-10.6518
个亚且万中中丁	-10.6518
両亙丆	-10.652
丫严亥丁丗丣亥丞丢乌	-10.6527
个产丣亢丙丗丣乌	-10.6529
jo	-10.6534
▁Note	-10.6534
且于乌	-10.6535
丣亀亖	-10.6535
上乿中	-10.6535
且亀亜丣亄丙丣亀亨	-10.6536
yl	-10.6544
丣云丧丂亀交丙	-10.6548
丈亥且丕云両	-10.6551
丞丧万丫丣亣且	-10.6553
丁于乌	-10.6554
丁亦丢亥万両亣	-10.6556
丄丧亟両丄亙丣亣丢且	-10.6558
丮亜严些	-10.6559
丢乿产万	-10.6565
两且亨丫丙亟丧	-10.6566
丂产両	-10.6567
丢产丕亢	-10.6567
丙亗中亍	-10.6569
両乿亜中亟丈	-10.6574
丞乿了个产丂丠亟丞	-10.6578
丆亟丕	-10.6581
丕亀亟丙丗亟丙	-10.6581
両亣丞亄万	-10.6581
丁亦丄丧丣	-10.6584
丛丣亞丁亟丢	-10.6588
urn	-10.6589
严亢万丄乌	-10.6591
丫両亥丁	-10.6593
丄产专严亥丁丩专亞	-10.6594
▁LINE	-10.6596
且亨丫亙両五丙	-10.6599
严交万	-10.66
且亗丙亓丙丘产丣丁亢丈	-10.6601
且亙严	-10.6603
丨产丠	-10.6603
両中业丫亀亝	-10.6604
Mo	-10.6605
丫亝不乿乆	-10.6605
丗乿亣丈亞上亀亝	-10.6606
丨丕丧亠丩丗乿亣	-10.6613
▁PM	-10.6614
丁亟丣丝交丁	-10.6617
丧亥丕丕乌	-10.6617
丙亀亗丫丙亥丁业亍	-10.6618
丂中万丞丣亞中万丄乌	-10.6621
▁International	-10.6621
东亥丙	-10.6621
严乿中万	-10.6621
丫亟丢亟丁	-10.6622
▁Office	-10.6622
oom	-10.6624
上亢万上亚両丛乌	-10.6626
丗乿亣上亀亝丙亝丁亟丣	-10.6627
丫亖丣亊	-10.6627
严予个丣亀亟万	-10.6633
к	-10.6634
东亥万	-10.6637
个亙丙亟	-10.6639
业严亨	-10.664
丗亟丢	-10.6643
丫亙严五丁亓丙	-10.6646
丄严亁亢丁	-10.6646
GA	-10.6646
中丣亢	-10.6649
个亟両亥丄丄亣	-10.6652
PL	-10.6653
now	-10.6656
ler	-10.666
丁争	-10.6661
▁Day	-10.6664
丁亟丣上亀亝上亣丧亢丕	-10.6665
MB	-10.6667
丙丙丗乌	-10.6669
丛云丙丣亞业业	-10.667
丛云丙丘亠両	-10.667
▁下亙丙丕亢両亙丕丣	-10.6671
丄丧亀亟丕亖	-10.6674
下中个	-10.6675
▁中丢乿亟万丣亜丁亦且亣	-10.6678
且亀丧丢下亀亗	-10.6678
mark	-10.6682
har	-10.6683
上丙亢且丫丙乿交万	-10.6687
丣亢丙丗丣乌	-10.6688
义	-10.669
▁Love	-10.6693
严亨丁个产丙亥丂	-10.6697
両乿亜丞亄万	-10.6698
丁亟亠亥业丛丣亞丗亟丙	-10.6702
丫亀中万丣亄丙	-10.6702
▁Si	-10.6703
丧云业业中丣乌且	-10.6705
中亣両亙严乌	-10.6708
丈产且中亟丢产	-10.6708
丣亟丢严亞中亄且丞乿亓両丕亓両	-10.6708
丮亚丣乌	-10.6711
且亨严亚丣亥丁丩亟	-10.6721
严亜丗乌	-10.6724
个亣丗中万	-10.6728
业亙丣丄	-10.6728
个丕亣	-10.6729
丄丧亟両丣云丧个亨万	-10.6729
且亀丧丢上乿亙丙丁亥丙	-10.673
丈云业丛丧且	-10.6731
中丢乿亟万両亟丁両亟丢	-10.6731
中产丗亢丨	-10.6732
$	-10.6735
严亢丛	-10.6737
丁亟丣上亗丣亞万亓丙	-10.6738
丄丣亢个丕亥严	-10.674
上亀亥丙両亥丘丢両丨交丁丩亟丛亣	-10.6741
亜丙乌	-10.6743
丁亟丣丂亥业丂乿亣	-10.6748
▁Full	-10.6754
且些丢両乿亜両亣	-10.6758
丞亢丗亥丁丩乌	-10.676
丄中丣乌个	-10.6763
▁Park	-10.6765
东亢丧丄严亀亗	-10.6766
乿二	-10.6768
丣亥业丣中万丧乿亟	-10.6768
个両乿亗个亙両中	-10.677
ose	-10.6772
上亀亝丧亢丘亣	-10.6773
Life	-10.6774
gl	-10.6778
丣亞业业丛丏亢业亥丕亢丁亟丣	-10.6781
丧亥丕	-10.6781
▁东业	-10.6782
-17	-10.6783
丮亣丣乿些	-10.6785
arm	-10.6787
両亥丙丄五	-10.6788
丢些丁	-10.679
丗亟丙中亟丫亟丣	-10.679
丁亟丣丝交丁中业丣両	-10.6792
▁丈亗丙丧丙丫亀中万丞亥丁	-10.6793
严亀亚万	-10.6794
▁Design	-10.6798
业亞	-10.68
丄严中	-10.6803
丞亟丣乌丗	-10.6803
且云丁丫不亢万	-10.6808
个产丙丗丣	-10.6815
丣乿产万丣了万	-10.6821
丣亢中些	-10.6822
丕亞丧亥丙中中丁三亄万丫亙丙五	-10.6823
part	-10.6824
-18	-10.6829
亁亥丁	-10.6832
丞亙严亢且丞亙严亢丙	-10.6834
丙亟丢丁	-10.6835
▁years	-10.6836
150	-10.6839
丄丣亖丣了丙	-10.684
▁Nu	-10.6841
丂亥业丂乿亣	-10.6845
両丙产丩丢	-10.6846
丈些丗丁乌	-10.6849
102	-10.6849
丕亀丙三业亥业	-10.6853
丙亢丧亙丨	-10.6855
丈中丫乌丙	-10.6855
両亣丄丧亟両个亟両亟丣世	-10.6855
丂丢亥丙	-10.6857
▁严予丢亥万両亣	-10.686
丕亀中万両亣丁亟丣	-10.686
両乿亚丙	-10.686
丧亥丙中亟丗亢丕丢乌丗乿亣	-10.6861
东亢且丁与丫両亟丢	-10.6864
FA	-10.6866
业亟丛	-10.6866
丧亟万丈亗丫丙乿亟丢	-10.6869
丫严亟丢丫乿亚万	-10.6871
両乿亚丫亙严亦丁	-10.6873
丨亙丣丩丐亣	-10.6876
丁亗丫丙且丧亀亜	-10.688
丣亀亟丢丣亚万	-10.688
丫亀亝丄丧亟両个亗丄亥不丁亥业	-10.6883
丠亟丧丙亟	-10.6887
丕亂亖丄亙丣乿五万业亢丙	-10.6888
▁严亀亟丙丄丙	-10.6893
丣亞万亥业	-10.6894
业亗丣产万丣亥丁丩亟	-10.6897
中丠亥丢	-10.6897
丮亥丙	-10.6899
両亣个亢丗丘亢	-10.6899
丙乿亢両	-10.6901
下中丟	-10.6902
両乿亜丣亀亨丈亥丁	-10.6917
1688	-10.6919
丁丣亞丕乿亟丢	-10.6926
▁On	-10.6926
gra	-10.6931
中亟丣乌下亙丙乿中严	-10.6932
丄丙丂亥业	-10.6937
mit	-10.6938
丗互业严云丕	-10.6939
个亥业	-10.6941
▁50%	-10.6943
丟亢严亢丛丛亢丙个乌	-10.6945
个亞且产且	-10.6952
丘产丣亞	-10.6952
丞丣亞丞产丗丘丣亨丛	-10.6954
丁亦世五丧乿亟	-10.6963
中丙亙丁丛丣亞个万丄乌	-10.6965
业丣亢丁亟亠亥业	-10.6973
丙亥丁丧亢丈亥丢	-10.6979
両乿了丧亟丙	-10.698
▁丂亟丢丗乿亣且亢丙	-10.6983
丄亠丠乌	-10.6984
丈产且丣乿亓両丕亀丙	-10.6986
丫于	-10.6987
men	-10.6991
丁严亡丙	-10.6993
个亞丁云且万亓丙	-10.6993
丈亥业丄乿亨	-10.6995
丛丣亞丗亟丙	-10.6997
丞丣亀中両个乿万	-10.6997
両亣丣亨丛丠亟丞	-10.6999
且亀亜上乿亙丙丁亥丙	-10.7
><	-10.7005
丣亀亟丙丙亀亣	-10.7005
丣乿中丙	-10.7007
丙亝丁亟丣上亀亝万亟丙	-10.7007
999	-10.7011
▁丣亥丁丩亟个亀亙丙严了且丂中且	-10.7019
▁Ve	-10.7019
▁SME	-10.7021
丢亍丧乌	-10.7022
个亥丁丁亟丣亞	-10.7023
丈亚	-10.7025
个亣両乿丧万	-10.7027
▁中丢乿亟万上乿亙丙	-10.7028
丢亡両	-10.703
ttle	-10.703
严万丞亀亡丙丗乿亣	-10.7032
业亝両亀亜	-10.7035
丄丧亟両丞丢亟丢亟両	-10.7037
丫乿亚	-10.7042
且亥且丛亚严万	-10.7043
▁丢亟万丣世丕亥丁	-10.7049
丄丣亀亥万且亄丧	-10.705
丞亞	-10.705
丙亟丣亣	-10.7053
▁Service	-10.7069
fer	-10.707
丂亀中両五	-10.707
世亀丧丙	-10.7074
丛亡丙丫亝不乿	-10.7074
▁丫乿亚万丙亝	-10.7077
,7	-10.7084
丈亀亍世乿亢丙	-10.7093
严五	-10.7095
丧亟万丧亀亜	-10.71
丫両且严亀亚丧	-10.7102
丄亢且丄亀丙	-10.7104
丫亟丁丕亀中万丁亟丣	-10.7105
▁丙亗且些丢	-10.7105
丄产专丠亟丞上亣丧亢丕	-10.7111
亓両	-10.7114
丢亢丙丢中両	-10.7125
丧亟万且亓両丞亥丙	-10.7126
乍	-10.7128
home	-10.7129
且中严严亟丣乌个丫丣亥丐	-10.7133
丄亀产丙	-10.7133
›	-10.7134
丣于乌	-10.7136
丧亥丙丣亚丁	-10.7137
丢亥万丄万両亣	-10.7138
両亚丕上乌	-10.7141
丛丣亢丨丙亟	-10.7141
三亙	-10.7146
▁丞乿了丛云丙丁亟丣	-10.7147
且亨丣亟丢严亞中亄且	-10.7149
亥丕世	-10.715
cer	-10.715
东亢且丞严亟且	-10.7151
丛丗产両	-10.7153
丧亢丨亙丩	-10.7155
丛些丣両些丗	-10.7161
丨亨丙丢乌业丣亢丁亟丣	-10.7162
▁丞亙丣亟亞両亥丙	-10.7162
个亥丕丧乌丛乿亟	-10.7164
丗乿中丙	-10.7165
両中丕二丣乌下亜丄乌	-10.7167
中丢乿亨丙亝丣亞且亥业	-10.7168
丣亥丁丩亟丄丧亟両丛严中且丠亥丢	-10.7169
个严亘丕中中丙严亜丙乌	-10.7172
世亨	-10.7177
▁Jo	-10.7179
▁2-1	-10.718
丈亂亙万	-10.718
上乿丧万上亀亍	-10.7181
丁亟丣丂亀亍世交万	-10.7185
丙亢丞丙丘乌	-10.7187
上亥丢丠亨両亢	-10.7187
丞亙严万丙亀亣	-10.7193
丁亓且中亟丁亟丣	-10.7194
丫于乿五	-10.7194
丁亦丢亥万丄万	-10.7195
cle	-10.7195
与亣丁亟	-10.72
丣亟上亟	-10.7202
丣亥上且亟	-10.7205
0.0	-10.7207
ption	-10.7209
丣亟丄亟丞亚万	-10.721
eck	-10.722
丄产両丗亣両	-10.722
严中丙且中丙	-10.7221
丛云丙中亙丁严亥丁丩专乌	-10.7225
个亨不丫亟丢	-10.7231
丙亥且丣亚丁	-10.7232
东亀亨个両亥丄丣	-10.7236
上亟丧丕乿亟万上亟丕亢	-10.7239
丙亢丗亙丨	-10.724
个丁产严万亓丙	-10.7245
丗亗丙亄业	-10.7247
丗亀亟	-10.7247
个亙丞	-10.725
▁丗亀亥万丢亥万	-10.7253
丣亞丢亞丢亟丧	-10.7255
両乿亜丗丣亟业	-10.7256
丛丣亟业	-10.7258
个亗丫丣亥业丁亟亠亥丁丩亟	-10.7259
丙丄丣个丧亠丄乌	-10.7263
VA	-10.7266
▁10,000	-10.7267
丛乿了丢	-10.7267
="	-10.7272
个产且丄亀产両	-10.7274
丗亟万丧亢上亟丁亟丣	-10.7279
丂丙亟丙	-10.7279
中亚丞丞严亢丄亙上乿亥丙	-10.728
nov	-10.7282
丁严乿亢丙丫中両	-10.7283
丗亞业亄丙丣世	-10.7285
丧亥丙丙亀亥丙	-10.7292
丫严亥丁乆	-10.7293
丄丧亟両个万业	-10.7293
丄亙丣乿五万丞亢両丞乌	-10.7299
丫亀中万中亟丫亟丣	-10.73
丙亥个	-10.73
个亄万亓丙	-10.7302
丕中丙上亀亍	-10.7302
上亢丛	-10.7303
丙亚丧丂亀中个中业	-10.7303
丄亥両丠亣丣乌	-10.7307
丛丣亢不不亟丗些	-10.7308
丂业丧丙丁亟丣	-10.7313
▁Phlebology	-10.7314
丄丧亟両丫丧亥万	-10.7314
丛丣亟丁丏丁亟丣专乌	-10.7316
丞乿了両乿亜丫亀亝	-10.7318
DC	-10.7318
丞乿了严且	-10.732
▁丛丣亞丈亗丛亣万业丛丣亞両亟专	-10.733
东亨丁丞亥丙	-10.7333
亙严严乌	-10.7336
Engine	-10.7347
丛乿亄両	-10.7347
COM	-10.735
丞亀亡丙両了万	-10.7354
严亀亟万丫丙亀亟	-10.7356
▁丙亀了丞亙严万	-10.7357
----------------	-10.7357
丗亀亟丗亟丢	-10.736
东严亢丕丠亥专丑乌丄丧亟両万亟両	-10.7362
▁乑乐	-10.7364
丞丣亞丘亠両	-10.737
上亢严	-10.737
丕亟両丫严亥丁	-10.7372
丗亥丁丩亢专	-10.7374
▁UFABET	-10.7374
个亗丄亥不丙亝丁亟丣	-10.7374
丈亟丁东严亢丕丠亥专丑乌	-10.7376
丂亟丢个亢丙丄亀亟	-10.7377
丫亥且	-10.7377
亀于	-10.7377
Sh	-10.7386
back	-10.7388
丈亥丙丗业产丣亣	-10.7388
丞丣亞丄亙丣乿五万	-10.7389
丫亙丙五丁丧乿亟	-10.7389
中亟专亟丈亥丁丣	-10.7394
丗亙丄丙亢丄丁亟丣	-10.7397
丛云丙丧亙严亟丙亟丙	-10.7397
丙亥丁丘产丣丁亢丈	-10.7397
丛丣亞丘亟丙丁亠両丁亟丣	-10.7398
丛亀中両	-10.7401
丙亝丙亟両	-10.7405
丛亙严五万	-10.7408
丁丣両丁亟丣丂丙个乿万丗亟万业丁	-10.7408
Asia	-10.741
中亙个下亣丈亣	-10.7415
/3	-10.7416
亢中些	-10.7419
丞二丣乌	-10.7422
中乿亟丙丫丙亥万个五	-10.7426
且了丙両丁丣亟丄両	-10.7428
亝	-10.7429
丈丙丁亓丙丛亜	-10.7431
丕亟両丄丧亟両丕亀中万丁亟丣	-10.7433
丄丧亟両丞交万丞中丈亝	-10.7435
ham	-10.7436
业亟丕丣	-10.7438
ley	-10.7441
cal	-10.7441
丛亞丗亞	-10.7444
个亀亥丙乆	-10.7444
丢亀亟丢业亀亟丙	-10.7447
下亚丙	-10.7449
丞丣乿产万丙亀亣	-10.7449
▁Ni	-10.7451
rack	-10.7452
丛丣亞丠亙丗丙亀亣	-10.7453
hon	-10.7454
个乿万东严丕乿中	-10.7455
丙亝两且亨丁亟严丙亀亣	-10.7457
ray	-10.7459
▁Par	-10.7462
丫亜丙丁亦	-10.7463
job	-10.7465
且亀中丢	-10.7467
丫云丙东严	-10.7469
且亗丙亓丙万亟丙	-10.7472
丫丢亟业	-10.7484
lt	-10.7484
++	-10.7485
丠亨両亢丞严中且产严丢且亙上	-10.7489
丛亚严丁丈亝	-10.7489
下亣丣亣个乌	-10.7496
丈产且丗些丩	-10.7498
上亞丕亟	-10.7502
丄丙丂亀亜	-10.7506
亢丁亟	-10.7509
▁Card	-10.751
ze	-10.7511
中丢乿亟万丣亜丁亦丕亟両	-10.7514
love	-10.7515
上乿丧万丧亙严亟丗乿亣	-10.7517
中丢乿亟万丢乿亥万丢亡丙	-10.752
UT	-10.7521
cho	-10.7522
东亀亨丂亄丙	-10.7525
put	-10.7528
丁亀亟丧丫丙亀亟	-10.753
丢亢万丛丣亞丕亨	-10.7531
丈云且	-10.7535
业亢丧	-10.7535
个丁严丙丄丣	-10.7537
丄丙丞亢丁亟丣	-10.7539
両亣丁亟丣丛亙严乿亣丢丙丛亚严万	-10.7542
丞亚丣	-10.7544
业中丢	-10.755
丄亀丙丄丧亀亟	-10.7552
些丄东亢丧丫丙亥万丠亨両亢丞亀亚	-10.7557
个丧亥个且亢乌	-10.7566
両亢且	-10.7566
丄亗个中丙	-10.7573
,900	-10.7578
丫亀亝丄丧亟両个亗丄亥不	-10.758
个丁亣	-10.758
严予丣些丄个亞丁云且万亓丙	-10.7581
AY	-10.7583
DO	-10.7584
严乿产両	-10.7585
丄些両	-10.7586
下亣丙	-10.7586
个些両	-10.7595
且亥且	-10.7598
丁亟丣丕亢且丕乿中	-10.7602
个世亟丙亣丣世丟亜	-10.7605
awa	-10.7605
中丧业	-10.7605
▁Tel	-10.7606
丛丣亥业丕乿亚万	-10.7608
▁Airbnb	-10.7613
両乿亜両亣丛亥不丫亟	-10.7615
严于丙亞	-10.7619
丁亘亍	-10.762
丫亙万乿五	-10.762
両亣上乿五个亄万	-10.7622
丘乌	-10.7623
丕丣万丁严亟万	-10.7623
中丢且乌	-10.7625
mber	-10.7627
丈业丁亙両	-10.7633
个万丄亙丣亟亞丫乌	-10.764
両乌	-10.7645
丣二亥严	-10.7646
上亚両丞亨	-10.7647
东乿亟丙丣亞业业	-10.7648
丈亀亍丙亟丢	-10.7653
▁丫丙亥万丫亝両乿	-10.7654
▁more	-10.7659
▁Sun	-10.766
両亢个	-10.766
个亥不上亟丕亢	-10.7661
丣亀中万丂中	-10.7662
严了丁丗乿亣丈亞	-10.7664
丁亟丣丄亀丙丫亟	-10.767
丫丙亥万丨亣丣丩亞	-10.7672
CI	-10.7672
业亥且丙亀亣	-10.7673
丛丣亞丈亗丕亖	-10.7681
丞亞丢亍	-10.7683
中二丣乌	-10.7686
丮产	-10.7686
亟亠些万	-10.7687
下亍	-10.7687
▁System	-10.7689
丣些両亚丙丕亢丁	-10.7689
个产丧亠专丠亨両亢	-10.7691
両亢丧	-10.7691
丁亟丣丄亥且严了丁	-10.7694
AG	-10.7698
丐亢	-10.7703
上亟丢丝乿亥万	-10.7703
丁亢丙中亟丫亟丣	-10.7704
ute	-10.7708
中丙产业亟严	-10.771
业乿中丙	-10.7711
丄丣亢个丕乌	-10.7714
个亟丢丟亜	-10.7715
丫丙中万丄亟丢	-10.7717
▁丄丣亀亥丙	-10.7717
丘丙业产丣亣	-10.7725
両乿亜丄丧丣丞严亟且	-10.7726
rop	-10.773
中亥不両专亣	-10.7731
业亨丣专亞	-10.7732
丁亟丣丙亗个亙丙中	-10.7733
且些丢丣亀亟丙	-10.7734
丄专亞丣亥丐両丙丕丣亣	-10.7734
个亙丣亦丈个亀亢丙	-10.7736
个乿亢万丗乿亣丣亍	-10.7737
丛亜丢了丙	-10.7743
丁亀亨丢亡両	-10.7743
业亟万上丙亢且	-10.7744
丁亟丣丈亥且万亟丙	-10.7745
中丢乿亟万丈丣亢万丈亥万	-10.7746
-09	-10.7747
丄亍丙乌丕二丣乌	-10.7752
中丧亥丢丧亞丞亙丨	-10.7757
▁Bank	-10.7761
丁亟丣严乿亙丙丁亙両	-10.7762
丞亨严	-10.7767
丁亟丣丞亥丁东乿中丙	-10.7769
丕乿亗个产且	-10.7769
丁丏丫両亟丢	-10.7772
丞乿了丫亀亝且亀亜	-10.7772
丁产両亟丣	-10.7776
**	-10.7776
世亀亟丄亝丣	-10.778
▁丕亖中丢乿亟万上乿亙丙	-10.7781
丁亟丣个亨不个亄	-10.7781
tom	-10.7786
丙亟丢丁丯	-10.7786
両丫丁亠両	-10.7788
严亀亢万	-10.7788
丄亙丣乿五万严乿亙丙	-10.7788
php	-10.7791
両乿亜上乿亝丄乿亚	-10.7792
中亀亟万丧乿亟	-10.7793
room	-10.7796
严乿亟个产且丗乿亣丙乿亣	-10.7796
丕亟両丘亠両上亟丕亢	-10.7802
........	-10.7804
东亀亨丕亥且个亢丙	-10.7805
丮中丕	-10.7805
®	-10.7808
业亥严	-10.7808
专丑	-10.7808
个亞丞些丁	-10.7815
丙乿了万且亀丧丢	-10.7817
亁些丕	-10.7821
丕亟両丧亙严亟	-10.7823
且交丁	-10.7823
丄亀亟丂亟丢	-10.7826
vis	-10.7827
丗互丁下乿亣	-10.783
ora	-10.7831
ration	-10.7834
丄丧亟両丁亀亟丧丫丙亀亟	-10.7835
上亟丙	-10.7835
▁2-0	-10.7836
且些丢丣中业	-10.7838
丛些个丕二丣乌	-10.7839
丄両丙亟丄両	-10.7841
▁丄严亢丁丗乿亣丛乿产両	-10.7843
両亚万両产両	-10.7843
丠亥丁且亣	-10.7843
丁丣亞且亟丙	-10.7843
亜下乌	-10.7846
且亀亜中丢乿亟万万乿亟丢且亟丢	-10.7848
丛亥丕丕亟丙亣	-10.785
▁2009	-10.7854
丂中中丙产不亟丕	-10.7854
丁且丛乿产両	-10.7856
丁亟丣丈中万	-10.7857
丂乿亟丧严五	-10.7857
业亟丢亓丣乌丙	-10.7858
▁个乿万丟丣亣	-10.7858
中产且	-10.7859
丄亚严	-10.7861
丈亞丁严亟丢丛云丙	-10.7861
丫亙両	-10.7865
个丫丣亟上中亟专亟丈亥丁丣	-10.7872
丈亥且丫亟両亟	-10.7878
style	-10.7881
丄亡丙万亓丙	-10.7883
丕亗丣亟	-10.7884
丙丄丣丨丣亣丘亠両丣亟上	-10.7886
中亢万	-10.7886
丄丙丣亍	-10.7888
严乿中万丣了	-10.7889
丣亟上丧万丨乌	-10.7893
168	-10.7895
业丣亢丫亟丣个乿丧丙丕亗业严	-10.7898
丛乿亨	-10.7898
丞乿亣上亟丢	-10.7901
丙亀了东亀亟	-10.7905
丕云丙丗乌	-10.7907
▁丣亥业个乿丧丙严且个亨万个产且	-10.7907
▁严予丁亟亠亥业丛丣亞丁亥丙	-10.7908
东亀亨丕亀中万丫亟	-10.7908
丞丣亞丣亟上亟	-10.7909
丧中丣乌	-10.791
丞业丫云丙	-10.7911
丛丣亞世両	-10.7913
▁Microsoft	-10.7914
东亀亨丂亀亍丞亥丁	-10.7915
上产両丞丣	-10.7915
上亚	-10.792
両乿亜丕亀中万丁亟丣	-10.7923
丢亣丙个乌	-10.7928
丁亙严亣丢且	-10.7931
丄丣両	-10.7932
met	-10.7935
丁丣亞丞亊中亟丫亟丣	-10.7936
亟丠丣专乌	-10.7937
严中万且亨	-10.7942
print	-10.7942
UP	-10.7943
丛丣亞丢产丁丕乌	-10.7944
丣中丢丢亀亢両	-10.7947
丛丣亞両亟丗	-10.795
丄些丁	-10.7951
世产万両五	-10.7957
丂亟且丗产丙	-10.7957
东严亢丕丠亥专丑乌丫亝両乿丗乿亣	-10.7959
东亀亨上亀亝业丣亢丁亟丣	-10.7962
个产丣亟丩与丣乌丘亟丙亣	-10.7964
严亀両丫亙严丧	-10.7965
丙亀亗且乿亡両	-10.7967
业亓丣乌丁	-10.7971
下些上亄严	-10.7978
BR	-10.7981
亀亙万	-10.7986
上丙业丗	-10.7986
PD	-10.7988
Thai	-10.7989
graph	-10.7994
中亟丫亟亠	-10.7995
个両丣个	-10.7996
丕亀中万上亀亝丧亙严亟	-10.7999
丧乿亟丣亟上丁亟丣丈亥万丫丧亥且	-10.8001
丗产丁丄丣亀亥万丗乿亣	-10.8005
▁丙乿亣丛云丙	-10.8006
cast	-10.8008
严了丁个亠	-10.801
OW	-10.801
丄丧亟両丗产丁丂乌	-10.8012
且亂亄丧丙亀亣	-10.8014
▁両亣丈亗丫丙乿亟丢丗乿亣	-10.8015
业乿中丢丄丣亀亥万	-10.8015
name	-10.8018
両亣両亨严丄乿亟	-10.8019
両亁	-10.8021
个亜	-10.8023
丁亂丧丢丕亂亄丧	-10.8029
个亙丁	-10.803
▁丛些丣且丛亜丗乿亣	-10.8031
丫丣五业亀亟丙丞亥丁	-10.8032
丛严丧丁	-10.8035
且亀亜万乿亟丢丂亀交丙	-10.8036
丄丧亟両丄亡业丫丙亀亟	-10.8036
丗亟万个亥万丄両	-10.8038
上乿五个亄万	-10.8039
且亀亜丛亙丣亣丢业	-10.8044
丕乿中丣中万	-10.8045
且亀亟丙严乿亟万丞乿了且亨	-10.805
▁且亀丧丢丣亟丄亟世亨丁	-10.8051
丈亣业	-10.8055
丄亗世亟両中乿亡丙	-10.8056
丣亍丁亦丈亞	-10.8059
丛丣亞両亓丙东严	-10.8062
丁亟丣丈亙丣丈亟	-10.8064
东严丂亀亟万丄亄万	-10.8065
丂亟丢中丢乿亨丙亝丣亀亟丙	-10.8065
东亀亨丂亥业丂乿亣	-10.8065
丁中万丁严亟万	-10.8065
丁乿亄丧丁亥业丛些丣両些上乿亥丙	-10.8067
両了万丫严丧万	-10.807
业亀了万	-10.8072
丁亘丢乿亟	-10.808
上亗	-10.808
丞乿了丣中万丣亥业	-10.8082
丣亥両	-10.8084
▁Char	-10.8086
丂亀中両亨严丞乿亓両丕亓両丁乿亄	-10.8086
丣云丧丗乿亣个产且	-10.8086
CL	-10.8087
丣亟丄亟丙亀	-10.8089
中丢乿亟万丁亝严亀上亢且	-10.8089
丁产丫严亟业	-10.8094
丠亟丞严亥丁丩专乌	-10.8095
-19	-10.81
丕亟丁中亟丁亟丨丢中且丙亢丢両	-10.8101
中亀产両	-10.8101
丣亀亟丙丄亀亟丗乿亣东亀亨	-10.8101
丞亥丁上乿丧万丧亥丙丫丢产且	-10.8102
160	-10.8106
▁1-1	-10.8106
上亀亟万丨交丁	-10.8106
丧丁亥业丣亟丢严亞中亄且丂中万	-10.8107
中亜丟些丙	-10.8108
世交万丂亀亥丙	-10.8109
両亟丣乿丧両丗亣両	-10.8111
个万个亥丢丧乿亟	-10.8111
丄亚丧亀丙	-10.8115
丙亀亗丗亞严亙	-10.8116
丄亗中丘亢业亟丢	-10.8116
丝亚万	-10.8118
LU	-10.8119
丗亜丢丣亥丐	-10.812
▁丛些丣且丕丣丧丈个中业丣亟丄亟	-10.8123
▁严中万且亨丣亟丢严亞中亄且	-10.8124
丈亥万丫丧亥且丞亢丩专产严些丁	-10.8128
中中丁且亓丙丗亟万	-10.8129
亣世亨丁世乿亟丢丙亝	-10.8129
丞亥个且产	-10.813
丟亚严上	-10.813
丙亀中両	-10.8135
ONE	-10.8135
严予丂亀中両亨严丈亗丞亊丂中万	-10.8137
丧亙业	-10.8139
丂亀中丈亗丁亥且	-10.8139
东亀亨上丙亞	-10.814
个亗丙亥丁万亟丙丄专亞丁亠両	-10.8141
丫丢乿中丙	-10.8145
东亀亨世五丫亀产丙	-10.8145
丛亓且丣亥业个両亥丄丣	-10.8145
下亥严	-10.8147
丁亟丣丧亟万	-10.8148
丞丣亞丙丄丣	-10.8149
丂中万上亗丣乿丧丢	-10.8152
丄亚丙亟且亟	-10.8152
且亀亢万	-10.8152
业丣亢丁亟亠世	-10.8153
両亞両乿丧万	-10.8153
ular	-10.8155
▁(2)	-10.8157
▁More	-10.8157
丕于	-10.8158
丫亖丫中丁	-10.8159
中丙产不亟丕	-10.816
丈亥万丫丧亥且上严业产丣亣	-10.8161
丕亓両丕云両	-10.8164
丁亓且丛亥不丫亟	-10.817
丧亢丁两丕	-10.8171
个丙丘亢	-10.8173
rate	-10.8178
丞丣亞両丫亟丁丩亥丕丣亢丢乌	-10.8189
丫亢	-10.819
丣亣丢乌	-10.8192
丄亚丣乌	-10.8192
HO	-10.8194
▁下乿交万丈亥且个乿万	-10.8195
丣亀五	-10.8196
且亗丙亓丙丄且亣	-10.8196
丞严亥且	-10.8199
pos	-10.8199
丢乿了	-10.8203
▁Fin	-10.8204
丙亟丙丁丧乿亟	-10.8204
丁丣亞业丧丙	-10.8207
▁丢亟个亗丫丣亥业	-10.8208
丢亥业丢亀亥万	-10.821
下云丙下二丣乌	-10.8213
且亟丧丗亄両	-10.8216
中丙亢両亇	-10.8218
丗亀亟丧	-10.8224
丠亨丂亍丟亜	-10.8225
丈亞丗亗中丢乿亟万丣亜	-10.8225
丧亢严严乿亟	-10.8226
▁丄亝丣丗乿亣	-10.8231
丄丣业丗产丁	-10.8234
中亜丙亀亗	-10.8239
▁中亟丗亢上乿亙丙	-10.824
丨亟个丕丣	-10.824
丙丄丣丞丙両	-10.8241
Work	-10.8242
丛丏亢丣亨丛	-10.8244
-14	-10.8244
个亄丁乿中丙	-10.8245
丗亟万丫严丧万	-10.8245
丄专亞丗亗万亟丙	-10.8246
业亟丣乌下亙严些丙亟	-10.8247
丛丣亢両专丑严	-10.8248
严乿亄丙	-10.8249
丞亀丙丈亟丁	-10.8251
丙亀亗丕亟严丗丣亟丢	-10.8258
/10	-10.8261
个且乆	-10.8268
丄丣亀亥万丫丙乿交万	-10.8268
hin	-10.8271
上严丛丣亞丗亟丙	-10.8273
个亡业个丧丙	-10.8277
丫严亟丢上丙亢且	-10.8278
▁Cap	-10.8279
両亣丂丙亟且严云丁	-10.828
上且上于	-10.8284
丄丧亟両上乿亄丧上亟不	-10.8284
丧乿亟且亀丧丢丁亟丣	-10.8285
中万丄乌丄丧亟両丣亀亨	-10.8288
且亀亜丣亥业万亓丙	-10.8288
且乿亟	-10.8293
丁亟丣丗且严中万	-10.83
丞乿了丫亀亝丁亓且	-10.8302
亀亝	-10.8304
丄云両	-10.8306
丁亀亢万	-10.8312
gel	-10.8313
丞丢亟丢亟両丗乿亣丈亞	-10.8313
个亟両亟丣世丂亀亍世交万	-10.8316
丛丣亞丫亟丣	-10.8319
丈亂亢丧	-10.8321
丈亗丄产丁	-10.8321
丗中万且亚万	-10.8322
each	-10.8324
丂乿両丂亡丙	-10.8328
丁丣亞丕亀产丙丫亀亝	-10.8331
▁ISO	-10.8331
▁丄亙丣乿五万丧亥且	-10.8334
丈亀亍中亟丧亟个	-10.8343
下些丟亟	-10.8343
且亨业中严	-10.8345
中丧且	-10.8346
丙亝丗产丁乆	-10.8347
东乿亚丙且亢丙丫亜丧	-10.8347
vent	-10.8348
丢亙丙	-10.8357
丄丧亟両个亞中亟且	-10.8359
丫亢丧	-10.8363
丣亞且両	-10.8367
丙亥丁丟产丕业中严	-10.8369
丮中严亢且于乌	-10.8373
丄丧亟両丛云丙丛亜且亀亜	-10.8373
丗产业	-10.8376
丈乿中	-10.8379
2015	-10.838
且乿亟万	-10.8381
丛丣亞丢产丗丘乌	-10.8388
丕中业丄亗世亟両	-10.8388
丂中万丈产且両云且个亣	-10.8388
丛云且	-10.8389
丘亣両	-10.8391
丧亥丒丙	-10.8391
丁亦丢亥万両乿亜	-10.8392
亥丟	-10.8393
个乿丧丙丁严亟万	-10.8398
丄亗丂中	-10.8401
中亜丨丁丣亣両	-10.8403
中中丣乌	-10.8404
丞丣亞中亟丗亢丕丢乌	-10.8407
▁丛丣亞丁亟丨东亀亨上丙亞丁亟丣	-10.841
且丧严	-10.8413
丫严中且丟亜	-10.8416
丙亝丫両乿亨	-10.8421
両亍个乌	-10.8427
乿中両	-10.8437
丞乿产両	-10.8437
丂中丗些丩	-10.844
丝交丁丝丙	-10.8443
両亖	-10.8445
丗亙丧且亟	-10.8448
game	-10.8448
中亠世	-10.8449
両亢丕丣丠亟丞	-10.8456
丁亜且乌	-10.8458
max	-10.8459
东亀亨丝交丁个中丙	-10.8463
个万乿亟	-10.8463
丞中丗乿亣丈亞	-10.8463
丁亦丄万丈亞	-10.8467
late	-10.8469
严亞中中万	-10.847
丂丧亟万	-10.8473
丄丧亟両丛丣亞丗亥业丈亝	-10.8475
个产丣亟	-10.8476
dia	-10.8477
丂亀亣东亀交万	-10.8478
丁严亣业	-10.8481
CP	-10.8485
丞亨且丄产丢丁亥业	-10.8486
个丁亢严	-10.8487
18+	-10.8487
严了且中中丁	-10.8489
tag	-10.849
且些丢中亥丕丙些両亥丕亢	-10.8492
丈亀亢両	-10.8493
両乿亚丙乆	-10.8496
丙亀中万个亟丧	-10.8501
万乿亟丢且亟丢	-10.8506
▁Big	-10.8507
丫亀亝丙乿亚丈亝丧乿亟	-10.8511
上亢丕	-10.8511
且乿亡両丙亀亗	-10.8512
亀产	-10.8514
个乿亄	-10.8515
丁亟亠亥业丛丣亞丁亥丙	-10.8516
丄丧亟両丈亙丣亢不	-10.8517
丘产丣丁亠両	-10.8523
个乿亣丫亙严乿亣丢両	-10.8524
且了丙丕产严亟丄両	-10.853
丈亀亍个亟丧	-10.8533
UM	-10.8534
丣亟両丄亗丫亚万	-10.8538
万亓丙丣亟万丧亥严	-10.854
丕争	-10.8542
丛亙丣亀亣丢丧	-10.8546
丈亙丕丙亟	-10.8546
丈亀亚万丕了丙	-10.8548
且亨丟丣亣	-10.8551
pol	-10.8553
ump	-10.8553
丛亟万	-10.856
东亍东严亟不	-10.8561
丞业丛亞	-10.8562
丗亙丙丙亢个	-10.8563
且亀亟丙丙中丁	-10.8567
丕亣个亙両中	-10.8568
丙亀亗丙両	-10.8568
个丣亞业产丣亣	-10.8569
上乿丧丢丗亗丫亀亝	-10.8571
丈丙丕亀中万	-10.8574
个亚万个丧乿亟万	-10.8575
中丢乿亨丫乿亟万丈亟丁	-10.8581
丗亀亚丈丣亢万	-10.8582
中丘亢丁亟丣业且亣	-10.8583
丙亢丗亟丙	-10.8584
丞丣亞中万丄乌丗丣万	-10.8585
个両両丕亢	-10.8586
丣亞丗丣丧万丨交丁丩亟丘亢丁亟丣	-10.8587
丣亞丫丧乿亟万丧亥丙丗乿亣	-10.8589
丞亥丙严亀亟丙	-10.8591
丁亥丛丕亥丙丗亣両	-10.8591
ا	-10.8591
丣世业亥个	-10.8592
丂亀交丙丣乿了丢乆	-10.8594
丗乿产両丗亙	-10.8597
个亚业	-10.8598
丛与亢业亥丕亢	-10.8599
丨亟严丈亀亍	-10.8602
mod	-10.8603
丈亀亍丫丙亀亟丗乿亣丕亗丣丧丈	-10.8603
丈乿亚両	-10.8605
丞丣亞丣亟上且亗丣亢	-10.8606
丂丙亟且丫亜丙	-10.8607
丁亢严亙个	-10.8608
个亥万丫亟丣	-10.8611
丟亜业二丣乌	-10.8614
丁亟丣丢亄丧丢亟上亟丧业亀亟丙	-10.8614
丫丣中	-10.862
丈亞丗亗丫亀亝丄产专	-10.8622
丮亟丣乌	-10.8622
中亟个亟	-10.8622
丕丣亟且	-10.8625
▁丄丣亣両个亗丫丣亥业	-10.8627
业二丣乌両五世五	-10.8627
丁亟丣丁亀亚丛亥不丫亟	-10.8629
丧亢万	-10.863
丫丙中丙丙亝且云丁	-10.863
丈亥且丕亙丣亣丢両	-10.8631
亁中丕	-10.8633
丈亗丞丧丁	-10.8634
丗亟万丧亢丗丢亟丨亟个丕丣乌	-10.8636
丛丣亟丈亣丙业产丣亣	-10.8637
丗亥丁	-10.8646
中云且	-10.8651
gram	-10.8651
丛些丣丈亙丄	-10.8652
ries	-10.8654
bon	-10.8656
丄丙丫亜丙	-10.8659
丙丄丣丙亟丢丁	-10.8662
个亟丣丞亥且	-10.8662
且亀亜丣亥业丄丧亟両个丙丈亝	-10.8663
业丣亨	-10.8664
▁Top	-10.8664
个両亥丢丁乿中丙	-10.8664
丛严亟丢丛亣	-10.8667
search	-10.8668
丗亗中丢乿亟万丣亜	-10.8668
丕亣丞亢両丞乌	-10.8674
个亟両亟丣世両中万丫云丙	-10.8677
丈亗丙丧丙万亓丙	-10.8681
三严亟丁	-10.8682
丁亍	-10.8684
严亀亄万且亨	-10.869
丫乿亟万丁亜严	-10.8693
丛亚且	-10.8694
▁丗乿亟丙个亟両亟丣世	-10.8698
丧乿亚丙丕亟	-10.87
上亣个	-10.8701
中二	-10.8702
FC	-10.8704
上乿亄丧上亟不	-10.8706
严亨丁丗亣両	-10.8708
両亟丣乌丁云丕	-10.8709
严乿両	-10.871
二丣乌丣乿亣	-10.8711
中亚丟丣亢丁亟	-10.8714
丧亥上丣	-10.8719
丣亥业丗丣亟业	-10.8721
中丣产专	-10.8722
▁HP	-10.8727
page	-10.8728
丄丧亟両丗亀亟丗亟丢	-10.8729
丙亟丙乆	-10.8731
rac	-10.8733
乿产丢	-10.8734
丞亥丁中亟丨亥丢	-10.8735
个亗丣亟不	-10.8737
丙亢丞丞亟丙	-10.8737
丛丣亞丈丧业丄亣丣亣丂亥丙丘乌	-10.8737
star	-10.8741
丗二両	-10.8742
丞亟丗亣両	-10.8745
严亜丟乌	-10.8751
个严亟丁	-10.8756
世亓且	-10.8758
丙丣丁	-10.8759
中丘亢丩丐亟丙	-10.876
且亝丁亦丕亟両	-10.8762
▁丗亣両个产且丗亀亟丢	-10.8766
个亟丘亢丕	-10.8776
•	-10.8778
丙亀了丢乿了	-10.8779
严亨丁丙亀中丢	-10.8783
丝亚且	-10.8783
中丧丁亟丨	-10.8783
▁Server	-10.8783
<	-10.8785
丕云両丣亨丛业亚业	-10.8785
丁亦丢乿亢万	-10.8786
业乿万业中丁	-10.8786
个亞丗了丙	-10.8791
丛云丙丨亨丙丢乌丁严亟万	-10.8791
丘亙	-10.8793
丂云両丂亥且	-10.8793
丣亀亟丙丄亀亟中中丙严亜丙乌	-10.8794
丣乿亗	-10.8795
且云丁上亟丢	-10.8799
丛些丣乿万个亝	-10.88
tube	-10.8801
丞乿了丙丣乿丧両丗亣両	-10.8801
乿交万	-10.8801
么	-10.8807
✔	-10.8807
丁丣亞丗丣丧万両丫亟且丗亜丢	-10.8807
且丧万中亟丗亢丕丢乌	-10.8817
▁丧亢丘亣丁亟丣丗乿亣丈亞	-10.8817
tech	-10.8818
下些且亟	-10.8819
中亥丕	-10.882
丧亓丣乌丄	-10.882
丄严亟个个亢丄	-10.8822
丧亟严乌丧	-10.8822
严丞业产丣亣	-10.8822
▁両了万丗中万	-10.8825
丛丣个亢丕丙亝丣乿亟万丁亟丢	-10.8828
上亓万丛丏亢业亥丕亢丁亟丣	-10.8829
丁亚丣乿万	-10.8829
丞亢丞亟丁丩亟	-10.8834
丗亥丙丈亝	-10.8835
丣中丄中丢	-10.8837
丁亘丢乿亨	-10.8838
©	-10.8838
丣亟両中亢丙丗丣亟	-10.8838
▁Next	-10.8838
Thailand	-10.8838
丞丈丙乌	-10.8839
个亟両亟丣世上亀亝万亟丙且亀亜	-10.884
丄些丣万丁亟丣丞亥丒丙亟	-10.8841
个乿亢万个亗丄亥不	-10.8845
个亙丙	-10.8849
▁丧亢丘亣丁亟亠亥丁丩亟	-10.8851
丞丣亞丛丣両亢丙丗丣両丫亟	-10.8853
东严丣丧両	-10.8854
▁Mini	-10.8855
両乿亜丕乿亗丁丧乿亟	-10.8856
丁亟丣丈亥且丁亢丈丁亠両	-10.8859
亀亙丙丗乌	-10.886
丄丧亟両丛云丙个乿丧丙丕亖	-10.886
▁丁丩亟	-10.8861
丁亟丣丗产丈丣亢丕	-10.8862
▁Data	-10.8863
▁3-4	-10.8863
▁丄中丣乌且	-10.8864
且亀亜丣亥业丁亟丣丢中両丣亥业	-10.8865
丂亟且丄亚严丙	-10.8869
丈云业丛乿丧丢	-10.8871
丈亀亍丫不亢万	-10.8872
丁亀亍	-10.8875
丧亥丄下亣丙	-10.8877
丁亟亠亥业丣中万	-10.8882
上亀亝万亟丙万乿亟丢	-10.8883
下亀产両	-10.8884
中亟上不亟丁亠両	-10.8885
丫両乿中両	-10.8885
丧亢上亥丢	-10.8886
个亠丞丄产专	-10.889
Categories	-10.8893
个乿产両	-10.8894
丞乿中丄亀亟	-10.8899
丢亟丁严亗业亟丁	-10.8899
严丧万	-10.89
live	-10.8902
且乿亥万	-10.8905
▁2551	-10.891
丗亙丣丙丙二丣乌	-10.8917
中乿中丙丢些丙	-10.8918
个亥业个丙	-10.8919
丛亟丙丁严亟万	-10.8921
001	-10.8923
IE	-10.8924
william	-10.8932
blake	-10.8933
个亗丫丣亥业个亀亙丙严了且丂中且	-10.8934
ball	-10.8935
个亄且亟丢	-10.8939
个丧亣且亙丙	-10.894
丣亣両些丗	-10.894
両些且亓丣乌丙	-10.8941
丢亟丁丈丙	-10.8945
丁亦丙乿亟丈亞	-10.8948
丛云丙个亟丫亙丕产	-10.8948
両中业丫両亟丢丫亀亝	-10.895
丁亢严些両亙丕丣	-10.8952
look	-10.8953
oke	-10.8956
丄亙丣亟	-10.8956
上亄	-10.8957
丫亚严乿万丙亀亗	-10.8959
丞亄万中丢乿亟万且亄丧	-10.896
个亣个亀両	-10.8963
丁丣亞丈乿亟万个亝	-10.8963
«	-10.8963
▁丕丣両	-10.8964
両产丂	-10.8964
个丛丣亢万	-10.8964
东中両	-10.8965
board	-10.8968
▁丛丣亞丁中业丁亥业	-10.8971
中亄万	-10.8971
▁Photo	-10.8973
且云丁丙亥丁丣亄丙	-10.8978
丣乿両丣乿亡丙	-10.8979
両亣丄丧亟両个乿亄万	-10.8981
▁City	-10.8981
丛丏亢业亥丕亢丘亠両	-10.8986
丄丧亟両个丙产丁个丙亟丙	-10.8987
丣些万万亟丙东严亢丕	-10.8989
丠亟丄丁严亟万	-10.8993
丣亢両丝亣丛亟丁	-10.8995
丫亀亝丁亗严亥万丈亝	-10.8996
业亠丗产丁	-10.9008
东亀亨个亄上亣丧亢丕	-10.901
个両产丗丣个亟丄丣	-10.9011
个両亟丣乌丗	-10.9011
云丗	-10.9015
个丛亙丣丢乌	-10.9019
vid	-10.9022
両亀亙丙丗乌	-10.9024
丗亟万且乿丧丙	-10.9027
両亚丄	-10.9028
丢产丄个両亥丢	-10.9031
丛亞丁亟丣亥万	-10.9035
丈亀亍中丢乿亨丫亖	-10.9038
丙亥丁丂乿亟丧	-10.9039
个乿亢万丫亙严乿亟丙亀亣	-10.9041
丕严亟且丫严亥丁丗丣亥丞丢乌	-10.9042
▁from	-10.9043
丄亟丣乌业中丙	-10.9044
业亠丈产丠亥专丑乌	-10.9044
丨亟个且亟	-10.9059
丗亟丧丙乌丮亀亍个乌	-10.9059
丁严乿亥丙	-10.9061
▁丣丞	-10.9068
万亓丙丝亟丁	-10.9073
丣亥丐丧亢个亟丫丁亢丈	-10.9075
个些且	-10.9077
丄产丁	-10.9078
丮乿亟	-10.9081
丞亙上丣业亨丣专乌	-10.9083
両乿亜丞亄万丞中	-10.909
丁严乿产両丛亀亍丫両亟丢	-10.909
中些严亢両丛亢丁	-10.9091
丞亙且亟丙	-10.9091
丠亟丢丙亝丛丣亞丗亙丨	-10.9092
丄丧亟両东亢且丞严亟且	-10.9094
丛亣严亞	-10.9095
丗亚丙丗乿亣丈亞	-10.9097
両乿亜丞亚万	-10.9101
且亣両亟丁乆	-10.9105
丘亢且亟	-10.9105
丄丙丣乿产丙丫亝両乿	-10.9106
三亟丢亟	-10.9106
中乿于	-10.9107
両丧丢丗亜丢	-10.9107
丣亞业亟丢丙亀亗	-10.9107
丗亟丧丙乌丮些両	-10.9107
丛严中丁	-10.9113
▁丫亟丁丗乿亟丙	-10.9123
丕产丣丁亣	-10.9123
丁亟丣个乿亥万下亀五	-10.9124
丄丧亟両丫丙亟	-10.9125
bar	-10.9128
丁亟丣业丣亢丠些丄	-10.9132
丛云丙个乿亢万个亗丄亥不	-10.9137
个亠丞个乿亢万	-10.9138
业亥万中亓不	-10.9139
丫严万丫亝严	-10.9139
▁Social	-10.9139
丁亂亍	-10.9139
丄亍	-10.9142
个丙亢両	-10.9143
丧万丩乌	-10.9147
丫些丧丕	-10.9147
丗亣両上亟丕亢中亥万丁两丩	-10.9149
AND	-10.9153
个乿万东严丁丣亞丗业丕乿中	-10.9153
丙产上	-10.9155
OC	-10.9158
▁Port	-10.9158
emp	-10.9162
严乿亢万	-10.9163
中丢亟丁丣亀亨	-10.9164
上丙亞严亓丨中亥丙且亥业丗乿亣	-10.9164
Ltd	-10.9171
个亀亙丙丢亝	-10.9176
丮亥両	-10.9176
丢亞严亟	-10.9191
个乿丧丙丣亟上丁亟丣	-10.92
个亢丙丗丣亥丞丢乌	-10.9203
个亚且万丫亀亝丫云丙丧乿亟	-10.9204
丁丣亞丗丣丧万个亟丘亟丣专个产丂	-10.9204
丙乿亟个亄且亟丢	-10.9204
严了丙	-10.9205
丕亖丁乿亙万	-10.9205
业丣亢丫亟丣丘产丣丁亢丈	-10.9206
丢中且丮亢丕	-10.9207
van	-10.9207
丛中丣乌	-10.921
丛丣亞丁丧且丣亟丄亟	-10.9212
且产丈	-10.9215
丫亀亝丁亥业严亨丁丄亀亟	-10.9216
▁was	-10.9216
个亥万丆	-10.9217
丈些丗丢乌	-10.9218
丁亙丩両	-10.9218
中乿产丙丄亙丣乿五万	-10.9219
上乿中万丄严中且	-10.9219
▁Control	-10.922
cent	-10.9228
丕丣亟业	-10.9231
丮亜严些中中丙严亜丙乌	-10.9235
中产丕丣且亢丕世乌	-10.9236
上亀中丙	-10.9242
▁hallux	-10.9244
丄产专丈亞且亀亜丣亥业	-10.9245
▁intl	-10.9245
中丢乿亨丕严中且丧亙严亟	-10.9249
丣亀亟丙丂亟丢丢亟	-10.9252
ju	-10.9258
东些严乿	-10.926
▁2007	-10.9264
ape	-10.9267
丣亀中万丣亄丙	-10.9267
丛丣亞且亓両	-10.9267
丣专丣万丄乌	-10.9274
丂亀中丫亟	-10.9278
両亣个亙丙乿丫乌	-10.9283
丁亨严	-10.9288
丠亟丄丕亞丧亥丙中中丁	-10.9294
丙亝丣亞丢亞丢亟丧	-10.9298
中丣亢丢	-10.93
丁亣丕亟丣乌	-10.9301
д	-10.9301
严亣丢乌	-10.9303
丁亘中丁	-10.9305
丗乿亍丙亀亥丙中亙万	-10.9308
个丕亨且亢中些	-10.9309
м	-10.9309
▁Product	-10.9309
丁中且	-10.9316
▁Program	-10.9318
丫両乿亥丙	-10.9323
▁严亀亟丙丞亢丁下亙严	-10.9326
丞中丞亄万	-10.9327
丧亚丧	-10.9327
个亨不	-10.9333
丄亚丛下亨严	-10.9334
个乿亢万且亝	-10.9337
业互丁	-10.9338
here	-10.9341
Tech	-10.9343
DR	-10.9346
个亟丣个丁亥且丈亟丁	-10.9348
qui	-10.9348
wan	-10.935
中亣丁丕乿亟万丫亟丁	-10.9355
个亠丫亟	-10.9362
丗乿亟中亟丁亟丨丢亟丙	-10.9363
丣亟上中亟专亟丈亥丁丣	-10.9366
丁亙严亣丢丧	-10.9367
丛严亀亡両	-10.9367
win	-10.9368
▁Network	-10.9375
丗亜両乌	-10.9376
丣亞丢亞个亀亥丙	-10.9378
丙乿亥丙丄五	-10.9382
mate	-10.9385
丈亀亍丞丙亥丁万亟丙	-10.9392
丈交万丄丧丣	-10.9393
丂亀中业亥万丄亥业	-10.9394
上亟丢丫丙乿产両	-10.9396
丞丢亟丁丣专乌	-10.9399
丗亥丨丙丄丕亢	-10.94
▁个両亥丄丣丗亚万业中严	-10.9402
个亟両亟丣世丙亗丛亜	-10.9405
丄产专丈亞丕亀中万	-10.9407
丄亟世亟	-10.9408
Twitter	-10.9408
丈亙両个乌	-10.9408
丗互丁	-10.9409
业亀亟丙丣了丙	-10.9409
丈亢丕丧亢不不亟专	-10.9411
ship	-10.9411
个产且个亥丛且亟丫乌	-10.9414
丨亢严亟	-10.9414
个乿亢万両亣上亣丧亢丕	-10.9417
丁亥丛丕亥丙	-10.9417
bot	-10.9422
link	-10.9423
丈亟丣丢乌	-10.9424
丄严亟个个亢丁	-10.9424
世亥丁	-10.9425
亥专丑	-10.9426
丙亥丁丂亄丙	-10.943
丈亥且下亀五	-10.9432
个亟丘亟丣专	-10.9432
丫丧乿亥丙	-10.9433
▁中业丕	-10.9433
丕亀亥万中丢乿亨业丙	-10.9437
丛丣亞上亟丄両	-10.9438
両亣丨亥丁丢丠亟丞	-10.9438
丟亥万丁乌上亥丙	-10.9441
丈丙世交万丛亥丈丈产业亥丙	-10.9444
丁亚丙丙亗	-10.9444
丗亀中	-10.945
个亟丧丙亀中丢	-10.9453
东个亟丙	-10.9457
严亀中両互丁	-10.946
丈亀亍丫丙亀亟丗乿亣业丣亢丫亟丣	-10.9463
严亨丁丫严亟丙	-10.9465
中产丗亥丢	-10.9466
中云丁	-10.9473
丙亀亗丞产	-10.9473
业乿亚万中中丁丛云丙	-10.9474
▁业亠丢亟丁亟丨且亣	-10.9477
丞亥万万亟	-10.9478
东严亥且	-10.9479
上亚両丛亀亄丙个乌严亣丁	-10.9481
両乿亥丙丈亝且亀亜丧乿亟	-10.9481
丫亚丙	-10.9481
世亟且	-10.9485
上亀了丣些丄	-10.9486
丠亟上丙亞	-10.9488
丁云业丣亥丁丩亟	-10.9489
三亙严亢両	-10.949
▁个丞丛	-10.9491
丄丧亟両丙乿亟上乿了世五	-10.9491
▁Sky	-10.9499
中严亥万丁亟丣	-10.95
丄亥両	-10.95
▁严亀亟丙丢亨丣些	-10.9502
den	-10.9502
▁丈亟丁丙亀亥丙丁亦	-10.9505
丢亀亟丢丗亣両	-10.9512
ection	-10.9513
丁亟不丈丙	-10.9515
丂中万丗乿亣丣亞严交丁	-10.9517
丂亚丙丢亟丧	-10.952
亢丙丗丣	-10.952
丁丣亞丗丣丧万丁亟丣丄严亥万	-10.952
丢亥万両乿亜丄于	-10.9521
亢丁下乌	-10.9521
丛丏亢丁亢丣亢丢亟	-10.9524
上云丁	-10.9524
両乿亜丁严亀亟	-10.9535
业亚丁	-10.9538
丣云丧丁丧乿亟	-10.9538
丢产丄丫亝両乿	-10.9541
丕乿亚严亞丄丣亀亥万	-10.9544
丛亚严丠亟丩亟	-10.9548
丁亢严些	-10.9548
丛亀中丙	-10.9548
中产业严	-10.955
严亙个丕二丣乌	-10.9552
丈产严	-10.9552
严亨丁丫丙亥万	-10.9554
丗丨丧亠丩	-10.9558
中亟丄亟丣丞亟专亢上丢乌	-10.9561
▁丄中丣乌且丞亙严万	-10.9561
严亀亟丙丙亟	-10.9561
亀产両	-10.9563
个丕云丛	-10.9566
亘丁下乌	-10.9566
丄严亟个	-10.9575
test	-10.9576
上乿丧丢丕亖中亙万	-10.9577
sport	-10.9582
丂亀亟丧丞些且	-10.9583
万亓丙严万丗产丙	-10.9583
丁云业丁乿亄丧	-10.9587
丣亟丄亟丛丣亞丫丢亥且	-10.9592
両亄丙両亟	-10.9595
业亟万丣亟丢	-10.9597
个亀亙丙严了且丂中且丗乿亣丂亟	-10.9599
UL	-10.96
丣亀中丢中云且	-10.9601
丢产业	-10.9603
ated	-10.9606
130	-10.9611
丗亚业両乿亜	-10.9612
丁亓且中产业亥丕亢丫亙丕产	-10.9614
丄亟丟乿亙	-10.9616
丗乿亣丛云丙中亥丙丕丣亟丢	-10.9618
中丢乿亨中亟丨亥丢	-10.9622
2559	-10.9625
丕亞丧亥丙中中丁三亄万丕亀亝	-10.9625
-12.00	-10.963
丠亥丢严亀亚万	-10.963
且亣下亙严	-10.9631
丞亄丣	-10.9633
丗丙亟丢丄丧亟両	-10.9634
个亙丣亣丠亟丞	-10.9634
▁Store	-10.9636
丛丣亞且亢丩丐亟丙	-10.9642
SR	-10.9643
万乿亟丢丕乿中丁亟丣	-10.9648
世产万丙乿中万	-10.965
▁Vol	-10.9651
严些上乿亥丙	-10.9652
中产且両个両业亨丣专乌	-10.9654
丁亟丣丛丏亢丣亨丛	-10.9655
丄些严丙	-10.9659
丄些丣亟上	-10.9665
ENT	-10.9668
丄丧亟両丕亀亥万丈亝	-10.9668
个万个亟丣	-10.9676
▁Tour	-10.9677
丄亙严乿五丙丢亀亟丢	-10.9679
严乿亍丣乿了万	-10.9681
业乿丙	-10.9684
丟亜丙亚丙下乌	-10.9684
丈亞丫云丙丧乿亟	-10.9686
个亥丁丞亥丁	-10.9691
上乿了世五且亀亜	-10.9692
丄丧亟両丄亀产両丄丣中万	-10.9693
丢亟丙丞亟丫丙亞	-10.9693
中乿亟万丁云业丙亀亗	-10.9693
丫亀亟両丞严亟且	-10.9697
丛乿亟両亀亜	-10.9698
▁Gen	-10.9701
上亀亥丙丧亟万	-10.9709
▁丛二丣乌下云丙	-10.9709
丞丧万両亟严亥丢	-10.971
▁lamblia	-10.971
▁丄中丣乌且丁亣丕亀亟丣乌	-10.971
ense	-10.9711
IO	-10.9713
丫严业丫丙亣	-10.972
▁Shop	-10.9724
丂亥业严乿亜	-10.9725
丈业严万	-10.9726
丟亙下业亁产丁	-10.9727
丗亗丄丧亟両丣亀亨丈亥丁	-10.973
lution	-10.973
̧	-10.9735
三亞丙亀亥丙	-10.9735
丙亥丙丟产丕业中严中中丙严亜丙乌	-10.9737
丣亘丄	-10.9737
food	-10.9751
丁丣亞上亀亍	-10.9758
下乿亚业	-10.9758
丟亢丕丙亙个	-10.9762
丕乿亟万丫亟丁	-10.9762
丛亥万	-10.9771
▁And	-10.9772
上亀亨	-10.978
▁House	-10.9788
上亥丢丙亟丗	-10.9789
丁丣亞丗丣丧万丞亟专亢上丢乌	-10.9791
丣乿亙万且乿丧丙	-10.9792
990	-10.9793
丗亀中万丟亀亟	-10.9795
▁Series	-10.9796
▁丫丙亥万丛亁些中中丙严亜丙乌	-10.9797
且中丙両了万	-10.9799
个交丁	-10.9803
丕亀亡丙	-10.9804
丁亁亚万	-10.9805
aga	-10.9808
両亜丄乌	-10.9809
ever	-10.9809
丞乿了丙丣乿丧両	-10.9811
下亙丣乿亥両	-10.9812
▁Water	-10.9812
丞亄万両乿亜丁乿亣	-10.9815
且亀亟丙下亀亟丢	-10.9817
丁丣亞丗亞	-10.982
丞亢丁亥且	-10.982
丁予个严亥丁	-10.9821
丫亙両亦丙	-10.9821
google	-10.9821
丧亜丗乌	-10.9822
Green	-10.9822
丣亥丁丩亟丣些丄	-10.9825
亥丐	-10.9827
▁Back	-10.9828
且亀亟丢	-10.9828
丫亜	-10.9829
丗乿亄丧上両	-10.9832
丗乿亣个亗丄亥不丗乿亣个产且	-10.9838
中丞丢丞	-10.9838
个亗丙交丁	-10.9846
丘亠両丨亟个丕丣乌	-10.9851
cat	-10.9851
丈亢丕丧亢丗丢亟	-10.9852
▁乑乕	-10.9853
丄丧亟両世亨丁丕亀中万	-10.9862
WA	-10.9864
下亣丣乿亣丢乌	-10.9873
亢丙不些	-10.9874
Phone	-10.9876
199	-10.9876
▁丕乿亚丁亦丢亥万	-10.9886
中亍丈亝个乿亝	-10.989
上亖丣乌	-10.989
両严丞亢丩	-10.989
丄严亣丙	-10.9894
丝中丢	-10.9895
丧乿亣	-10.9898
丂亀亟万丙中丁	-10.9899
丁丣亣丙	-10.99
Market	-10.9907
TION	-10.9912
丕亀亥万丛亀亍	-10.9915
丧中严丛亙丛二丣乌	-10.9916
中丢乿亟万严亞中亄且	-10.9923
丗些丙个亣	-10.9923
世亥且両亟	-10.9931
且亀亜丣亥业丣亟万丧亥严丣中万	-10.9932
丞亙严亢且丞亙严亢丙丁亥业	-10.9935
丫严乿丙	-10.9935
个亚且万丫亀亝丫云丙世交万	-10.9942
Press	-10.9942
且些丢三亙严乿亣丢	-10.9948
丙亟両个丁产严	-10.9955
丫亙万亟	-10.9955
丈产严亢丙丗丣亣丢乌	-10.996
丂亀亍丣乿丧両丄些丣万丁亟丣	-10.996
丁亟亠乿亓両丕亀丙	-10.9961
上亟丧丣乿亜中亀中丢	-10.9968
丙亢丣丠亥丢	-10.9968
丠亟丄丧亢上亟	-10.997
丟亙丣両	-10.9972
140	-10.9974
round	-10.9977
丞丣亞丙丄丣丨丣亣中丢产丘丢亟	-10.9977
且了丙丁亥丙丢亟丢丙	-10.9986
▁2550	-10.9988
丧亢丈亥丢严予丞亥丒丙亟	-10.9988
严亙丧丣亀亟丢	-10.9995
丧亙丛	-10.9996
上乿中万丧乿亟万	-11
丟亚丣乌	-11.0001
丄丧亟両丄亙严乿五丙丫亜丧	-11.0029
丛丏亢丧亥丕亢	-11.003
▁乖乑	-11.0043
▁Red	-11.0044
両乿亚丄亀亟	-11.0046
▁Previous	-11.0047
▁Media	-11.0049
业亙严丢亄両	-11.0056
丂亀亥丙个亨万	-11.0057
20,000	-11.0058
MC	-11.0062
丈丙丁丧乿亟丈亞	-11.0063
个亢丗丘亢业亥丕丣	-11.0064
且亨丫亙両五丙丈亞	-11.0064
丙亝丂专亞且亄丧丁亥丙	-11.0071
125	-11.0072
严亗丞亨丙	-11.0074
▁True	-11.0078
个丣亞丁亀亚丧	-11.008
丙亢丕亢业产丄丄严	-11.008
丄亚严下亄両	-11.0083
业二丣乌丗些丣	-11.0086
丂亀中个万个亥丢	-11.0086
ative	-11.0086
个亀丧両	-11.0091
丙乿亟丛丣亞丗亥业丈亝	-11.0092
丢中且丂亍	-11.0099
东亢丧丞亠专	-11.0099
×	-11.01
▁中万丨亟下亙严下亄个	-11.0109
▁丫両亟丢丫亙丕产	-11.011
丈亚万	-11.011
▁Master	-11.0114
▁2008	-11.0115
丈亞丫云丙且亀亜丧乿亟	-11.0122
105	-11.0122
丙亗丛亜个乿亨丁亟丣	-11.0124
丗丣亥丞丢亟丁丣丘亠両上亟丕亢	-11.0126
丁丣亞个产丙	-11.0127
丕丣丧丈丈亥业	-11.0128
→	-11.0136
上亚丗	-11.0144
丕亀中万中亟丨亥丢	-11.0145
严亟且丁丣亞业亥万	-11.0154
丂亢万	-11.0154
亚丣乌	-11.0156
且亀亟丙丂丧亟	-11.0168
丄丧亟両両乿产万両乿亥丙	-11.0177
丗丢中丢	-11.018
丈亀亍丫丙亀亣	-11.0182
丞乿亟丢丞亀亚	-11.0182
丂亀亟丧丂中万丄亙丣乿五万上亀亝	-11.0189
丮亨	-11.0198
丫亀亝丁亟丣丕亀中丙丣亥业	-11.0199
丙亟丢丁个両亟丄両	-11.0206
中亟丧产个些	-11.0207
▁Group	-11.0207
丧亙个丕乌	-11.0207
丈亥丙丗丣	-11.0215
丞亍丧二丣乌	-11.0216
両亣个亢丗丘亢乌	-11.0222
Leave	-11.0222
丢亥万万亜丁亦	-11.0223
GO	-11.0223
丈产且両云且个亣	-11.0225
中亢个丣亟中亙严	-11.0225
п	-11.0225
丧亢丙丗亙丈	-11.0234
丛云丙丈亀亍丠亟丞	-11.0236
丛丁丛亢且	-11.0242
▁that	-11.0242
丗了丁丂亍	-11.0245
丕严亟且丫亀产丙	-11.0248
中亟丫亟丣丁严亟万丧亥丙	-11.0249
丗亥丨丙亣丢丠亟丞	-11.0252
▁个丕亙且亀亄両	-11.0252
上些丄严亟丠	-11.0252
个亨业业产丫丣乿亣	-11.0253
丁亗丞亚万丞亙上丣	-11.0255
丙亢且且亄丧	-11.0264
丧万丁严両	-11.0267
丕亀亥万上乿五	-11.0268
丙亀些丕	-11.027
▁Log	-11.0271
▁Porn	-11.0274
▁2019	-11.0274
両丧严上丙	-11.0275
中产丗丘丣专乌	-11.0279
mini	-11.0279
丁亟丣丂亥业丄亙严乿五丙	-11.0279
中丢乿亟万丛严中且丠亥丢	-11.0283
上乿丧丢丛亀中万丁亥丙	-11.0287
▁Honda	-11.0288
下亟丁产丣亞	-11.0288
丁亟丣丗乿亣丣亍丙亀亥丙丈亞	-11.029
丢亡両丕亖	-11.029
pot	-11.0292
aka	-11.0292
丫丙乿产両个亟丧	-11.0301
个亢丙丄亀亟丁亙丩丕丣	-11.0303
丗亙丨业亟严両了万	-11.0303
个亥丁丫丙乿中丢	-11.0304
丈产且丛丣亞个万丄乌	-11.0306
▁両亨丣亢丙不乿些	-11.0306
丂亀亍丈亝东亢且	-11.0307
乿亢丧	-11.0311
▁Word	-11.0311
上両丧亢丧	-11.0314
丈丕产丈亥丁丣	-11.0315
业亠丗亥且	-11.0315
中亥丢丁亟丣	-11.0316
丕丣万丫亜丙	-11.0317
YOU	-11.0317
丞乿亣个亟丧	-11.0322
丄丧丣严了丁	-11.0322
丟亣丟乿亟	-11.0324
丁亟丣丈亥且中亥丙且亥业	-11.0326
丄亙丣丙	-11.0328
丕严中且丁亟严	-11.0332
东严丁亟丣丂乿亚万丂亥丙	-11.0333
▁Camera	-11.0333
▁Page	-11.034
丙亥万	-11.0342
丛丣亞丗亙丨中亥万丁两丩	-11.0345
丢丁丕亖中丢乿亟万	-11.0351
东亀亨上乿亄丧上亟不且亀亟丙	-11.0352
丗乿亍且亝	-11.0358
▁Intel	-11.0362
个亞丁且	-11.0366
上些丧乌丟中丣乌両	-11.0368
108	-11.0369
丙亢丢亟両	-11.0373
丛亨丞亀亡丙	-11.0376
丁亟亠亀中万	-11.0379
个両丗业	-11.0381
丠亨両亢丛亥不不亟	-11.0383
丙亢丁亟丢	-11.0385
丈产丬亟严万丁丣专乌	-11.0388
中产丛丁丣专乌个亙丣亢両	-11.0388
▁Sony	-11.0389
丁亙両丣产丁	-11.0393
丂亀中両亨严丂乿亟丧个亟丣	-11.0394
▁Live	-11.0395
丗亞严亊	-11.0397
▁Limited	-11.0397
丫于亣丢业	-11.0406
且中丗丄中両	-11.0406
両乿亜世亨丁丕亀中万	-11.0411
▁丕丣丧	-11.0415
丞亣下亣	-11.0421
下乿五个亥丕丢乌	-11.0424
丄丧亟両上亗丙亟不	-11.0432
file	-11.0437
中丢乿亟万个両乿亗个亙両中	-11.0437
下亀交万	-11.0441
▁丙亟丢个产	-11.0445
6%	-11.0446
▁Share	-11.0447
中亥丛	-11.0449
业中丁严乿亍	-11.045
●	-11.0452
丕亙丣亣丢両丞丣亀中両	-11.0452
210	-11.0459
丁丣亞丗亗丄丧亟両东亢且	-11.046
▁dis	-11.0471
东乿亟丙両五世五	-11.0479
丫丙乿丧丢丄丧亟両丈亗	-11.0479
丄产丁丁亀亣	-11.048
丕丁丛云丙丂乿亟丧	-11.0483
丠亟丩亟丈亣丙	-11.0494
▁丕亟丣亟万丧亟	-11.0495
bag	-11.0498
东亙严中	-11.0498
???	-11.0498
4,000	-11.0501
▁Condo	-11.0502
丙亝丙亟丗亣丗乿亣	-11.0505
中亥丕丣亟且中丁业亀亄	-11.051
丛亁亥両丙亀亗	-11.0511
丧云业丄亟个亢丙些中中丙严亜丙乌	-11.0513
业亙不丈	-11.0514
how	-11.0516
丢亥万両亣上亣丧亢丕中丢乿亨	-11.0517
両乿亜丗丣亟业丧乿亟	-11.0528
丙亝丣乿亟万丁亟丢両丙产丩丢乌	-11.053
丂亙両丣	-11.0535
丛亀亚丙	-11.0535
丟亨丈亢	-11.054
个亗丙亥丁丞亢両丞乌	-11.0545
VER	-11.0547
丁亟丣丂乿亚万丂亥丙丟产丕业中严	-11.0552
且亨且丧万丄丧亟両丣亥丁	-11.0553
丂丢乿両	-11.0553
丁亚严亀万	-11.0553
丛丣亞个业丛亥不丫亟	-11.0553
丛亢且丗亀亟丢	-11.0557
东严丁亗丣亜	-11.0562
丣亟上亥丙上产且丂亟丧	-11.0562
▁081-	-11.0565
rror	-11.057
▁丫丙亥万丛亀些	-11.0574
丕亀中万丣亣业	-11.0577
丗亓丣乌丙	-11.058
OO	-11.0583
丞丣亞丠亢丁丩产	-11.0588
中亢丙丗丣乌	-11.0592
业亓丣乌丙	-11.0596
▁TripAdvisor	-11.06
丄丧亟両丄亢且个丣亀亟万个亠丄乌	-11.0605
丙亞丈亁亞	-11.0618
▁comment	-11.0621
且亨且下交両	-11.0626
cur	-11.0628
丞乿交万丞亟	-11.0639
▁THE	-11.0643
业些丧乌	-11.0647
▁GPS	-11.0648
上亗丣亞丫丙亀亣	-11.065
中亟丈亄丙	-11.0652
丣中丢亥严	-11.0655
▁丣亥业东严亢丕	-11.0657
Net	-11.0657
丄亗丞亢丞亟丁丩亟	-11.066
丛丣亞丠亟	-11.0662
▁个両亥丄丣丧云业	-11.0663
丁乿中丫亙丕产	-11.0664
blog	-11.0665
业亙丁二丣乿亣	-11.0674
丫丙亟丙乿亚丙	-11.068
▁Management	-11.0684
丗乿丧両	-11.0685
丟亜丫亜両亀	-11.0685
丣亀亟万	-11.0687
丣中业丄亥且严了丁	-11.0692
丁个亢丁丣丗亜丢	-11.0693
丁些且亥万	-11.0694
丗亟丢亟丗	-11.0698
丂亀中东亢且丞严亟且	-11.0698
丿	-11.07
Tags	-11.0701
丢亀亚両	-11.0703
丙亥丁丧亢丗丢亟丨亟个丕丣乌	-11.0705
个乿丧丙业乿亚万	-11.0706
170	-11.0708
中亥丙且亥业丫丙乿交万	-11.071
丧亢丁两丕亢	-11.0718
▁丛丣亞丈亗丛亣丁亟丣丨交丁丩亟	-11.0723
丈亥且丫亀亝両亣	-11.0725
且亓丙丗亟万丛亜丢亥万	-11.073
ALL	-11.073
业中且亀亣	-11.0731
业产丟丟乿亙丕乌	-11.0731
丁丣亞丛产丁	-11.0731
▁丧云业丞丙亥丙业中严	-11.0738
丄丧亟両丂互万丁亚丣乿万	-11.074
上亄丧	-11.0741
丈亥丁丣丞亠且亢	-11.075
中些下亟丁亀亟	-11.075
center	-11.075
中亟丕両亟	-11.0751
丞亙丣个	-11.0756
中中丕亀些	-11.0757
丞亥丒丙亟丗亥丁丩亞	-11.0757
丠些丄	-11.0759
业亠专	-11.076
上亀亗	-11.0778
▁丕亟丣亟万両亙丕丣	-11.0778
丨亙丣丩丐丁亢丈丞中丞亄万	-11.078
Beauty	-11.0787
丞亙严亢且丞亙严亢丙丛亜丁亥业	-11.0789
両丙丕丣亣	-11.0796
中中丁下亢丈亙丙	-11.0797
丫亀丧丢丂丧亟万	-11.0797
丞亢上亢丕	-11.08
VR	-11.0801
Siam	-11.0806
三严亟両	-11.0807
个丙中万	-11.0807
丁丣亞个亚丟亜丟亀亟	-11.0809
両亞严亢	-11.0814
乀	-11.0816
业亚丣乌	-11.0817
両乿亜丛云丙丣亜	-11.0817
丂亗	-11.0821
▁PRO	-11.0826
丗亀亥万个中万丗亣両	-11.0829
3000	-11.0833
両乿亜丫亙両五丙丄亝丣	-11.0836
丠亟丞丢丙丕丣乌丣乿了万	-11.0836
中亀中	-11.0838
丣亟业丣乿亡丙	-11.0844
uff	-11.0849
▁Max	-11.0855
个亡业丗中且	-11.0858
▁pm	-11.0859
丫両乿亨丁亊	-11.086
▁Huawei	-11.0864
丈亥丁丣丧亟严	-11.0864
丣乿亗丣丧丢	-11.0864
丢亀中両	-11.0865
▁丁丧乿亟丗乿亣丈亞丣亥丁丩亟	-11.0865
丨亙丣丩丐丨亟个丕丣乌	-11.0865
丕中业丗亚丙	-11.0869
丄乿亟丈亀亟万	-11.0869
▁Road	-11.0873
丞亚丄丁亙丈	-11.0873
丗交业	-11.0873
丣世且些丢个亟丣	-11.0875
丢亨丄亙丣丙	-11.0876
cell	-11.0882
丞乿亓両丕亓両且亀亜丗乿亣	-11.0883
丨亢严丛丧亥丒丙丘亠両	-11.0886
中乿中丙中亚	-11.0888
东云且	-11.0889
両亟且些丢丕严中且	-11.0891
丧产丘	-11.0892
个亙丧丙亟	-11.0892
丣亟丄亟世亨丁丗乿亣个产且	-11.0896
个亗丣云丈丁亟丣丨交丁丩亟	-11.0904
丮亞	-11.0906
丙乿亙	-11.0907
丕乿亜	-11.091
▁Application	-11.0911
亙上亥丙	-11.0912
▁Music	-11.0912
丨亥丞丗乌	-11.0914
个亍丂云両	-11.0914
★	-11.0921
丣些万万亟丙中产丕个亟丫丁亠両	-11.0924
中亟个亟个両亥丄丣	-11.0932
且亀亜丢亢丙个亄万	-11.0935
丞亢両丞乌严亟丢	-11.0936
个亙丣亢両丗亥丞	-11.0938
丧亢个亥丢丗亥丨丙乌	-11.094
个丧丙个亟丘亟丣专亞	-11.0943
中丧乌	-11.0944
▁Type	-11.095
丛丣亞丁亟丨丙亣丢业亥丕丣	-11.095
key	-11.0958
个丕亢丛亥不不亟	-11.0962
丢亟万丞亟丣亟	-11.0965
丄交丁丄亥丁	-11.0969
丂亀亍丣乿丧両丛丣亞上产両	-11.097
▁Ya	-11.098
丞互丄丁亙丈	-11.0989
且了丙両亣丙亟丄両	-11.0989
RS	-11.0998
业亜中些	-11.1018
丈亟丁丈亥万丫丧亞丗乿亣	-11.1028
中亢丙丕二丣乌丙亙上乿亥丙丙亚严	-11.1037
丞亢丙亢丈	-11.1047
丙亝丕乿亚严亞丧亥丙	-11.1056
丝乿亝	-11.1057
▁Author	-11.1057
严乿亄万	-11.1058
丫亜严丧亄丙	-11.106
2548	-11.1063
▁English	-11.1066
▁Multi	-11.1067
丁亟亠亥业丣亀亨	-11.1069
▁丄亙丣乿五万上乿亥万	-11.1071
tage	-11.1075
上亀亥丙丛丣亞世両丨交丁丩亟丛亣	-11.1076
中丙产个亟丧丣亣丢乌	-11.1076
▁丁亞丣亥丕	-11.1076
5000	-11.1077
丕丁丄亀亟万	-11.108
严产両丞亢丙亣	-11.1086
soft	-11.1088
pack	-11.1089
中亥丕丣亟个乿丧丙	-11.109
丙亟両业亥丕丣	-11.1095
▁丛丕丗	-11.1096
TOR	-11.1099
丗亥丁丗亟丢	-11.1106
2558	-11.1106
▁Travel	-11.1115
乿亓丙	-11.1117
丞亙丨上亟丢	-11.1124
丛亙严五丢	-11.1125
亃	-11.1125
亙丣亦且	-11.1129
丄些丣万个丣亀亟万丞亀亡丙丐亟丙	-11.1131
丗亗万亟丙丣乿丧両丁亥业	-11.1137
duc	-11.1138
丣乿产丙丞乿亣	-11.1139
严乿产両丙亀亗	-11.1144
丈亀中万	-11.1145
丁丣亞丗亢万	-11.1145
丣亟上亢丙亣	-11.1146
个丧且	-11.1158
丨产丁丣乌	-11.116
严交丁严亥业	-11.1162
▁Gclub	-11.1163
且了丙両亢世产丙亟丢丙	-11.1184
丠亢丩亙丁	-11.1184
丁丣亞世亟万	-11.1184
450	-11.1184
中亚丛丛亀亓严	-11.1194
▁Manager	-11.1194
丠亟丄中亣个亟丙	-11.1195
▁Food	-11.1202
plan	-11.1203
丣中业丄中业	-11.1204
中亜丄中丙	-11.1209
▁Off	-11.121
丣乿丧両个両亥丢	-11.1214
丙乿亟丗乿交万	-11.1214
中产且丫丙产丙	-11.1215
▁丫亀中万丞亥丁个亞中亟且	-11.122
业亍丫丧亟丙	-11.1222
丞些严亣	-11.1222
中产丛世亥両丠乌	-11.1223
丨交丁丩亟丛丣亞世両丨交丁丩亟	-11.1224
丞丣亟丫両专乌	-11.1224
丫丙亀亣个亢丙	-11.1227
°	-11.1233
丣些丄丫亖丈亝	-11.124
中亥丨丈亠丢乌	-11.1243
丞亢丈亢丕丣	-11.1244
2557	-11.125
个世亢丕	-11.125
▁个両亥丄丣业亟丄亟丣乿亟	-11.1252
上些丕亢	-11.1252
丛丣亞丈亥丁丩乌	-11.1253
严且丄丧亟両中亀丧丙	-11.1253
両中万丂亀亟両	-11.1259
▁丣両丧	-11.1261
丄中严亥両丙乌	-11.1263
中亙丟丧二丣乌丕亥丙	-11.1263
中丞亟丣乌丗両亙丙丗乌	-11.1263
store	-11.1265
且亨且丧万丞乿亜丢亢丛下亣	-11.127
2547	-11.1272
丁亙丩丕丣丁亠両	-11.1273
中亣丢亢丛丕乌	-11.1273
个丙亟両丁亣丬亟	-11.1276
▁Watch	-11.1278
Movie	-11.1284
丁亟亠亞业产	-11.1287
丫亙両五万	-11.1293
且了丙丞两丨丈亢丁亟丢丙	-11.1297
东亀亨丗乿亣个丙丈亝	-11.1298
丄丣亀亥万个产且丗亀亟丢	-11.13
丗产丣亄丙	-11.1302
亥丈三	-11.1306
▁Show	-11.1309
丣些丄业亍丫丧亟丙	-11.1312
严亥両	-11.1312
pantip	-11.1313
个亥万丁亙丕产	-11.1316
中亟丄亟亠	-11.1321
丄亝亠	-11.1323
丁亙严亦且	-11.1323
face	-11.1332
业亚严亦丄	-11.1333
▁User	-11.1333
▁个丧亥个且亣丄丣亥业	-11.1335
house	-11.1335
丣亟丩与丣	-11.134
丙亢丧丢中丣乌丁	-11.1343
中亚丙丕亢业中且亣	-11.1343
▁且亀丧丢丫亙丕产丙亀亣	-11.1343
丈亥万丫丧亥且丣亞丢中万	-11.1348
▁Not	-11.1353
个亟丗丣	-11.1353
乿亢万丗乿亣丙乿亟个丙丈亝丈亟丁	-11.1357
丧亢丗丢亟丂亙丕	-11.1357
丣丫亥个东乿亟丙	-11.1358
丣世丂云丙	-11.1367
丨亣严丘亠両	-11.1369
丄严亀中万	-11.1373
▁Marketing	-11.1374
丛亁亇	-11.1374
个丛亣且	-11.1377
世亚严万丁亟丣专乌	-11.1384
丄亚両丛乌	-11.1384
中丨些丁	-11.1391
丙于乌両亟丣乌	-11.1393
▁UV	-11.1396
且亀亜丣亥业丁亟亠亥业丣中万	-11.14
乿亢両	-11.1404
丛亟丣乌丄	-11.1404
丙乿产両丙丧严	-11.1405
life	-11.1406
▁両亢严严亢両亙丕丣	-11.1414
丗乿亣中亟丨亥丢中丢乿亨丙亝	-11.1417
丧亢严严乌	-11.1417
▁Continue	-11.1424
丠亥丢丞亢业亥丕亢	-11.1424
order	-11.1426
,000,000	-11.1431
亥不不亟	-11.1432
丛丁丄严产両	-11.1435
▁Health	-11.1444
両亞丂了丗亙丨	-11.1444
▁Internet	-11.1444
▁Brand	-11.1448
中亥丘丢亟丨亥丢	-11.1454
丛亙丣亣丢业个亙両五丙	-11.1455
丧亄丙丙亟	-11.1455
▁Review	-11.1459
▁个両亥丄丣严乿亙丙丄亟个亢丙些	-11.1464
bidding	-11.1464
丫些両乿万	-11.1464
且亣丁丣亣	-11.1471
▁丛亚严丗亜丢	-11.148
丛云丙丁亙両丗乿亣	-11.1482
丣亥丨両亣	-11.1485
丣亨丛严亥丁丩专乌	-11.1487
worming	-11.1495
丞亥丒丙亟丨亥丁丢丠亟丞	-11.1497
丙亀中万上亟丢	-11.1498
丮亀亍个乌	-11.1504
上亗丣产且	-11.1505
丕丣万丁亥丙丂亀亟両	-11.1505
个世亟业亥丙丁亟丣丨交丁丩亟	-11.1512
▁This	-11.1515
丞丢亟丘亢丕亖丕亡且	-11.1515
丣中业丣中万上丙亞严亓丨	-11.1515
个乿亄万上些丄	-11.1525
丞不亟丗亜	-11.1534
right	-11.154
丂亀亍丣乿丧両丁亢丈丁亠両	-11.1547
丁亞丗亢	-11.1553
丈亢丙且亟	-11.1564
个亢丙丄亀亟严予业丣亢丁亟丣	-11.1566
丁丣亞丛亂中万	-11.1566
丗丫亟亠	-11.1569
▁Color	-11.1569
Point	-11.157
丢些丄亞	-11.1576
且了丙両亙丩亟丢丙	-11.1576
丈丣亢万丈亥万	-11.1583
PER	-11.1585
丛丣亟业丛丣亟両	-11.1585
▁your	-11.1587
中亟丫丣亥业	-11.1587
亥丛丛	-11.1594
丄专亞东亀亨业丣亢丫亟丣	-11.1595
丣亄丁丁亥丙丧乿亟	-11.1595
1/2	-11.16
両丫亟个両产丗丣	-11.1604
严乿亟上亀亟	-11.1606
-07-	-11.1606
且了丙丞两丩丠亟丄両	-11.1607
丈亥业丕亟両中万	-11.1607
个亥不丈丣	-11.1618
丣亀亟丙中亟丫亟丣丁亝严亀丄亄万	-11.1623
个亡业丄亀丙	-11.1627
両云丁下亢丁些	-11.1628
丣亥丐个丠亟	-11.163
hand	-11.1634
丢亢丙且亣丕亀中丙丣亥业	-11.1635
上云丄中亢丙	-11.1637
丈中丣乌丈	-11.1641
严了丁下亀五个亢丙丄亀亟	-11.1641
丣乿丧両両五丁亥业	-11.1641
103	-11.1646
个丫丞亥丙丘乌	-11.1649
code	-11.1656
严亙个业亀亄丙	-11.1659
丕中丁丢亀亗	-11.1659
业亥且	-11.1662
rist	-11.1663
丛云丙丛亜中丢乿亟万	-11.1667
丞亥丙丘产丁亠両	-11.1669
丄丧亟両上乿产両上亀亡丙	-11.1669
watch	-11.1669
丟些丣乌	-11.1674
4.5	-11.1676
Email	-11.1682
両乿亜丕亀中万丁亥万丧严	-11.1687
东丙交丁	-11.1688
丁亟亠世丟亜	-11.1691
丁丣亞业丧丙丁亟丣东严亢丕	-11.1691
丁丣亟丟亢丁	-11.1692
丄乿亟丕中业丗亚丙	-11.1698
丞丣亞丢亙下亨	-11.17
▁且亨丣些万丣亚両丁亝严亀丄亄万	-11.17
下云丗	-11.1709
丄丧亀亟丣亟万丧亥严	-11.171
个世亟业亥丙丁亟丣万亓丙	-11.171
丛丣亞両丧严丁与丫両亟丢	-11.1711
丛亥丁丁乿亢万	-11.1712
中亟严亥丢	-11.1712
plus	-11.1716
▁丣丧両丗亀亥万个亀亢丙	-11.1717
丢亨丙亜丕云且	-11.1718
両乿亢万	-11.1721
iya	-11.1731
丛丣亞丈丧业	-11.1732
丁丣両上严丛丣亞丗亟丙	-11.1737
上亟丢且亚丙丠亟丄丕亀亝	-11.1743
▁Plan	-11.1744
丛严亨丁丞亡上	-11.1745
lick	-11.1759
丛亟严乌両	-11.1763
▁严乿亙丙丄亟个亢丙些	-11.1772
▁両亢丧丙亢丄	-11.1773
丗亥且	-11.1784
▁Station	-11.179
业亁亢丁业亜丄乌	-11.1794
严些丕亥个	-11.1794
严且丕亀丙丗产丙	-11.1802
丞亥丗严产万	-11.1805
▁丣亚万両亀亟	-11.1807
亞丫丧乿亟万	-11.1809
严产丁丂亀交丙	-11.1812
丣亞业亟且	-11.1815
乓乐	-11.1823
中亜且中严	-11.1836
三亚	-11.1839
丁丁丁丁	-11.1839
乒乐	-11.1844
▁丟亟丙	-11.1848
丛云丙丗乿亣丢中両丣亥业	-11.1856
丞亢下下乿亟	-11.1857
且丣亟両乿亟	-11.1857
丨亥丕丣亨丞亡上	-11.1861
丢事丢予	-11.1868
丞丣亞东亀亨丛云丙丈亀亍	-11.1868
丞乿亚万	-11.1885
丛亣丨亟丈	-11.1887
丄丧乿亗	-11.1889
news	-11.1891
业亚万丄乌	-11.1893
丞亀亡丙丗乿亣上亀亝个中丢	-11.1899
丕亀亟丙中丙产両亨严中亢个丣亞	-11.19
东亥丙东丧丙	-11.19
▁reading	-11.19
三亄业丞严亥丙	-11.1921
▁业両丈	-11.1921
严両丫亟丢丈亝	-11.1928
design	-11.1932
严乿亚丙	-11.1934
丛亀亟丢丁亗丁亥业	-11.1936
mAh	-11.1942
且亙丧亢且	-11.1953
raft	-11.1956
上亥丢业亟且亟严丧亢丗丢亟	-11.1963
中丙产个丣专乌	-11.1963
両乿亚丮乿中万个中丙	-11.1963
亁中业	-11.1971
业中丁且亀亜严于丧乿亟	-11.1972
▁中亢中亢	-11.1982
丙亜丗乌	-11.1983
中亢丕亟严亄丙	-11.1985
丗乿亣丁严乿亟丧両亟	-11.1986
严交丁下亀交万	-11.1987
▁个丙丈亝丕亢且丕乿中	-11.1987
両丫亢且严	-11.1996
丗些丣丄両丙亟丄両	-11.2
▁下亚万丕乌	-11.2007
丛丣亞丫丢亥且丞严亥万万亟丙	-11.2016
中乿亟万丗中万	-11.2016
个世亟丛丙亢丁	-11.2017
▁Casino	-11.2017
丝亀亍丣亞丧亥万	-11.2019
tail	-11.2027
且些丢丧亢丘亣三亙丞亟亞丈亊丈万	-11.2028
丙亢个个亥丙	-11.2028
▁上亚両丛亀亄丙个乌	-11.203
丫両亟丢严亙丂丗些丣丨亥丞丗乌	-11.2033
严亀亢万丄乌	-11.204
▁丣些万丣亄丙中丙产业亟严	-11.2041
▁业丈丁	-11.205
丫严中丁严丧万	-11.205
个亀了东亀亟丟亚上乿亥丙	-11.2056
丙亢丧下亣严亚丙且乌	-11.206
у	-11.206
丧亀产丙	-11.206
丁亟丣严乿亙丙丞丙亥丙	-11.2069
丣了业亝个亣丟亀亟	-11.2071
丕中业丁严亥业両乿了	-11.2071
丨交丁丩亟丂亀亥丙丞亀亡丙丐亟丙	-11.2073
丁亟丣且亗丙亓丙上亣丧亢丕	-11.2079
严亙丂亟丙产丁亟丣	-11.2082
▁Video	-11.2082
个亟丣个丁亥且	-11.2082
丢些丘亟	-11.2099
亥丗丘	-11.21
両丣且丁严些丁	-11.2101
丝亣丗亀亍	-11.2103
丟亀亨且	-11.2103
丄严亢丛丛亁些	-11.2117
▁Ultra	-11.2125
丁丣亞业亞	-11.2131
丁丣亞上亟丁	-11.2133
严亢丟丗乌	-11.2136
个亥両両亟个亥両丞产丗丘丈亀亍	-11.2136
东亀亨丗亟丙両亥万个丧亢丣亥丕亢	-11.2136
⠀	-11.2136
丝乿亟両五	-11.2142
三了丙	-11.2146
万亓丙中产且丫丙产丙	-11.2156
中亥丙丙乿了万両亟丈亟丁	-11.2157
1.8	-11.216
丄些丣中亙上亄	-11.2164
丈亗丛云丙丈亞丕亀中万	-11.2166
▁Link	-11.2167
丙亥且丫両亟丢	-11.2169
严亓丟	-11.2169
丁亙丩丕丣丨亟个丕丣乌	-11.2174
个丕亚丙	-11.2178
丗亟丧丧二丣乌	-11.2179
video	-11.218
両亠丄	-11.2183
中丧亥丢丧亞丞亙丨上亟丢	-11.2185
丮亄	-11.219
个亥万丁亞个亣	-11.219
丨丣亣丣亟上亟	-11.2195
................	-11.2202
▁Sale	-11.2204
丫严乿中严乿亡丙	-11.2214
丣交	-11.2226
上亟丂亄丧	-11.2229
丈亁亙	-11.223
+++	-11.2232
750	-11.2236
下亓丣乌丟丧二丣乌	-11.2245
丂亀亙両万丧且	-11.2247
且了丙丘亥丙丧亟丄両	-11.2248
个両亥丄亠	-11.225
上且上亀亝	-11.2253
丄亥且丄亀亟丙	-11.2256
丗丧亢丕丕二丣乌	-11.2256
且亣丧亣且亣	-11.2272
丛亀中万丁亥丙両乿亜丫亀亝	-11.2274
make	-11.2277
▁Permalink	-11.2278
丫丢丧丙	-11.2278
丞乿亓両丄丧亟両丂互万丣亚万	-11.2286
丁亙丩亣丢专	-11.2289
▁Key	-11.2289
丫亟且丗丣亟丢	-11.2291
业亟万丁亞丛亢	-11.2311
▁Motor	-11.2315
丁亁亢丁	-11.232
严亀中両丣中业	-11.232
TRA	-11.2331
下亥両下产万	-11.2333
中亟丣乌丈亙丙丕亢丙亟	-11.2333
中亢丫丣乿亟丙	-11.2344
个亢丗丘亢丛丣亞丢些上丙乌	-11.2354
両亟且丣亢且	-11.2355
东亀亨业亥不上亟丁亟丣	-11.2355
三亙严亢両三严中万	-11.2356
▁Comments	-11.2357
丞产丗丘丨亥丁丣亟上	-11.2359
丁亥丙严予丁亥丙	-11.2364
丣亗丄亟不	-11.2366
亢丙不乿些	-11.2367
▁Open	-11.2377
上亀亝个中丢	-11.2382
乿亥	-11.2383
些丧亢上	-11.2384
丞亢丗丢亟丄両	-11.2388
Comment	-11.2389
丂亥且丂丧亟万	-11.239
东亥业	-11.2391
丛丣亞丁业	-11.2399
丁丣中业丂亙丕丗些丩	-11.2399
且亜中亟丣乿亣	-11.2399
▁Street	-11.24
丛严亥且丁丣亞丗丣丧万	-11.2403
丈亥万丫丧亥且丙丄亠亟上个亣両亟	-11.2408
且了丙个亢万丫亟丄両	-11.2411
▁Grand	-11.2412
丄亀亟丛严亣丁	-11.2415
HER	-11.2415
丗乿亟丫両亟	-11.2416
丗些丣个中业世亟両	-11.242
丞两丫亥个	-11.2422
中产両些万丄乌	-11.2422
丁严亟丢両亟丛云丙	-11.2424
丣亞业亟丢中亟丁亟丨	-11.2427
/2552	-11.2433
▁丧亀亙丙丕乿亚	-11.2435
iko	-11.2444
个亥万丂乌	-11.2455
▁Resort	-11.2455
丛丣亞上产両丄专亞丁亠両丁亟丣	-11.247
万亥且	-11.2479
丫亙両亟亞丁乿亚丁亟丣	-11.2488
丙乿亟丕乿亡丙丕亟丕乿亡丙丈亝	-11.2488
中亥丞丁亙丣且	-11.2492
丞亠丄丁亟丣両了万	-11.2493
▁Technology	-11.25
▁Toyota	-11.25
亂亨	-11.2501
▁Code	-11.2503
上乿丧万业乿亟丢	-11.2522
EST	-11.2527
个亢丗丘亢両丙产丩丢上丙	-11.2534
中亟上亣丧丨交丁丩亟	-11.2534
且了丙丁丣丁与亟丄両	-11.2545
丞丣亞业丣両丣亟上亢丙亣丙亟世	-11.2545
世丙中両	-11.2546
世亜	-11.2547
上乿亚丂互万	-11.2549
丆些丩丁	-11.2557
▁Nov	-11.2558
両中业丫両亟丢	-11.2566
丣亟丁丐亟丙	-11.2567
丄亙丣乿万丄丣亥且	-11.2568
个丛二丣乌个	-11.257
▁丗亗严亙且亣	-11.2571
▁(3)	-11.2574
下些严亨上乿亥丙	-11.2579
▁Bluetooth	-11.2579
两且亨丝丙	-11.2582
亥丏丐	-11.2583
両乿亥万丄乿亥万	-11.2591
下亙丧乿亙丙	-11.2591
両万丁产与	-11.2591
丟丣亣丄亢丁	-11.2591
个丕亨严	-11.2605
东亀亟両乿亟丙	-11.2606
Direct	-11.261
丂亀丙	-11.2624
三丙丧丙丁亥丙丄丧亟両丣亀中丙	-11.2625
丙亢且丙交万	-11.2629
丞亄万丗乿亍丙亀亣	-11.2637
丛云丙中亞丣亜丗乿亣	-11.2637
両乿亜丙乿亟上乿了	-11.2641
両亙严亦且丞亥丙丘产乌	-11.2641
super	-11.2645
丣亞业中业	-11.2648
▁number	-11.2659
个丧乿亟丙	-11.2671
丨丣亣丙丄丣亢丙丗丣乌	-11.2682
丕丣丧丈上云丄	-11.2684
个乿万个亙丣亢両丁亟丣丁亙丩丕丣	-11.2688
丮丧万丈亀产丢	-11.2693
丞云不	-11.2694
丁亚丣両	-11.27
中万乿产丙	-11.2703
下乿交万丁亥丙严予丁亥丙	-11.2704
丟亢个亢丁个乌	-11.2705
丢亥丙丕乌	-11.2707
东亀亟丫乿両	-11.2708
ough	-11.2713
丛与亢	-11.2717
両乿亜丙乿亚丈亝丧乿亟	-11.2724
▁NEW	-11.2729
丞丫严丢些丘亢丙	-11.2739
个丕些丣乌	-11.2751
个亥両丠亟丣亞	-11.2753
丁丣亞丗亗东亢且	-11.2771
▁available	-11.2774
▁丕亖严了丁中亟丫亟丣丈亙	-11.2774
丈亢丕个亗丙交丁	-11.2777
丄亗丨亥丞丗乌	-11.2779
丣中业上亢万上丙亞严亓丨	-11.2786
丧亢丈亢丕丣	-11.2789
丣世丁亂亙万	-11.2798
丁亟亠亞业亟丢	-11.2798
丟亓丣乌両	-11.2809
▁Cream	-11.2809
丄丧亟両丣亀亨丄丧亟両丂亀亍丈亝	-11.281
▁下亙丣亄	-11.281
丛丙丛亀了丙	-11.282
丂亣且丄丧亟両个亟両亟丣世	-11.2829
严亥万丁亟	-11.2835
亜且乌	-11.2841
个亥丁丙亢且	-11.2843
严了丁业亚业丛严中且丁严亨丕亙丙	-11.2844
丣亥万个亠丄乌	-11.2845
亞丮乌	-11.2846
严些丈亢个丕亢丁个乌	-11.2855
/2550	-11.2855
丣中业业乿亚万丁严乿产両	-11.2856
NET	-11.2859
个中且丄严亀中万	-11.2861
6,000	-11.2874
丄些丈丣	-11.2876
Print	-11.2877
丗产丈丣亢丕	-11.2877
▁丫中丛丣亞上产両	-11.288
丁亟亠亞且亥业	-11.2886
8,000	-11.289
丗亙丣丙	-11.289
丫亀中万丙乿亥万严乿亙丙	-11.2891
丣亨丂产両丂丙	-11.2902
亥丁丩乌	-11.2906
且亥业丞亙严亢万	-11.2916
丈亥丙丗丙乌	-11.2926
个丧亢丕下二丣乌严亚丙且乌	-11.2926
中个亥万丫亟	-11.2934
丛丨产个亥丕丧乌	-11.2937
个亠个亙丣亢不	-11.2937
丮亚丛丛亀亣	-11.2949
丈产且上両丧亢丧	-11.2955
个亥丛且亟丫乌丗乿亣东乿亟丙両亟	-11.2956
丂両亀亢丙	-11.2961
亓丣乌且	-11.2962
丄于且亀亜丢亢丙	-11.2964
亠亟上	-11.2967
丛亁中丛	-11.2973
丣乿产丙中亟丢产両乿亜丁亓丙	-11.2973
中产业些个世	-11.2977
个丧丙东亀交万	-11.2979
业亚万丄亘丁	-11.2985
中产丛丁亟丣亞	-11.2985
両亣上亣丧亢丕上亣丧亟	-11.2996
中丧丢丞丣	-11.2996
丈亢丕中亟个亟	-11.3001
业亟万丂亙丙	-11.302
丙亢両亢丕	-11.303
両亢丧个亢丄	-11.3032
丙両亥个丁亟丣	-11.3033
中亜丨丄丣亣両	-11.3044
丣乿产万丣些丈丙乌	-11.3045
drive	-11.3049
且中丣乌丗両产丙且乌	-11.3056
中中丁业亚业両亟丞乿了	-11.3056
中产且両丛亜且亀丧丢	-11.306
业亟且亟严	-11.3061
东亀亨中亗丙丧丢丁亟亠些万丣亄丙	-11.3068
丗亟万丫严丧万丫両亟丢严亙丂	-11.3081
両亣个乿丧丙东个両丂中万	-11.3082
▁东両丙亀亗丕亟严丂亀亙両	-11.3091
严且丄丧亟両个乿亄万	-11.3101
亟个丙乌	-11.3103
丟产丕下中严	-11.3115
丁亀亨丠亥丢	-11.312
丞丙亥丁万亟丙个中业个丧丙	-11.3122
丗亢丨丫亙丙五	-11.3125
丞亢丁下亙严	-11.3127
个丫丛丣亞上亟上亟丕亢	-11.3127
丄亣丢乌业中丣乌且	-11.314
丈乿亚両个亝	-11.3141
▁丂中中丠亥丢	-11.3142
▁School	-11.3151
丁亙丣亟亞	-11.3151
html	-11.3163
30,000	-11.3165
丁严亀产両	-11.3166
丛亀了丙	-11.3199
▁Eye	-11.3201
丫丧丢丢乿亣丁亣	-11.3212
ASEAN	-11.3224
丛乿亥丙丈亥丁丣丢亟丙	-11.3227
丕乿亢万	-11.3236
丣丧両丕亖丁亥丙	-11.3239
丒乿亍	-11.3249
下乿中両业亗丣产万	-11.3253
丝交丁丫亥且	-11.3255
东产且	-11.3256
丧亢个亟丫丁亢丈	-11.326
丛亚下亢丟亢丁	-11.3272
Black	-11.3284
丈产且両乿产万丫両亟丢	-11.3284
両亞丂亟両	-11.3284
且亢丙个中	-11.3285
丛丣丁丕亢	-11.3296
丗亥业丗亢両	-11.3309
丣交丛亙严乿亟	-11.331
▁严亀亟丙丫亙丣亣丢不	-11.3314
▁this	-11.3318
丫于亣丢且	-11.3321
乑乗	-11.3322
业丣亢丫亟亠	-11.3324
body	-11.3326
中产业亥丕亢	-11.3331
丞丣亞両丫亟丁丣产专亟丘亢丄产专	-11.3333
丛丣亞专亣丕	-11.3333
両亥严丧亚丣乌	-11.3333
▁丿丿丿	-11.3333
Electro	-11.3333
上亣丧丧亢丗丢亟	-11.3343
丄中丣乌丛中丣亙上乿亥丙	-11.3345
丁亙严乿亣丢	-11.3358
丫产业丂亍	-11.3358
丫严中且严了且且亗丗乿亣丂亟	-11.3358
▁丈亥丙丗丣乌中些上亟	-11.337
▁両亢严严亢丁丣亥両	-11.337
个产丈丣亢丕	-11.3372
且亣丗亚丄	-11.3382
▁Access	-11.3383
且亥业业亀亓严	-11.3394
下二丣乌丞亜丣个乌	-11.3394
丁与丣亞业亄业	-11.34
个亟丫丣乿亟丢	-11.3407
lpro	-11.3414
丫亚丧丁	-11.3416
且乿亢万	-11.3419
个亥万个亠丄乌	-11.342
Poly	-11.342
个丕二丣	-11.3425
▁Nikon	-11.3431
▁Category	-11.3444
丠亟丩亣両亨严丄乿亟丞乿亓両	-11.3444
中亢丙丗丣亣	-11.346
▁Flash	-11.3469
亙丣亣丢万	-11.3469
中乿中丙丙产上	-11.3471
丄亟丣亟中些丁亇	-11.3475
严亗严亄万	-11.3481
▁Search	-11.3481
両亣丙业产丣亣	-11.3494
丛丣亞丁丧且丣亟丄亟丈亀亟万	-11.3495
业亙丣亟丧乌下二丣乌	-11.3506
亁亢业	-11.3514
世乿了丙	-11.3518
丙亙丘二丣乌严亚丙且乌	-11.3518
业亨丣丞亟	-11.3518
上亞中亗	-11.352
丣亞丢亞丫乿亟万	-11.3535
亂亙	-11.3537
个丧且両丙丕乌	-11.3544
中亢丈三亟	-11.3556
丁亟亠亟丢万亟丙	-11.3556
业亚万丁乌	-11.3556
个両亥丄丣且亀丧丢丕丙中亙万	-11.3561
▁Special	-11.3568
丨产严丁亟丁丣	-11.3568
両亟丣丢亟丗	-11.357
中交且中亥且	-11.3581
丁亥丛	-11.3586
亀亥	-11.3589
丞亙上丣丁亙丩両	-11.3595
亁亙丁	-11.3605
movie	-11.3606
个乿亄万丕乿中丁亟丣	-11.3611
丗二丣乌业些	-11.3614
业亣丗亣中亙个	-11.3618
丂亨且	-11.3619
世亙丣亞	-11.3621
»	-11.3628
丄专亟丈亟丣丢乌	-11.3631
丙亟丣亟丢专乌	-11.3644
业乿万上亀亣	-11.3644
个丢亟両业丣両丣亟上丁产両亟丣亣	-11.3644
丗产丁丠亟丄个乿丧丙	-11.3644
丣亄业丙亄丙	-11.3647
上亚丣乌丁両亚万	-11.3656
且了丙丁产両丠亟丞亥丙丘乌	-11.3656
业亁亨	-11.3661
Anime	-11.3664
丗乿亣且亀亜丣亥业両中业丫両亟丢	-11.3668
丛丣亞丗亀丧万	-11.3669
个亟両专亙丣	-11.3682
▁Premium	-11.3682
且亀丧丢丧亢丘亣丛丣亞丁丧且丣亟	-11.3684
丄亚严亢丟中丣乌丙亄	-11.3694
media	-11.3697
丨交丁丩亟且亨万亟丙	-11.3699
▁Mitsubishi	-11.372
丈亀亚万丧亥丒丙亞	-11.372
下交両丨亙丣亀亟	-11.3721
ould	-11.3724
丞亥丒丙	-11.3726
个亀了上亀亓丕	-11.3732
三亙严丢	-11.3732
丛云丙丛亜両乿亜且亀亜	-11.374
中亥丙丕些丙亢中些	-11.3745
丄丣亢个丕乌両亟个	-11.3745
丁亁中丁丙亀亗	-11.3746
且亗丣万丐亟丙亞	-11.3746
両亜丄亓严	-11.3758
world	-11.3784
丣亞丙中万	-11.3784
▁且亟丧丫些严且	-11.3787
中产丗丁丠亥丢	-11.3796
▁BMW	-11.3809
丢亢业	-11.3813
丠亥丢丄产丁丄亟両	-11.3822
丨些丁	-11.3829
丗云丈	-11.3831
丣亞丆亥万	-11.3848
下乿亄万丮亀亜	-11.3848
丂乿両	-11.3848
丨亙丣丩丐	-11.3851
丗丣亥両丛乌	-11.3861
丙丧両亢丙丗丣乌	-11.3861
个亟丫亥个	-11.3861
丂亥丙丘乌	-11.3874
丫丙亀亟东亟丁	-11.3878
▁YouTube	-11.3886
严亥丗丘亢	-11.3886
丁亙丩丕丣中亢丙丗丣亣丢乌	-11.3893
dress	-11.3895
丣丧业	-11.3899
丁丐亢丙	-11.3899
▁SEO	-11.3911
丂亀亣丁亄丈	-11.3912
中亙中亙丟下亣	-11.3912
index	-11.3912
且丧万上亞丕亟	-11.3913
亂些	-11.3919
丞亚丣乿丁丣亞丈亟丢	-11.3922
▁Anti	-11.3933
个亀了丛些严些	-11.3938
両亟个且亀亟	-11.3939
丁乿中丁亟亠亀亟丢	-11.3964
丗亗严亙丗乿亣丕亀亥万	-11.3968
丙亟丢丁丗亙丨両丙丕丣亣	-11.3977
丂亀亍丣亥业丣亟上丁亟丣	-11.3977
Wind	-11.3979
丘产丣丁亟丣	-11.399
丣亞丠亙丗丂中万丗丣亥丞丢亟丁丣	-11.3991
中中両丗丣亥丞丢乌	-11.3993
Club	-11.4008
丄丣亨东亀亨个中丙丢中且丢乿亄両	-11.4016
中亚丛丞严亢丄亙上亥丙	-11.403
丫万产且丫万亢且	-11.403
丁丣产万丨丣亣中丢产丘丢亟	-11.403
个世亟丛丙亟	-11.4043
严亞丄亠乿了万	-11.4043
両乿亜丁亜严丈亟丁	-11.4051
▁丕乿亚丗丧乿亟	-11.4053
丛亥丈丈	-11.4055
丫亥丕世丁亠両	-11.4056
丄中丙丗些丣严	-11.4058
<<	-11.4059
両亣个产丂丠亟丞且亣	-11.4068
▁Season	-11.4069
▁丣亞且亥业万亓丙且了丙	-11.4071
丕严中且丗亀亥万丛亣	-11.4073
丣且丙亀亗	-11.4073
丣亥万丁亄丈	-11.4082
丂亀亜丫丧亥且	-11.4095
丝亥丁业亖	-11.4095
中丞亟丣乌丗両亀亙丙丗乌	-11.4095
丫于亀亟	-11.4096
丂亥且丢亀亚万	-11.4099
中亙丙丁丛丣亞个万丄乌	-11.4109
iving	-11.4112
个严亜且乌	-11.4122
中些严且乌	-11.4122
丞亜丣亊	-11.4124
个丕亢丁丁二丣乌	-11.4135
丄亙业亓严	-11.4135
个亙且亦丈丞丣亞丣亟上且亗丙亓丙	-11.4162
cactus	-11.4162
个万丄丣亟両严些丁丄丣亀亥万	-11.4162
个亢万丫乌业产丣亣	-11.4163
丄丧业	-11.4173
▁Science	-11.4175
mobile	-11.4175
个亥万丂亟丣	-11.4176
丧亚且严亀中両	-11.4182
両乿亚丙亀亗丂些万	-11.4188
中亀中丢严予丙亀亗丕亟严丗丣亟丢	-11.4188
▁Edition	-11.4188
丈亗丙亚丁	-11.4188
丧上亢丣	-11.4191
down	-11.4196
spec	-11.4196
世亥且	-11.4196
丁亚丧乿万	-11.4202
业严亨丗亨丘	-11.4202
个亢万丫乌业严亨	-11.4202
▁严亙丂丣亄丁丫丙亥万个五	-11.4215
丧亢丛亥个个丙亟	-11.4215
丁亟亠丧业丣丧両	-11.4215
丞亟丧丧二丣乌	-11.4221
丣亟上丗亙丧亣	-11.4228
▁SPF	-11.423
丌亟丙	-11.4253
両产丁且亟丫亟丣	-11.4255
▁中严云丁下乌	-11.4255
両交丙	-11.4256
丁丣亞丛亂亍个亞丞亟丢	-11.4268
丫丙亣両乿亜丞亀丙	-11.4269
丟亢严亢丛	-11.4272
丁両严	-11.4274
▁丁亟丣丁亗丈亥且丂中万	-11.4279
丙亙丣両亢丕	-11.4287
上亥丕丕二丣乌	-11.4295
世亀中丢丄亗	-11.4322
严亀了丢	-11.4322
▁08.30	-11.4323
个亗丙丧丙	-11.4336
GHz	-11.4336
丈亗丛云丙丗乿亣丈亞丕亀中万	-11.4341
亁亇	-11.4344
▁丧云业业亟丄亟丣乿亟	-11.4359
▁Items	-11.4363
power	-11.4364
个亥丈丈	-11.4367
gree	-11.4369
丕中业个丙中万丄丧亟両丕亀中万	-11.4382
丄中両両亢丧丙亢个丕乌	-11.4404
source	-11.4404
丞亜业亨严丢乌	-11.4417
丕亖丄产专中亙万	-11.4432
place	-11.4451
业些丣丁丁二丣乌	-11.4458
丁严亀亟丫亟不	-11.4472
▁両亀亚丁丣亞丙亀亥丙	-11.4472
両些且亨严	-11.4475
中亥丄丣	-11.4476
丗亙丞丣亥丕丙丣亟上个产且亟丯	-11.4499
下些上亄严両亣且亄	-11.45
三亟业	-11.4513
业丣亢且丈乌	-11.452
▁download	-11.4527
丮亜且些丣丈亙丙	-11.4541
両乿亜丞交万丛丣亞个万丄乌	-11.4541
▁PHP	-11.4541
▁丙亟丬亢丁亟丂亀中両五	-11.4555
▁Development	-11.4568
▁両亙个下乿亣	-11.4568
上亥丁丧乿亟丧	-11.4582
三亄业	-11.4583
▁丗亚万丞丙亥丙业中严	-11.4583
丈亗丙中万	-11.459
丂中业丞丣亞丄产专	-11.4596
丧云丛	-11.4596
丫亙丙乿亣丢丧	-11.4638
丫両乿亢丙	-11.4644
丁两丕	-11.4663
丣亥业丣亟万丧亥严上丙亞严亓丨	-11.4712
东严亢丕严予丈亗丫丙乿亟丢	-11.4725
丧亥丏	-11.475
个両両产丕亢	-11.475
个丞丐	-11.475
▁丿丿	-11.4751
丄丙丣中业丂亀亟万	-11.4751
中亙丙下亜両乌	-11.4764
上亙丩丐	-11.4778
▁Women	-11.4778
丞严亟下乿亟	-11.4793
丞丣亞丂些丙万	-11.4807
article	-11.4808
丝乿亟丝亡丙	-11.4821
丮亚丙且乌	-11.4822
个丧亣丗	-11.4822
丣中万上丙亞严亓丨中亥丙且亥业	-11.4824
丛云丙中亥丙丕丣亟丢丕乿中	-11.4849
上产且上亀亥丙丙亝	-11.4852
业丣亢业亨丣专乌	-11.4863
丮亙且丄亀些上	-11.4863
丣亥业丁亟丣両亟丢了丙丂中万	-11.4888
丛亁亢丁中亥丞	-11.4892
丗亢万丈二丣乌	-11.4892
info	-11.4907
▁National	-11.4921
业亚丣丙且乌丙亙両	-11.4921
▁且亀亟丙丙丧亥丕丁亠両严予	-11.4923
丛亀中万	-11.4926
丣世両亙严乌	-11.4935
世亙丣	-11.4937
亞丮为	-11.4943
丞丣亣両亄丣乌	-11.4948
▁TOYOTA	-11.4949
下亥丞丞严亟丢	-11.4964
中亣下亨下产	-11.4964
PORN	-11.4964
丞中丣乌丗	-11.4971
9,000	-11.4977
三些丙且	-11.4978
丧亢丞亟丁丩乌丧亢丈亟丣专乌	-11.4978
▁Nissan	-11.4993
丕亞丁乿亖	-11.4993
0.30	-11.5
丞亢世亣丞亢世亥丙	-11.5007
两且亨业亝両亀亜丣乿丧万	-11.5007
丕严亥业丫両交丁	-11.5021
class	-11.5022
个丄亚丧丣乌	-11.5036
丁丣亞且产両	-11.5036
▁[-]	-11.5051
丄两丫	-11.5051
丄丣乿亟丧乆	-11.5065
丁亀了丁亨严	-11.5065
丄专亞中丙产丁亠両丁亟丣	-11.5065
亙丙且二丣乌	-11.5073
丕乿中両严亨丁丫両亟丁	-11.508
丁个丗上	-11.508
丁丣亞丫丙乿亗	-11.5089
丛丣亞丗亥业丈亝丙亝业丣亢丁亟丣	-11.5094
中亥丛且亙丕	-11.5109
丫両亀亥丙	-11.5109
▁Excel	-11.5112
业亠专亟丘亢丁亟丣	-11.5123
丙亁些丕业亁产丄	-11.5123
▁Collection	-11.5138
亁亨且	-11.5155
丄亙丣乿五万丕乿亚万丁亟丢	-11.5167
両亢丕下亨业亢上亢	-11.5197
丞丣亣両亄両	-11.5256
丢亟丛丏亢上亣丧丙亞	-11.5256
丄丣产丠亥专丑乌	-11.5257
丘亥両両	-11.5261
中亥严严中丮为	-11.5271
casino	-11.5271
▁丢丁丕亖中丢乿亟万上乿亙丙	-11.5271
丕亞丁亚丣万	-11.5286
业亠严亙万	-11.5286
丗互业	-11.5286
bkk	-11.5286
丁丣亞丕产丁	-11.5301
両些严亙丁产严	-11.5315
丠亥丕丕亟丄亟丣	-11.5315
丞亀中万	-11.5316
中亙个中云両中亣	-11.533
▁Chrome	-11.533
丫亀丧万	-11.533
丄中严严亙丄上乿亥丙	-11.5345
丈亀亢万丈中丁	-11.536
业些丣上亖丣乌	-11.536
丫亙严乿五両	-11.5375
丈亀亞	-11.5375
▁Garden	-11.5375
▁丄亗丄亀丙	-11.5385
两且亨业亝両亀亜东严亢	-11.539
▁America	-11.539
丙亀亗个亀両个亟丢上亨	-11.5405
▁Agoda	-11.5405
丞两丁丩亟	-11.5405
丁丣亣丁	-11.5414
丮五丮亟	-11.542
丛些丣且丁亙严亀亟丯	-11.5435
THAILAND	-11.5435
丧亢丧亥丒丙亟丁亟丣	-11.5435
両丫些个世	-11.5451
▁Views	-11.5451
丨交丁丩亟両亥丘丢両丨交丁丩亟	-11.5461
三亙且个亣	-11.5463
丟亀亚両	-11.5481
丛亀中万丁亥丙严予丛丣亟业丛丣亟	-11.5483
个亥业丛亞丣且	-11.5496
▁Hosting	-11.5496
中中个丕亙丣亣丢	-11.5496
▁Style	-11.5496
両丣丁丕	-11.5511
Google	-11.5517
个亨丕亠	-11.5526
个世亟丙丛丣亞丁中业丁亟丣	-11.5527
中亥丙且亥业丕亀丙乆	-11.5543
▁Jobthaiweb	-11.5557
丣些业亓丣乌丕	-11.5557
両乿亜両亣丫亀中万丧乿亟万	-11.5557
丞丣亢丕丕亀亣	-11.5572
丫丙中万业亖严亗丠亨	-11.5572
上亘丁丁些严亚丕	-11.5572
丛亁亙丛	-11.5572
丣亚万丈亨万丈亝	-11.5572
上些丧乌丣亨両	-11.5572
丗乿亖乆丛亜	-11.5573
个亠丄乌	-11.5576
丣亞东亀亨両亣丞丣亞丠亟丄丈亀亍	-11.5587
东亙且亦丈丁亟丣	-11.5588
中亥专丑亞	-11.5588
丟了万	-11.5588
丁丣亞丞丣亢业	-11.5603
丄亙丣乿五万下亥丁东亀亟	-11.5603
▁Magic	-11.5619
7,000	-11.5628
业亨丣专	-11.5631
‘	-12.0893
′	-12.5568
·	-12.6742
丱	-17.5118
串	-17.5119
丳	-17.5119
