<unk>	0
<s>	0
</s>	0
▁	-2.31879
ที่	-4.53381
.	-4.60815
,	-4.8024
ของ	-4.97559
และ	-5.03868
ได้	-5.2535
ใน	-5.28183
▁และ	-5.35259
เป็น	-5.48109
)	-5.49147
▁(	-5.56872
ให้	-5.58506
การ	-5.69226
า	-5.72828
มา	-5.76484
กับ	-5.86174
มี	-5.86586
จาก	-5.87376
-	-5.90159
ไป	-5.95565
ม	-6.03575
นี้	-6.06643
ว่า	-6.09426
น	-6.09622
s	-6.104
จะ	-6.12246
ส	-6.13909
แล้ว	-6.19584
ก	-6.2435
กัน	-6.30053
ด้วย	-6.31312
ก็	-6.32163
ตัว	-6.35637
ไม่	-6.35936
ค	-6.36764
▁แต่	-6.40562
▁2	-6.43799
ด	-6.44163
”	-6.44315
ทาง	-6.46141
▁1	-6.46393
ย	-6.4678
▁หรือ	-6.47258
ดี	-6.47298
หรือ	-6.47518
ๆ	-6.47979
▁“	-6.49202
แบบ	-6.51063
▁โดย	-6.54173
นั้น	-6.56446
ง	-6.56891
▁ซึ่ง	-6.57079
อยู่	-6.5754
ความ	-6.58438
:	-6.58623
ทํา	-6.59811
/	-6.59967
ใช้	-6.60683
ว	-6.61006
งาน	-6.61882
ต	-6.62099
น้ํา	-6.63097
ท	-6.64155
อย่าง	-6.65256
▁3	-6.65376
ต่อ	-6.65587
มาก	-6.67694
เพื่อ	-6.70201
▁-	-6.73627
สําหรับ	-6.74186
ร	-6.76906
บ	-6.78303
คน	-6.78476
ล	-6.78693
ถึง	-6.80588
▁ๆ	-6.82151
หน้า	-6.8365
ใหม่	-6.85092
▁มี	-6.8743
ตาม	-6.87689
"	-6.89449
ป	-6.90413
ผู้	-6.91455
ต้อง	-6.92344
ดู	-6.94904
เลย	-6.95215
เข้า	-6.95613
รับ	-6.98197
ขึ้น	-6.98207
ไทย	-6.99366
▁S	-7.00471
ทั้ง	-7.00491
อ	-7.01214
เรา	-7.01491
โดย	-7.02309
ในการ	-7.03202
เรื่อง	-7.036
อีก	-7.04294
เล่น	-7.0493
ห	-7.05045
e	-7.05618
▁4	-7.05623
y	-7.05667
พ	-7.0629
ที่มี	-7.0661
รถ	-7.06747
ใจ	-7.0678
ครับ	-7.07292
บ้าน	-7.08983
ศ	-7.09331
▁เพราะ	-7.09429
เงิน	-7.09521
▁การ	-7.10259
บน	-7.10556
ออก	-7.10997
มัน	-7.13218
ภาพ	-7.13468
▁:	-7.13614
▁เป็น	-7.13625
...	-7.13801
B	-7.14284
สามารถ	-7.14754
▁#	-7.15354
ผม	-7.16353
คุณ	-7.16655
คือ	-7.16947
ก่อน	-7.17384
▁5	-7.18637
ที่จะ	-7.19146
ระบบ	-7.20561
▁ปี	-7.20584
ช	-7.22653
ไม่ได้	-7.23618
เขา	-7.23927
แต่	-7.23967
พระ	-7.25229
ทุก	-7.25447
ลง	-7.25779
เมื่อ	-7.26296
ต่างๆ	-7.28459
ปี	-7.28751
▁C	-7.29095
ถูก	-7.29384
ไว้	-7.29415
สินค้า	-7.29512
▁"	-7.29641
ราคา	-7.30292
วัน	-7.30385
▁เมื่อ	-7.30729
กว่า	-7.31203
ข้อมูล	-7.32158
ใหญ่	-7.32377
n	-7.32522
ออนไลน์	-7.32864
E	-7.32947
ยัง	-7.33384
▁เพื่อ	-7.3416
er	-7.34784
ยา	-7.34876
หลัง	-7.35741
ลูก	-7.35932
หา	-7.36351
นํา	-7.38141
t	-7.38245
▁|	-7.38629
2	-7.39591
หนึ่ง	-7.40217
▁A	-7.40913
จ	-7.41782
ผ่าน	-7.42221
เวลา	-7.42359
ตา	-7.42829
ส่ง	-7.43275
เมือง	-7.44067
ฟ	-7.44793
▁ใน	-7.44923
S	-7.45018
ทําให้	-7.45973
สี	-7.46139
อาหาร	-7.46347
เครื่อง	-7.46851
เปิด	-7.47627
(	-7.47998
ขาย	-7.48175
▁P	-7.48241
ติด	-7.49261
▁บาท	-7.4959
▁พ	-7.49752
ซื้อ	-7.49982
▁M	-7.50322
al	-7.50406
▁F	-7.51585
▁6	-7.51699
นา	-7.52586
ด้าน	-7.52645
p	-7.52815
in	-7.55434
สูง	-7.56492
o	-7.57039
ing	-7.57071
สร้าง	-7.57104
▁คือ	-7.57291
แห่ง	-7.5731
d	-7.58155
▁10	-7.58707
c	-7.59271
i	-7.59463
เอา	-7.59848
เ	-7.60354
เด็ก	-7.60474
ค่ะ	-7.60577
1	-7.60866
มือ	-7.60994
กําลัง	-7.61018
ฯ	-7.6197
▁สําหรับ	-7.62012
เกม	-7.62033
ค่า	-7.62089
จริง	-7.62902
r	-7.63072
ทีม	-7.6312
D	-7.63681
T	-7.63706
▁–	-7.63829
▁7	-7.64096
ท่าน	-7.64202
เกิด	-7.64377
3	-7.64587
▁เช่น	-7.64752
อะไร	-7.65073
เพราะ	-7.65204
a	-7.65223
C	-7.65784
ภายใน	-7.65929
่	-7.66283
m	-7.66592
ของคุณ	-7.67341
จน	-7.67433
จึง	-7.68168
รวม	-7.68223
ขอ	-7.68291
ซี	-7.68331
▁B	-7.68601
หลาย	-7.68611
ร์	-7.68807
กลุ่ม	-7.69069
ระดับ	-7.69256
พร้อม	-7.69464
▁อ	-7.69974
สาย	-7.70207
com	-7.7061
!	-7.71066
ประมาณ	-7.71141
▁T	-7.71405
จัด	-7.72216
วัด	-7.72369
้	-7.72697
สวย	-7.72849
ใส่	-7.72849
P	-7.7294
ออกมา	-7.73194
M	-7.73402
▁ก็	-7.73468
ซึ่ง	-7.73615
x	-7.73697
]	-7.73906
u	-7.7394
ละ	-7.74649
th	-7.74711
ผล	-7.74936
อยู่ใน	-7.7563
A	-7.75741
G	-7.75824
เสียง	-7.75832
ะ	-7.75876
▁น	-7.75946
เห็น	-7.76246
▁ถ้า	-7.76502
เข้ามา	-7.76921
เอง	-7.76979
ต่าง	-7.77059
g	-7.77066
คิด	-7.77743
เสีย	-7.78053
▁8	-7.78324
▁เรา	-7.78352
พื้นที่	-7.78454
ลา	-7.78502
▁ส่วน	-7.78531
an	-7.7862
นัก	-7.78811
ส์	-7.79071
สุด	-7.79327
ของเรา	-7.79454
บาง	-7.79509
เลือก	-7.79525
ชั้น	-7.79605
ไม่มี	-7.7977
กิน	-7.80011
ส่วน	-7.80838
โรคสะเก็ดเงิน	-7.80858
k	-7.80962
ทั้งหมด	-7.81195
โลก	-7.81248
▁พร้อม	-7.81314
เพียง	-7.81369
ฟรี	-7.81401
ทํางาน	-7.82249
ร้าน	-7.82456
ชื่อ	-7.82617
สอง	-7.82807
เกี่ยวกับ	-7.83369
อัน	-7.83849
ชุด	-7.84102
รัก	-7.84524
พิเศษ	-7.84608
ช่วย	-7.84611
ลูกค้า	-7.84671
แรก	-7.8481
รา	-7.84837
▁ราคา	-7.8503
โครงการ	-7.85048
ธุรกิจ	-7.85303
▁G	-7.85334
อื่น	-7.85568
เจ้า	-7.85871
▁คน	-7.85941
สิ่ง	-7.8607
น้อย	-7.86081
เพิ่ม	-7.86427
ริ	-7.86668
ใด	-7.86825
กระ	-7.87195
กลาง	-7.87238
▁D	-7.87261
ซ	-7.87411
on	-7.87683
บริการ	-7.87787
ข	-7.87969
พัฒนา	-7.88391
▁จาก	-7.88471
รี	-7.88731
เท่านั้น	-7.88815
ประเทศ	-7.88919
▁ทําให้	-7.88971
ได้รับ	-7.89322
or	-7.89453
4	-7.89473
เอ	-7.8965
ชีวิต	-7.89835
น่า	-7.89971
ต้น	-7.90201
เม	-7.90288
re	-7.90305
บอล	-7.9051
แรง	-7.91103
ตลาด	-7.91124
ที	-7.91152
b	-7.91561
▁นาย	-7.91827
เรียน	-7.92374
แม่	-7.92707
ตั้ง	-7.92938
ชาว	-7.93479
โอ	-7.93588
ไฟ	-7.94208
กลับ	-7.94299
▁แล้ว	-7.94352
ผิว	-7.94698
บริษัท	-7.94778
ให้กับ	-7.94872
มากกว่า	-7.94985
F	-7.95543
อ่าน	-7.956
▁9	-7.9563
ต้องการ	-7.95716
เริ่ม	-7.95844
ร่วม	-7.96288
K	-7.9633
ประ	-7.96418
เน	-7.96455
รู้	-7.96661
ห้อง	-7.96733
ขา	-7.96856
▁จะ	-7.9687
5	-7.97166
ไม้	-7.97231
อาจ	-7.97423
ระหว่าง	-7.97598
it	-7.97856
เว็บไซต์	-7.98105
คํา	-7.98145
มิ	-7.98289
นะ	-7.98318
ที่สุด	-7.98586
ใบ	-7.98811
เปลี่ยน	-7.98872
▁ณ	-7.98953
ใคร	-7.99058
เร	-7.99089
รักษา	-7.99191
ขนาด	-7.99328
▁E	-7.99566
นาย	-7.99614
จะมี	-8.00265
เดิน	-8.00488
อา	-8.00587
หนอน	-8.00653
▁หาก	-8.00803
สาว	-8.00828
ติ	-8.01375
รูป	-8.0157
เก็บ	-8.01847
▁บริษัท	-8.02036
▁0	-8.02073
ทรง	-8.02133
▁H	-8.02302
จุด	-8.02437
ธ	-8.02479
แก่	-8.02648
บอก	-8.02653
วง	-8.02655
ที่ดี	-8.02861
0%	-8.03183
เธอ	-8.03333
มีความ	-8.03453
L	-8.03639
ed	-8.03803
▁[	-8.04069
ปัญหา	-8.04278
le	-8.04361
โต	-8.04563
ชอบ	-8.04958
en	-8.05088
หลัก	-8.05564
รอบ	-8.0558
ar	-8.05952
▁ไม่	-8.0634
▁20	-8.06835
▁2561	-8.06875
w	-8.06969
f	-8.07058
จังหวัด	-8.0719
ลด	-8.07249
กา	-8.07421
การศึกษา	-8.07443
หัว	-8.07449
มากขึ้น	-8.07541
คู่	-8.07616
ข้อ	-8.07816
เหมือน	-8.07873
อื่นๆ	-8.08028
จับ	-8.08034
▁/	-8.0811
์	-8.08203
h	-8.08311
สาร	-8.08382
ข่าว	-8.08574
ถ้า	-8.08705
พอ	-8.0911
ย์	-8.09111
z	-8.09116
ดังกล่าว	-8.09212
ควร	-8.09223
ง่าย	-8.09311
ตรง	-8.09632
▁L	-8.10014
วาง	-8.10071
แสดง	-8.1019
สําคัญ	-8.10755
โรค	-8.10849
รุ่น	-8.11052
ปลา	-8.11146
เพลง	-8.11484
เล	-8.11545
เข้าไป	-8.11548
▁ก	-8.12105
▁25	-8.12113
ญี่ปุ่น	-8.1217
ศึกษา	-8.1247
ic	-8.12479
?	-8.12547
มากมาย	-8.12888
วิ	-8.12943
รอ	-8.13073
ทุกคน	-8.13161
▁2018	-8.13323
▁จ	-8.13393
▁ผม	-8.1343
el	-8.13798
หนัง	-8.14108
เดียว	-8.14242
▁R	-8.14304
จํานวน	-8.14648
ปรสิต	-8.14893
▁K	-8.15349
วา	-8.15362
อยาก	-8.15497
ฝ่าย	-8.15685
บ้าง	-8.15764
ช่วง	-8.16133
l	-8.16152
ฉัน	-8.16182
จีน	-8.16346
H	-8.16348
▁12	-8.16351
ลิ	-8.16385
เพื่อน	-8.16732
ตั้งแต่	-8.16785
ลอง	-8.16982
ตอน	-8.17063
ชม	-8.17393
et	-8.17517
▁ขาย	-8.17612
โปรแกรม	-8.17617
▁จึง	-8.17729
แค่	-8.18014
พบ	-8.18217
เรือ	-8.18308
มีการ	-8.18754
ทอง	-8.19224
เทคโนโลยี	-8.19363
วิธี	-8.19764
คืน	-8.1979
พา	-8.19833
โรงแรม	-8.20093
ดา	-8.20127
ตัด	-8.20182
เคย	-8.20186
เต็ม	-8.20382
นี่	-8.20429
ตัวเอง	-8.20512
โร	-8.20765
▁จํากัด	-8.20777
▁W	-8.20861
ปรับ	-8.20893
ิ	-8.21025
ต่อไป	-8.21346
ธรรม	-8.215
▁ม	-8.21563
ยาง	-8.21825
เซ	-8.21895
ลาย	-8.21895
นักเรียน	-8.21911
ur	-8.21958
ผลิต	-8.22103
เว็บ	-8.22177
co	-8.22229
นั่ง	-8.22306
V	-8.22412
N	-8.22546
0	-8.22606
เดือน	-8.23094
เนื้อ	-8.23223
▁15	-8.23292
W	-8.23349
ระ	-8.23543
ทั่วไป	-8.24067
คา	-8.24163
ข้าว	-8.24263
โอกาส	-8.24583
เท	-8.24643
ซิ	-8.24684
ท์	-8.24707
ผลิตภัณฑ์	-8.25419
การใช้	-8.25564
อายุ	-8.25766
สาม	-8.25769
บริเวณ	-8.25968
รถยนต์	-8.2632
ต์	-8.26383
อาจจะ	-8.26421
โรงเรียน	-8.2646
ประจํา	-8.26498
คุณภาพ	-8.26717
ชัย	-8.26723
ร่างกาย	-8.26883
บุคคล	-8.26919
ณ	-8.27171
ตลอด	-8.27238
ก็จะ	-8.27386
▁รุ่น	-8.2744
กลับมา	-8.27528
st	-8.27656
ที่เป็น	-8.27866
หมด	-8.27894
▁สามารถ	-8.28115
▁ดังนั้น	-8.28153
ปิด	-8.28265
สวน	-8.28411
ผ้า	-8.28421
at	-8.28651
พิ	-8.2872
อุปกรณ์	-8.28734
นะครับ	-8.28958
หาก	-8.29093
กิจกรรม	-8.2918
สถานที่	-8.2938
เล็ก	-8.29391
แนว	-8.29463
วี	-8.29689
20	-8.29838
พูด	-8.29863
ชา	-8.30109
ราย	-8.30171
▁คุณ	-8.30344
ลี	-8.30352
กรรม	-8.30426
R	-8.30474
เดิม	-8.30621
ไฟฟ้า	-8.31146
▁ทั้ง	-8.31148
▁I	-8.31336
ดัง	-8.31513
ราช	-8.31669
วันนี้	-8.31701
กําหนด	-8.31704
สังคม	-8.32234
ในช่วง	-8.32334
เช่น	-8.32468
ป่า	-8.32488
▁V	-8.32494
สม	-8.32495
สู่	-8.32545
พล	-8.32618
สุขภาพ	-8.32688
โก	-8.32706
Y	-8.32755
▁วัน	-8.32994
ได้อย่าง	-8.33035
สั่ง	-8.33302
จริงๆ	-8.33334
ไหน	-8.33465
เย็น	-8.33522
ที่เรา	-8.33763
ภาค	-8.33845
▁24	-8.33927
มาตรฐาน	-8.33939
ก็ได้	-8.34103
เก่า	-8.34314
▁19	-8.34402
ro	-8.34451
จะต้อง	-8.35008
เฉพาะ	-8.35012
ประกาศ	-8.35123
แจ้ง	-8.35222
ปาก	-8.35476
ประตู	-8.35559
เบ	-8.358
ยาว	-8.36092
▁ด้วย	-8.36144
โดน	-8.36211
วัย	-8.36268
เขียน	-8.36695
เดียวกัน	-8.36867
จ่าย	-8.36889
เสริม	-8.37058
ติดตาม	-8.37107
U	-8.37145
โน	-8.37209
ครู	-8.3722
ชน	-8.37284
มาจาก	-8.37514
พัก	-8.37564
อุตสาหกรรม	-8.3775
ad	-8.37818
ชาย	-8.37829
▁11	-8.37893
ยก	-8.37922
▁...	-8.3806
ร้อน	-8.38392
ทา	-8.38495
ข้าง	-8.38538
▁ส	-8.38796
ชาติ	-8.38825
สุ	-8.38874
▁18	-8.38933
▁เนื่องจาก	-8.39062
O	-8.39075
ทะเล	-8.39084
7	-8.39142
บา	-8.39163
พวกเขา	-8.39311
นอน	-8.39314
นาน	-8.39321
ขึ้นมา	-8.39363
คง	-8.39611
ถนน	-8.39714
พนักงาน	-8.4011
แดง	-8.40116
ธรรมชาติ	-8.40603
โม	-8.4063
ประชาชน	-8.40772
เด	-8.40886
นิ	-8.41142
จะเป็น	-8.41144
หนังสือ	-8.41402
คอ	-8.41421
ดูแล	-8.41442
สิ่งที่	-8.41717
.00	-8.41789
▁16	-8.41862
มอง	-8.41906
ซ์	-8.42043
8	-8.42157
ol	-8.4224
ก็คือ	-8.42704
ความรู้	-8.42722
ใช้งาน	-8.42963
am	-8.43038
ติดต่อ	-8.43083
รายการ	-8.43167
นอก	-8.43252
ใต้	-8.4326
สัก	-8.43293
ุ	-8.43335
ท่า	-8.43422
วันที่	-8.43605
X	-8.43707
จํา	-8.43744
พิมพ์	-8.43763
จิ	-8.43838
ปกติ	-8.4398
ตก	-8.44007
▁รับ	-8.44046
รูปแบบ	-8.44156
ล่าสุด	-8.44219
เท้า	-8.44382
▁30	-8.44523
ช่อง	-8.44551
สด	-8.44554
il	-8.44583
ชิ	-8.44624
v	-8.44645
หรือไม่	-8.44708
เจอ	-8.44729
การพัฒนา	-8.44784
สมาชิก	-8.4486
พวก	-8.44873
ขาว	-8.44954
รู้สึก	-8.45227
นับ	-8.45291
เก	-8.45406
แสง	-8.45561
▁of	-8.45683
เพิ่มเติม	-8.45726
ผลงาน	-8.45759
ฟุตบอล	-8.45798
ch	-8.45905
อย่างไร	-8.45913
กล้อง	-8.46048
ประเภท	-8.4605
ที่ผ่านมา	-8.46097
จบ	-8.46168
ตําแหน่ง	-8.46172
ครั้ง	-8.46253
ถ	-8.4629
เค	-8.46304
จากการ	-8.46323
เรียก	-8.46473
อาการ	-8.46515
สุดท้าย	-8.46589
กีฬา	-8.46629
50	-8.46667
แผน	-8.46672
แยก	-8.46799
ของเขา	-8.46838
บัญชี	-8.46951
กร	-8.46953
แทน	-8.47112
’	-8.47161
▁เครื่อง	-8.47427
▁1.	-8.47572
▁ห้อง	-8.4763
ซา	-8.47677
ผ	-8.47712
6	-8.4786
กลายเป็น	-8.48085
30	-8.48171
พี	-8.48227
เดินทาง	-8.48252
สอบ	-8.48273
ไม่สามารถ	-8.48301
ที่นี่	-8.48323
ตะ	-8.48348
สัตว์	-8.48453
น้ํามัน	-8.4846
ตรวจสอบ	-8.48538
เตอร์	-8.48603
เลข	-8.48733
อยู่ที่	-8.4878
เว	-8.48981
เส้น	-8.49036
ตาย	-8.49113
แต่ง	-8.49149
สอน	-8.49296
แน่นอน	-8.49436
▁13	-8.49617
10	-8.49652
▁J	-8.49652
ออกไป	-8.49716
ั	-8.4983
_	-8.49898
อร์	-8.49955
อากาศ	-8.50269
9	-8.50452
ra	-8.50508
แนะนํา	-8.50805
ชุมชน	-8.5129
ฟัง	-8.51356
เหล่านี้	-8.51438
อีกครั้ง	-8.51458
ควบคุม	-8.51739
ขาด	-8.51744
เจ้าหน้าที่	-8.5178
สภาพ	-8.51885
ลม	-8.51908
▁the	-8.52125
ไม่ใช่	-8.52255
บอกว่า	-8.5236
พร	-8.52635
เจ	-8.52783
ยอด	-8.53042
▁O	-8.5308
▁นาที	-8.53388
ถ่าย	-8.53419
รอย	-8.53606
ญ	-8.53891
ตรวจ	-8.53896
หนัก	-8.5401
la	-8.54149
สูงสุด	-8.5425
ศูนย์	-8.54386
▁จังหวัด	-8.54441
us	-8.54615
ลํา	-8.54665
เกิดขึ้น	-8.54677
บัตร	-8.54856
ต่างประเทศ	-8.54965
ประสบการณ์	-8.54986
เกาะ	-8.5499
▁ซึ่งเป็น	-8.55275
สํานักงาน	-8.55331
ยังไม่	-8.55355
ดิน	-8.5541
ent	-8.55521
เยอะ	-8.55527
▁N	-8.55576
un	-8.55619
ma	-8.5589
te	-8.55897
หลากหลาย	-8.5592
โล	-8.56199
ชนิด	-8.56228
ออกจาก	-8.56449
ผิด	-8.56478
ri	-8.5711
จะได้	-8.57288
แท้	-8.5735
เริ่มต้น	-8.57545
ดิ	-8.57677
หี	-8.57711
▁ต	-8.57774
ยิง	-8.57778
▁The	-8.58069
▁เขา	-8.58092
ฉ	-8.58195
ครอบครัว	-8.58246
+	-8.58256
เย็ด	-8.5854
▁14	-8.58565
นิยม	-8.58666
เลือด	-8.58688
แพทย์	-8.58887
่ง	-8.58997
เฟ	-8.5901
ท้อง	-8.59013
ใกล้	-8.59019
สัญญา	-8.59054
น้อง	-8.59121
นาง	-8.59236
อีกด้วย	-8.59298
'	-8.59495
สะดวก	-8.5951
ภาษา	-8.59575
me	-8.59581
▁Giardia	-8.59595
ครีม	-8.59635
รู	-8.59651
แต่ละ	-8.59685
บท	-8.59768
วิธีการ	-8.59769
▁Re	-8.59778
เน้น	-8.60066
แก้ว	-8.60123
วน	-8.60211
สนาม	-8.6028
ผู้หญิง	-8.60292
อาคาร	-8.60308
ยาก	-8.60375
▁โดยมี	-8.60415
กะ	-8.60487
▁ผู้	-8.60596
อ่อน	-8.60779
ตี	-8.61016
มหาวิทยาลัย	-8.61088
คอมพิวเตอร์	-8.61131
องค์กร	-8.61194
ขยาย	-8.61293
เขต	-8.61547
นักเตะ	-8.61645
เหนือ	-8.61655
ก็มี	-8.61782
สนับสนุน	-8.61784
ไปยัง	-8.61852
เพิ่มขึ้น	-8.61925
id	-8.62124
se	-8.62267
ดํา	-8.62431
นม	-8.62576
▁รวมถึง	-8.62689
ส่วนใหญ่	-8.62763
มหา	-8.629
ศาสตร์	-8.62923
ผู้เล่น	-8.63077
เลี้ยง	-8.63192
เช	-8.63204
เอกสาร	-8.63269
สนุก	-8.63419
ปัจจุบัน	-8.63624
อี	-8.63673
ทาน	-8.63725
เหตุ	-8.63778
▁ทั้งนี้	-8.63885
▁จํานวน	-8.63889
ป้องกัน	-8.63894
โค	-8.64162
▁เวลา	-8.64177
เหลือ	-8.64191
ation	-8.64223
ภ	-8.6437
ประโยชน์	-8.64594
กล่าว	-8.64611
เหล็ก	-8.64623
as	-8.64688
แบบนี้	-8.65237
lo	-8.65269
คนที่	-8.65383
ออกแบบ	-8.6546
หลวง	-8.65498
ดําเนินการ	-8.65526
ติดตั้ง	-8.65646
ฐาน	-8.65737
อก	-8.65797
เป็นการ	-8.65966
บี	-8.65975
เตรียม	-8.65996
▁ชั้น	-8.66077
แฟน	-8.66235
ที่ใช้	-8.66239
เป	-8.66242
ไหม	-8.66287
คาสิโน	-8.66598
พี่	-8.66875
▁2.	-8.67056
สื่อ	-8.67088
การแข่งขัน	-8.67204
://	-8.67205
ขนาดใหญ่	-8.67451
แค	-8.67769
ที่สําคัญ	-8.67883
ทันที	-8.68114
หยุด	-8.68144
ไอ	-8.68198
ได้รับการ	-8.68282
ลบ	-8.68554
อุ	-8.68601
▁งาน	-8.68658
เศรษฐกิจ	-8.68806
กฎหมาย	-8.68954
ยู	-8.68978
ราชการ	-8.68987
▁วันที่	-8.69015
หิน	-8.69029
ter	-8.69073
▁หลัง	-8.69138
เสมอ	-8.69211
ขณะ	-8.69287
ประกอบ	-8.69402
สบาย	-8.69678
es	-8.69692
ค่อนข้าง	-8.69723
พยายาม	-8.69852
เกาหลี	-8.69861
หญิง	-8.69938
นัด	-8.69995
วิ่ง	-8.70011
ทําการ	-8.70029
้น	-8.70136
มนุษย์	-8.70189
▁ขนาด	-8.70229
ไข่	-8.70273
เพ	-8.70297
คิดว่า	-8.70321
ที่ดิน	-8.70393
แบรนด์	-8.70459
โด	-8.70469
um	-8.70611
ชนะ	-8.70637
ดีกว่า	-8.70638
เกมส์	-8.70809
พิจารณา	-8.70857
▁17	-8.70935
กลาก	-8.70947
สโมสร	-8.71009
ตัน	-8.71027
ี	-8.71156
is	-8.71389
คณะ	-8.71447
กด	-8.71619
ไกล	-8.71735
▁ปรสิต	-8.71741
สไตล์	-8.71783
สา	-8.71896
ชั่น	-8.72022
การผลิต	-8.72066
ช่าง	-8.72092
▁นอกจากนี้	-8.72141
▁เรื่อง	-8.72459
กรม	-8.72465
j	-8.72477
มากที่สุด	-8.7252
ษ	-8.72615
การทํา	-8.72637
เห	-8.72752
ขน	-8.72877
▁ต้อง	-8.72998
เบอร์	-8.73073
▁จน	-8.73096
มอบ	-8.73142
กว้าง	-8.73144
ตอนนี้	-8.73159
เต	-8.73232
ทหาร	-8.73265
รุ	-8.73385
หนุ่ม	-8.73455
▁เว็บ	-8.73545
ศรี	-8.73657
รางวัล	-8.73736
▁ชุด	-8.73879
ry	-8.73976
เพื่อให้	-8.74058
มือถือ	-8.74183
จิต	-8.74251
▁โรงแรม	-8.74373
▁โรคสะเก็ดเงิน	-8.74386
.)	-8.7444
คัน	-8.74482
ยิ่ง	-8.74499
▁เพื่อให้	-8.7462
สนใจ	-8.7464
พ่อ	-8.74648
ประเทศไทย	-8.74742
ศาล	-8.74813
ปา	-8.74814
อิ	-8.74911
ยังมี	-8.75124
รอง	-8.75199
ส่งเสริม	-8.75254
แตก	-8.75277
อันดับ	-8.75313
เช่า	-8.75345
เที่ยว	-8.75451
มากๆ	-8.75493
เข้าใจ	-8.75508
สุข	-8.75701
ได้เลย	-8.75731
ประกัน	-8.75772
ฝาก	-8.7578
ในปี	-8.75957
รายละเอียด	-8.76051
พิธี	-8.76192
▁เป็นต้น	-8.7626
ยังคง	-8.76319
▁2560	-8.76423
ที่ได้	-8.7659
พบว่า	-8.76612
▁มัน	-8.77263
เทพ	-8.7728
น่ารัก	-8.774
เหมือนกัน	-8.77414
ฟ้า	-8.77451
เค้า	-8.77582
▁>	-8.77747
ตํารวจ	-8.77766
พื้น	-8.77769
หาย	-8.77821
!!	-8.77879
ตกแต่ง	-8.77949
▁ตาม	-8.78003
การใช้งาน	-8.78043
คณะกรรมการ	-8.78112
เชิง	-8.78133
ทราบ	-8.78191
ครบ	-8.78203
เส้นทาง	-8.78272
ถือ	-8.7838
โรงงาน	-8.78533
ดวง	-8.78536
คดี	-8.78549
ท้องถิ่น	-8.7868
▁and	-8.78732
พลัง	-8.78859
ด์	-8.78946
▁ครีม	-8.78985
ปลูก	-8.7907
หน่วยงาน	-8.79108
ให้บริการ	-8.79323
แหล่ง	-8.79442
ปล่อย	-8.79513
เจริญ	-8.79535
เร็ว	-8.79599
ที่คุณ	-8.7998
หลายคน	-8.80003
พลังงาน	-8.80165
▁ไม่ว่าจะเป็น	-8.80231
▁100	-8.80301
แสน	-8.80325
▁ได้แก่	-8.80377
บุญ	-8.80463
เสื้อ	-8.805
▁เดือน	-8.80608
หน้าอก	-8.80629
สะ	-8.80651
การทํางาน	-8.80844
ลึก	-8.80928
บันทึก	-8.80945
ไม่ต้อง	-8.80946
ฤดูกาล	-8.81024
นํามา	-8.81056
รัฐ	-8.81084
ของการ	-8.81255
▁สมัคร	-8.81286
บรรยากาศ	-8.81301
แอ	-8.81419
▁ครั้ง	-8.81618
ราคาถูก	-8.81627
เป้าหมาย	-8.81719
จะไม่	-8.81732
วัสดุ	-8.81749
สัน	-8.81799
สะอาด	-8.82014
ส่วนตัว	-8.82069
สมัคร	-8.82162
รัฐบาล	-8.82238
ที่ดีที่สุด	-8.8246
ก็ต้อง	-8.82493
ด้วยกัน	-8.82536
I	-8.82581
ที่ไม่	-8.82602
และการ	-8.82995
ว่าจะ	-8.83147
นะคะ	-8.83157
บาท	-8.83168
▁โดยเฉพาะ	-8.8319
to	-8.83221
▁in	-8.83257
อิน	-8.83304
บริหาร	-8.83558
▁รวมทั้ง	-8.83672
กอง	-8.83735
๋	-8.838
พันธุ์	-8.839
ดาว	-8.84038
กาย	-8.84273
โต๊ะ	-8.84515
จี	-8.84653
ถาม	-8.84738
อย	-8.85119
สวยงาม	-8.85153
ตอบ	-8.85269
ทุน	-8.85275
เย	-8.85286
ta	-8.85299
๊	-8.8532
เครื่องมือ	-8.85352
ang	-8.85398
จะทําให้	-8.85418
เส้นเลือดขอด	-8.85476
ท่องเที่ยว	-8.85545
ช่วยเหลือ	-8.85596
ไหล	-8.85626
ท่อ	-8.85689
mo	-8.85709
ดอก	-8.85738
na	-8.85769
ia	-8.85851
นี	-8.86015
ตัดสินใจ	-8.8605
ตน	-8.86104
แก้	-8.86437
สัมผัส	-8.86619
มัก	-8.86672
ly	-8.86794
หลังจาก	-8.86863
เกิน	-8.8693
11	-8.8702
นโยบาย	-8.87078
รายได้	-8.87089
เข้าสู่	-8.8719
กรณี	-8.87334
ไม่เคย	-8.87359
▁f	-8.87438
▁In	-8.87454
▁to	-8.87494
น้ําหนัก	-8.87507
and	-8.87511
▁ดู	-8.87605
ความรัก	-8.87723
ร่วมกัน	-8.87775
โรง	-8.87776
ต่ํา	-8.87804
รส	-8.87818
เส	-8.87862
▁ท่าน	-8.87873
ย้าย	-8.87926
ไปแล้ว	-8.88115
),	-8.88206
อร่อย	-8.88229
นักศึกษา	-8.88306
ฮา	-8.88614
โซ	-8.88912
กับการ	-8.89028
▁ยูไนเต็ด	-8.89054
ปลาย	-8.89094
คะแนน	-8.89109
สัญญาณ	-8.89117
▁เอ	-8.89177
กุ	-8.89387
รายงาน	-8.8941
น่าจะ	-8.89457
ผู้ชาย	-8.89667
ท้าย	-8.89673
ัส	-8.8969
น์	-8.89714
ควย	-8.89747
ปริมาณ	-8.89901
คอน	-8.89921
แห่งชาติ	-8.90146
อาชีพ	-8.90149
รองรับ	-8.90173
ชิ้น	-8.90256
คอย	-8.90289
อม	-8.9039
การค้า	-8.90455
8%	-8.90506
อาจารย์	-8.90511
ti	-8.90531
ไว	-8.90583
โ	-8.90605
ir	-8.90775
กระทรวง	-8.9078
แก้ไข	-8.90923
12	-8.90927
▁หลังจาก	-8.91022
การเล่น	-8.9108
ระยะ	-8.91149
มักจะ	-8.91451
มะ	-8.91615
ไร	-8.91691
ที่ต้องการ	-8.91691
สาขา	-8.91705
ราว	-8.9173
ขวา	-8.91744
อําเภอ	-8.91881
▁X	-8.91975
▁U	-8.92128
ทุกอย่าง	-8.9234
กําจัด	-8.92351
กิ	-8.92477
ปฏิบัติ	-8.92478
คลิป	-8.92667
J	-8.92683
ขึ้นไป	-8.92709
อง	-8.9276
หู	-8.92831
มุม	-8.92889
ระบุ	-8.93023
คะ	-8.93204
เอส	-8.93299
โฆษณา	-8.93319
ละคร	-8.93365
อารมณ์	-8.93388
บู	-8.93424
▁เมตร	-8.93439
ne	-8.93538
ทีมชาติ	-8.93562
▁ล้านบาท	-8.93615
เอเชีย	-8.93733
ป้าย	-8.93783
นก	-8.93842
ีย	-8.93909
ความเป็น	-8.93922
สถานี	-8.93951
▁บริการ	-8.93965
▁21	-8.93974
up	-8.9419
็	-8.94191
หัวใจ	-8.94249
แนวทาง	-8.94269
▁จากนั้น	-8.94296
จําหน่าย	-8.94299
ฝั่ง	-8.94457
25	-8.94463
ซ้าย	-8.9457
ยึด	-8.94588
เป็นคน	-8.94685
พืช	-8.94734
▁ป	-8.94909
ในพื้นที่	-8.9491
สาเหตุ	-8.94954
ทั่วโลก	-8.95038
ตร	-8.95091
การลงทุน	-8.95098
หวาน	-8.95132
15	-8.95132
▁โรงเรียน	-8.95244
ฟา	-8.95246
พยาธิ	-8.95328
▁Co	-8.95351
เสนอ	-8.95474
กล	-8.9552
แห้ง	-8.95609
ด้วยการ	-8.95645
ได้ดี	-8.95699
ทั่ว	-8.95777
▁3.	-8.958
จ้าง	-8.95848
อน	-8.95892
พัน	-8.95936
หน	-8.95949
เข้าร่วม	-8.96013
ใช้เวลา	-8.96114
สิ	-8.96148
op	-8.9621
กระแส	-8.96244
การเดินทาง	-8.96267
▁&	-8.96362
40	-8.96383
ล้าง	-8.96393
ลดลง	-8.96468
ทั้งสอง	-8.96474
.3	-8.96528
แก	-8.96579
เชียงใหม่	-8.96599
เราจะ	-8.96624
ล่ะ	-8.96646
ผสม	-8.96647
อํานาจ	-8.96647
ที่พัก	-8.96672
เสร็จ	-8.96746
รู้จัก	-8.96911
วัฒนธรรม	-8.97037
นําเสนอ	-8.9705
ระยะเวลา	-8.97116
การรักษา	-8.97118
จอ	-8.97256
โชว์	-8.97259
▁เกม	-8.97342
จัดการ	-8.97361
เชื่อ	-8.97388
หวย	-8.97407
li	-8.97424
ทิ้ง	-8.97508
โบ	-8.97563
สําหรับการ	-8.97828
ได	-8.97916
ย่อม	-8.98065
;	-8.98082
▁ฉัน	-8.98162
หลุด	-8.98167
ขับ	-8.98185
ไฟล์	-8.9822
im	-8.98222
องค์	-8.98265
ตัวอย่าง	-8.98266
โทร	-8.98284
ภาวะ	-8.98298
จอง	-8.98389
.5	-8.98403
คลอง	-8.98406
พลาสติก	-8.98646
ตรา	-8.98678
▁ขณะที่	-8.98682
▁๑	-8.9872
ธนาคาร	-8.98725
เมนู	-8.98741
กรอบ	-8.98867
เนื่องจาก	-8.99
ื	-8.99034
ภาพยนตร์	-8.99163
ความปลอดภัย	-8.9919
ผู้ใช้	-8.99202
เรื่องนี้	-8.99212
แผ่น	-8.99337
▁2017	-8.99372
โย	-8.9942
อะ	-8.99495
ลีก	-8.99601
จา	-8.99688
โปร	-8.9976
ไม่ค่อย	-8.99826
เหตุผล	-8.99847
ิน	-8.99999
กรุง	-9.00012
โทรศัพท์	-9.00061
กระเป๋า	-9.00084
▁ศูนย์	-9.00087
ce	-9.00169
ลู	-9.00239
การสร้าง	-9.00284
ร้อง	-9.00304
ข้อความ	-9.00455
ยุโรป	-9.00467
ชัดเจน	-9.00469
่า	-9.00521
เจ้าของ	-9.00546
▁ชั่วโมง	-9.00657
เข	-9.00712
นคร	-9.00802
เปิดตัว	-9.00806
สูตร	-9.00864
ผู้ป่วย	-9.00892
ที่สามารถ	-9.00948
เล่า	-9.01006
ภูมิ	-9.01091
▁St	-9.01113
▁และมี	-9.0116
ก็ตาม	-9.01363
มงคล	-9.01382
หน่อย	-9.01519
สมัย	-9.01562
นั่นเอง	-9.01647
ก่อสร้าง	-9.01713
ใส	-9.01737
▁2559	-9.01773
24	-9.01821
วิเคราะห์	-9.01894
ผู้ที่	-9.01899
Z	-9.01944
ผัก	-9.0197
บุก	-9.02013
เชื่อว่า	-9.02028
ลงไป	-9.02062
หมู่บ้าน	-9.0217
พบกับ	-9.02276
เพื่อนๆ	-9.02304
▁for	-9.02346
▁เขต	-9.0267
แ	-9.02686
ค่าใช้จ่าย	-9.02752
ล่า	-9.02852
▁Ch	-9.02925
หมอ	-9.0295
มาแล้ว	-9.02969
ร่าง	-9.03004
▁22	-9.03099
เช่นกัน	-9.03189
▁a	-9.03198
ทิ	-9.03388
แห่งนี้	-9.03395
ขั้นตอน	-9.03428
พระองค์	-9.03437
hi	-9.03447
ภาษี	-9.0354
ที่อยู่	-9.03588
▁23	-9.03753
▁c	-9.03855
ทัวร์	-9.03862
เป็นผู้	-9.04138
55	-9.0418
13	-9.04443
เกือบ	-9.04474
▁วันนี้	-9.045
แบ่ง	-9.04557
16	-9.04601
ศึก	-9.04652
▁วิธี	-9.04672
▁การรักษา	-9.04771
แพ้	-9.04949
นาที	-9.05009
กลิ่น	-9.05119
ความรู้สึก	-9.05266
▁ความ	-9.0527
ออ	-9.05286
ภาษาอังกฤษ	-9.05303
▁‘	-9.05377
ไร้	-9.05446
ปิ	-9.05469
ยืน	-9.05538
ปลอดภัย	-9.05559
อังกฤษ	-9.05736
▁บ้าน	-9.05789
ร้าย	-9.05834
ในเกม	-9.0587
เพชร	-9.05894
เรียนรู้	-9.05955
เพียงแค่	-9.05965
▁50	-9.06059
หุ้น	-9.06264
ือ	-9.06481
เอก	-9.06487
รี่	-9.06593
ai	-9.06712
แดน	-9.06759
ac	-9.06852
่น	-9.07043
▁ประกาศ	-9.07206
ho	-9.07235
ริม	-9.07316
ล้อ	-9.07337
เอาไว้	-9.074
คนไทย	-9.07443
#	-9.07486
สิทธิ์	-9.07509
▁พฤศจิกายน	-9.07574
กระบวนการ	-9.07655
▁วัด	-9.07657
สิทธิ	-9.07734
เหตุการณ์	-9.07866
ประชุม	-9.0788
ot	-9.07941
หลักสูตร	-9.07945
สัปดาห์	-9.07949
io	-9.08047
ช้า	-9.0808
01	-9.08116
แชมป์	-9.08175
[	-9.08276
ill	-9.08291
pe	-9.08424
▁นัด	-9.08501
.6	-9.08501
ร้านอาหาร	-9.08507
เรื่องราว	-9.08509
ตนเอง	-9.08614
60	-9.08624
ห์	-9.08631
▁ไม่มี	-9.08644
www	-9.08662
▁De	-9.08732
ment	-9.08882
สถาน	-9.08908
รับรอง	-9.08982
ก้าว	-9.09086
ก็ไม่	-9.09188
สรุป	-9.09301
สถานการณ์	-9.09359
สีขาว	-9.09365
ดอกไม้	-9.09518
ate	-9.09532
ไขมัน	-9.09597
รูปภาพ	-9.09599
ค้นหา	-9.09676
ที่มีความ	-9.09686
▁ใช้	-9.09699
000	-9.09826
18	-9.09847
ให้แก่	-9.09939
สมุนไพร	-9.09986
เครือข่าย	-9.10016
แอร์	-9.10041
▁อย่างไรก็ตาม	-9.10041
วิทยา	-9.10047
เทคนิค	-9.10065
▁อําเภอ	-9.10111
วิชา	-9.10112
▁ล้าน	-9.10122
ยุค	-9.1019
ยื่น	-9.10449
คลิก	-9.10498
ha	-9.10508
06	-9.1052
ตาราง	-9.10563
ไปด้วย	-9.10612
สีดํา	-9.10663
ช่วยให้	-9.10772
.1	-9.10784
ที่ถูก	-9.10942
▁ระบบ	-9.10977
แข็ง	-9.1104
เม็ด	-9.11137
tr	-9.11162
▁SBOBET	-9.11165
การจัดการ	-9.11229
ฉบับ	-9.11295
ัล	-9.11331
ปรับปรุง	-9.11546
ง่ายๆ	-9.11632
อันตราย	-9.11672
ไก่	-9.11752
ul	-9.11821
นักท่องเที่ยว	-9.11825
ine	-9.11899
โบราณ	-9.11919
▁ยัง	-9.11929
▁เกมส์	-9.11957
▁@	-9.12005
เติม	-9.12032
พุทธ	-9.12053
กล่อง	-9.12085
เลยทีเดียว	-9.12158
ทัพ	-9.12232
กลัว	-9.12248
▁Pro	-9.1226
เซอร์	-9.12289
ครึ่ง	-9.12311
de	-9.12311
ปัจจัย	-9.12324
ทางด้าน	-9.12415
อบ	-9.12518
สต	-9.12537
เวอร์	-9.12538
สมาคม	-9.1255
do	-9.12573
ver	-9.12584
ให้เป็น	-9.12695
สอบถาม	-9.1271
▁ตําบล	-9.12791
งค์	-9.12885
ทีมงาน	-9.12958
ไม่รู้	-9.12962
พวกเรา	-9.12968
ภา	-9.13013
รู้ว่า	-9.13032
ub	-9.13135
ซู	-9.13157
ในปัจจุบัน	-9.13165
ทุกวัน	-9.13236
▁08	-9.13267
02	-9.13386
การจัด	-9.13474
all	-9.13477
ชัน	-9.13482
▁อาคาร	-9.13542
ของตัวเอง	-9.13575
ลงทุน	-9.13653
di	-9.13708
อยู่แล้ว	-9.13741
เป็นเรื่อง	-9.13854
-2	-9.13897
19	-9.13917
ดีขึ้น	-9.13994
แมว	-9.14058
ทั้งหลาย	-9.14078
ut	-9.14107
อย่างต่อเนื่อง	-9.14128
การประชุม	-9.14242
ard	-9.14249
he	-9.14252
ก็เป็น	-9.14265
ขัด	-9.1431
▁แต่ก็	-9.14311
ความคิด	-9.14319
ให้ได้	-9.14411
ธรรมดา	-9.14441
ศักดิ์	-9.14541
เกษตรกร	-9.14719
▁หนัง	-9.14782
เร่ง	-9.14804
ทีวี	-9.14806
มาถึง	-9.14872
้อ	-9.14912
เท่า	-9.14956
80	-9.14998
แผล	-9.15049
>	-9.15124
ไซ	-9.15127
ห้าม	-9.15136
ซ่อม	-9.15137
ํา	-9.15141
36	-9.15199
ศิลปะ	-9.15245
ฉีด	-9.15526
▁ขอ	-9.15539
▁กลุ่ม	-9.15575
ถือว่า	-9.15804
เกียรติ	-9.15959
ื้อ	-9.15978
เนื้อหา	-9.16022
ap	-9.16034
ข้าม	-9.16076
ดนตรี	-9.161
ทําความสะอาด	-9.16133
บังคับ	-9.16309
ทัน	-9.16469
งบประมาณ	-9.16644
ปรากฏ	-9.16692
ศาสนา	-9.16711
อยากจะ	-9.16711
สถาบัน	-9.16743
หวัง	-9.16747
เสื้อผ้า	-9.1702
▁ทัวร์	-9.17032
ครั้งแรก	-9.17045
แพ	-9.17066
lu	-9.17099
ดึง	-9.17365
ยังไง	-9.1745
05	-9.17589
จัก	-9.1776
จํานวนมาก	-9.17785
ow	-9.17814
วิทยาศาสตร์	-9.17878
โทษ	-9.17893
พื้นฐาน	-9.17991
ปู	-9.18081
ร้อย	-9.18207
มีโอกาส	-9.18208
บิน	-9.18228
ในประเทศ	-9.18341
บุ	-9.18344
เหล่า	-9.18349
กระจก	-9.18474
ยอดเยี่ยม	-9.18565
จง	-9.18661
วร	-9.18666
หน้าที่	-9.18687
vi	-9.18701
ที่ต้อง	-9.18809
มุ	-9.18814
รีบ	-9.18861
มือสอง	-9.18883
▁พอ	-9.18926
est	-9.18939
ตุ	-9.19057
▁ก่อน	-9.19065
สมอง	-9.19071
มูลค่า	-9.19074
แล้วก็	-9.1913
ของท่าน	-9.19236
เนีย	-9.19261
เหมาะสม	-9.19439
้า	-9.19446
เฮ	-9.19472
หน่วย	-9.19479
ประวัติศาสตร์	-9.19484
การเรียนรู้	-9.1953
tion	-9.19534
แปลก	-9.19554
ด้วยความ	-9.19555
หน้าจอ	-9.19579
IN	-9.1961
ล์	-9.19694
สภา	-9.19732
นวด	-9.19781
แข่งขัน	-9.19816
ในประเทศไทย	-9.1985
▁บ	-9.19855
-1	-9.19884
▁p	-9.19888
22	-9.19892
เยี่ยม	-9.19948
▁+	-9.20032
บาร์	-9.20039
เพิ่ง	-9.20047
ดูด	-9.20139
ผู้คน	-9.20283
คอม	-9.20294
▁เปิด	-9.20356
แถว	-9.20447
อย่า	-9.2046
▁สาย	-9.20578
per	-9.20652
ฝัน	-9.20726
ฟัน	-9.20797
14	-9.20817
เสา	-9.20931
ทน	-9.21044
▁กล่าว	-9.21134
การตลาด	-9.212
ผู้ใหญ่	-9.21242
ทําได้	-9.21258
ถวาย	-9.21344
หนอง	-9.21368
▁มิ	-9.2142
▁แต่ถ้า	-9.2148
ชี้	-9.21527
ัม	-9.21592
▁จัด	-9.21595
AR	-9.216
ong	-9.21664
มีปัญหา	-9.21681
โก้	-9.21707
▁รวม	-9.21788
แปลง	-9.21883
ฝึก	-9.21928
ครั้งนี้	-9.21945
ต้า	-9.21967
จังหวะ	-9.21984
07	-9.22002
ite	-9.22038
กระดูก	-9.22135
ge	-9.22139
ถุง	-9.2218
การออกแบบ	-9.2222
หนู	-9.22241
เอ็ม	-9.223
▁บาง	-9.22509
เช้า	-9.22597
ค่าย	-9.22639
ิก	-9.22664
เชื้อ	-9.22716
ต่อเนื่อง	-9.22734
▁ตุลาคม	-9.22792
ของพวกเขา	-9.22804
เดอร์	-9.22809
▁b	-9.22868
▁To	-9.22989
เจ็บ	-9.23029
....	-9.23043
สมบูรณ์	-9.23048
ร่วมกับ	-9.2306
อัตรา	-9.2308
สิ่งแวดล้อม	-9.23112
แล	-9.23152
กู	-9.23255
สั้น	-9.23305
คนอื่น	-9.2335
ต้อนรับ	-9.23437
▁Ma	-9.235
ฮ	-9.23631
จะถูก	-9.23663
ด่วน	-9.23664
เรียกว่า	-9.23701
ขนาดเล็ก	-9.23705
จนถึง	-9.23759
ที่เกิดขึ้น	-9.23773
ไล่	-9.23776
ยี่ห้อ	-9.23864
ภายนอก	-9.23879
▁ร้าน	-9.23894
งาม	-9.23934
การ์ตูน	-9.23941
ช้าง	-9.24019
▁เมื่อวันที่	-9.2403
▁Z	-9.24061
วิจัย	-9.24165
กลับไป	-9.24214
เตียง	-9.24266
ฟิ	-9.24279
ขอบ	-9.24334
ในงาน	-9.24338
AM	-9.24485
เกษตร	-9.24507
เซลล์	-9.2458
ผลไม้	-9.24678
ชั่วโมง	-9.2469
สี่	-9.24786
28	-9.24799
ได้ว่า	-9.24929
ass	-9.24932
▁๒	-9.24938
ฟอร์ม	-9.24968
เกอร์	-9.25006
แน่	-9.25016
bo	-9.25041
▁หนอน	-9.25078
ฝรั่งเศส	-9.25101
๑	-9.25126
34	-9.25172
ใช้บริการ	-9.25343
▁รอง	-9.25383
โรงพยาบาล	-9.25532
%	-9.25584
แขน	-9.25718
บทความ	-9.25807
กระดาษ	-9.25856
รีวิว	-9.25879
สิบ	-9.25995
ลักษณะ	-9.26063
เรือน	-9.26075
และความ	-9.26217
.2	-9.26288
23	-9.26298
ฝน	-9.26326
บาน	-9.26348
ay	-9.26378
หมู	-9.26445
ย่าน	-9.26473
49	-9.26476
21	-9.26528
ช่องทาง	-9.26546
มีความสุข	-9.26725
กาแฟ	-9.2682
ni	-9.26882
▁เม	-9.26979
คม	-9.27013
▁กลาก	-9.27037
หล่อ	-9.2704
ใกล้เคียง	-9.27042
เปลี่ยนแปลง	-9.27113
ให้คุณ	-9.27149
no	-9.27212
นําไป	-9.27267
ซ้ํา	-9.27295
ดีๆ	-9.273
▁พระ	-9.27326
ที่น่าสนใจ	-9.27339
▁สํานักงาน	-9.274
ex	-9.27428
ฆ่า	-9.27457
one	-9.27524
ม้า	-9.27586
ขั้น	-9.27597
56	-9.27606
04	-9.27664
เลยครับ	-9.27855
ดารา	-9.27901
รวดเร็ว	-9.27976
หลายๆ	-9.28036
ขับรถ	-9.28043
วิดีโอ	-9.28078
ve	-9.28092
ถัง	-9.28173
om	-9.28182
ห้องพัก	-9.28236
ชวน	-9.28247
▁28	-9.28317
▁วิธีการ	-9.28431
▁ฯลฯ	-9.28523
ก็ยัง	-9.28544
▁ถนน	-9.28547
แม่น้ํา	-9.28636
ie	-9.28705
ทั่วประเทศ	-9.28728
ดีไซน์	-9.28746
กิจการ	-9.28771
ทําลาย	-9.28854
หอม	-9.2886
ทดสอบ	-9.28913
โครงสร้าง	-9.28932
คําสั่ง	-9.28958
ที่ทําให้	-9.28969
กิจ	-9.2903
ดําเนิน	-9.29129
AN	-9.29158
ี่	-9.29171
และมี	-9.29176
อัด	-9.29198
เช็ค	-9.2926
▁60	-9.2927
เก่ง	-9.29288
ว่าง	-9.29292
เด็ด	-9.29319
แน่น	-9.29349
แซ	-9.29464
แฟชั่น	-9.29577
▁ข่าว	-9.29731
▁1,	-9.2975
มาให้	-9.29849
▁Me	-9.29903
ซะ	-9.29907
ประกอบด้วย	-9.29912
ความร้อน	-9.30091
38	-9.3028
su	-9.30317
ทําหน้าที่	-9.30368
ลงมา	-9.30411
ER	-9.30484
อาร์	-9.30564
นวัตกรรม	-9.30568
โจ	-9.30569
วิว	-9.30574
90	-9.30589
ความเร็ว	-9.30658
ประเด็น	-9.30709
พูดถึง	-9.3073
ลอย	-9.30759
▁อา	-9.30764
สิ้น	-9.3086
▁ถูก	-9.30935
เหมาะกับ	-9.30936
ชิง	-9.30993
สถิติ	-9.31072
พระเจ้า	-9.31121
▁แม้	-9.31184
เดิมพัน	-9.31203
ชู	-9.31314
ต้นไม้	-9.3138
ทําให้เกิด	-9.31431
ี่ย	-9.31462
กรรมการ	-9.31487
ยืนยัน	-9.31602
ลาน	-9.31652
ประสิทธิภาพ	-9.31732
45	-9.31858
ไม่เกิน	-9.3187
คร	-9.31887
วิชาการ	-9.31906
ครอง	-9.32018
หัวหน้า	-9.32037
ัต	-9.32039
มหาชน	-9.32042
der	-9.32058
▁26	-9.3213
ผิวหนัง	-9.32196
ลุ้น	-9.32321
๖	-9.32343
วาด	-9.32386
มีประสิทธิภาพ	-9.32399
ใดๆ	-9.32458
99	-9.3249
si	-9.3251
สังเกต	-9.32609
▁นิ้ว	-9.32616
ชาวบ้าน	-9.32628
59	-9.32645
วัยรุ่น	-9.32656
ฤ	-9.3271
ity	-9.32766
หมาย	-9.32861
ความสามารถ	-9.32887
ee	-9.32895
ฐ	-9.32926
ัก	-9.33049
พระราช	-9.33055
เติบโต	-9.33062
ค์	-9.33132
ไม่ดี	-9.33135
ถิ่น	-9.33196
=	-9.33297
แห่งประเทศไทย	-9.33304
เอ็น	-9.3331
ทุกท่าน	-9.33314
▁โครงการ	-9.33382
คําว่า	-9.33411
ไปถึง	-9.33421
ภู	-9.33446
เสือ	-9.33619
จํากัด	-9.33659
จอม	-9.33689
จําเป็นต้อง	-9.33789
แอบ	-9.33868
เมีย	-9.33892
44	-9.33917
คู	-9.34063
go	-9.34111
หนึ่งใน	-9.34127
รัง	-9.34142
อยู่กับ	-9.34171
น้ําตาล	-9.34185
ประหยัด	-9.34228
▁m	-9.3425
เราได้	-9.34319
ล่าง	-9.34339
ทุ่ง	-9.34342
จะได้รับ	-9.34358
เล็กๆ	-9.34439
sk	-9.34513
▁de	-9.34621
กรุงเทพ	-9.34667
เล่ม	-9.34699
เต้านม	-9.34737
้ง	-9.34793
-3	-9.34851
ร่า	-9.34863
หนี	-9.34911
ฺ	-9.34956
▁ใกล้	-9.35039
โอน	-9.3516
ขึ้นอยู่กับ	-9.35171
กล้า	-9.35289
กองทุน	-9.3534
แข่ง	-9.35342
แหวน	-9.35349
tal	-9.35363
da	-9.35391
สงคราม	-9.354
08	-9.35408
ผู้ประกอบการ	-9.35441
▁•	-9.35482
▁ด้าน	-9.35541
นําเข้า	-9.35571
ที่น่า	-9.35592
▁27	-9.3563
สั่งซื้อ	-9.35631
จาน	-9.35646
ขนม	-9.3566
ย่อย	-9.35682
ที่บ้าน	-9.3569
ทักษะ	-9.35749
รถไฟ	-9.35751
ตู้	-9.35754
ตี้	-9.35778
ของประเทศ	-9.35785
man	-9.35806
ในระดับ	-9.35841
ระเบียบ	-9.35888
กํา	-9.3589
mi	-9.35906
35	-9.35917
โป	-9.3596
เทศกาล	-9.36119
เห็นว่า	-9.36148
▁อย่า	-9.36191
เปิดเผย	-9.36337
ร้านค้า	-9.3642
คว้า	-9.36546
con	-9.36646
▁สิ่งที่	-9.36696
อบรม	-9.36702
▁มหาวิทยาลัย	-9.36745
บรรจุ	-9.36768
ผู้บริโภค	-9.36876
▁ลด	-9.36876
▁ซื้อ	-9.36896
การเกษตร	-9.36904
นาม	-9.36931
ab	-9.3697
สุดยอด	-9.3702
เงื่อนไข	-9.37049
แปล	-9.37169
วงศ์	-9.37198
!!!	-9.37232
▁Thailand	-9.37277
เคส	-9.37317
สร้างสรรค์	-9.37335
เพศ	-9.37349
ได้รับความนิยม	-9.37369
▁สิงหาคม	-9.37413
ร้อยละ	-9.37521
ยินดี	-9.37613
▁กันยายน	-9.37744
ซี่	-9.38007
คุณจะ	-9.38026
ลล์	-9.38035
▁ยา	-9.38072
ภูเก็ต	-9.38079
อัตโนมัติ	-9.3814
ในเวลา	-9.38153
หนา	-9.38162
อาเซียน	-9.38274
จันทร์	-9.38322
โปรโมชั่น	-9.38415
ในอนาคต	-9.38426
▁ครั้งที่	-9.38454
▁ครู	-9.38468
ถือเป็น	-9.38472
03	-9.38478
ชี	-9.38648
ru	-9.38671
ba	-9.38699
ธาตุ	-9.38736
คาร์	-9.38752
ได้มีการ	-9.38814
ทอด	-9.38944
42	-9.38968
อํานวยความสะดวก	-9.38985
ไล	-9.39012
การ์ด	-9.39015
าะ	-9.39021
โหลด	-9.39063
โห	-9.39078
▁นอกจาก	-9.39123
การแสดง	-9.39134
อด	-9.39181
เฉ	-9.39192
17	-9.39205
แจก	-9.39248
▁แถม	-9.3927
48	-9.39335
เวที	-9.39494
▁ตั้งแต่	-9.39595
ซอย	-9.396
ผู้บริหาร	-9.3962
เล็กน้อย	-9.39625
ไฮ	-9.39767
ของผู้	-9.39771
ตกลง	-9.39829
ปรา	-9.39919
ของคน	-9.40083
จําเป็น	-9.40104
▁2016	-9.40107
▁มิถุนายน	-9.40108
โดยตรง	-9.40149
เสียว	-9.40182
เลิก	-9.40206
ว่าเป็น	-9.40218
สํานัก	-9.40221
กําเนิด	-9.40269
เหล่านั้น	-9.40271
สะสม	-9.40312
▁x	-9.40362
▁ทีม	-9.40415
รองเท้า	-9.40477
พรีเมียร์ลีก	-9.40485
ที่เคย	-9.40721
พร้อมกับ	-9.40842
ประวัติ	-9.40933
ฮิ	-9.40939
วัตถุ	-9.40942
ปืน	-9.40957
ต้องมี	-9.40977
การเงิน	-9.41022
▁ประเทศ	-9.41025
อย่างมาก	-9.41026
แลนด์	-9.41026
ไร่	-9.41065
เท่าไหร่	-9.41077
โดยเฉพาะ	-9.41088
ak	-9.41183
ที่ไหน	-9.41188
▁เอฟซี	-9.41188
ชัด	-9.41191
คาด	-9.41194
แมน	-9.41199
ant	-9.41209
ความร่วมมือ	-9.41214
▁Mo	-9.41243
เชิญ	-9.41252
คอนโด	-9.41263
39	-9.41283
สุนัข	-9.41284
โป๊	-9.41284
เจาะ	-9.41301
26	-9.41446
บุตร	-9.41469
อดีต	-9.41538
เตือน	-9.41632
46	-9.41644
สู้	-9.41686
แทง	-9.41723
▁ธ	-9.41749
หอ	-9.41749
▁โทร	-9.41757
นี้จะ	-9.41758
สีแดง	-9.41787
ก็สามารถ	-9.41902
va	-9.4194
▁40	-9.41997
แต่งงาน	-9.4202
ผู้นํา	-9.42071
os	-9.42128
แม	-9.42153
สุดๆ	-9.42208
จู	-9.42441
จัดส่ง	-9.42463
แข็งแรง	-9.42467
วิน	-9.42481
บรรดา	-9.42497
ตัวเลือก	-9.42609
age	-9.42611
ึ	-9.42641
—	-9.42676
หนี้	-9.42729
รวบรวม	-9.42754
▁สี	-9.42757
29	-9.4276
▁iPhone	-9.42769
สิว	-9.42771
อิสระ	-9.42825
กระจาย	-9.42827
อล	-9.42835
คุ้มค่า	-9.4288
ทราย	-9.42907
ใหม่ๆ	-9.42944
ell	-9.42974
-0	-9.42995
ก้อน	-9.43029
▁Se	-9.43086
สะพาน	-9.43104
โฮ	-9.43126
▁ปัจจุบัน	-9.43152
โท	-9.43153
ใบหน้า	-9.43161
พุ	-9.43264
กก	-9.4332
สยาม	-9.43343
▁La	-9.43384
ผนัง	-9.43425
65	-9.43444
อุณหภูมิ	-9.43448
ู	-9.43493
รสชาติ	-9.43496
๔	-9.43618
ลืม	-9.43628
▁»	-9.43649
สําเร็จ	-9.43687
ลอ	-9.43701
ความสุข	-9.4373
กําไร	-9.4381
ดีมาก	-9.43825
นี้เป็น	-9.43915
การเปลี่ยนแปลง	-9.43952
ที่กําลัง	-9.43999
หลวงพ่อ	-9.4402
ความสัมพันธ์	-9.44043
ดุ	-9.44124
ชื่อว่า	-9.44178
▁การแข่งขัน	-9.44184
นิ้ว	-9.44186
ฝรั่ง	-9.44189
มาเป็น	-9.44189
sa	-9.44247
เครื่องดื่ม	-9.44282
ประการ	-9.44321
แม้	-9.4436
37	-9.4439
อเมริกา	-9.44451
ความจริง	-9.4448
ฏ	-9.44497
ภายใต้	-9.44551
วย	-9.44552
ue	-9.44561
▁4.	-9.44581
จะช่วย	-9.44626
ect	-9.44667
▁29	-9.44726
ลิน	-9.44797
คุณสามารถ	-9.44823
วัง	-9.44835
หญ้า	-9.44842
มันก็	-9.45006
ig	-9.45008
๒	-9.45033
รับประทาน	-9.45114
ฝา	-9.45233
ยอมรับ	-9.4527
ความคิดเห็น	-9.45308
▁Y	-9.45321
▁มีนาคม	-9.45368
mm	-9.4551
การท่องเที่ยว	-9.45524
โซน	-9.45581
ศพ	-9.45591
นาฬิกา	-9.45692
ph	-9.45717
▁พนักงาน	-9.45725
ที่เหมาะสม	-9.45755
จุ	-9.45807
สน	-9.45823
▁ตอนนี้	-9.45873
โช	-9.45959
หลง	-9.45968
Q	-9.45987
ไว้ใน	-9.45989
คาสิโนออนไลน์	-9.45998
มันจะ	-9.4601
จะสามารถ	-9.46013
▁2558	-9.46039
เปล่า	-9.46056
แห	-9.46093
แรงงาน	-9.46103
▁กล่าวว่า	-9.46167
ของเธอ	-9.46191
ซาน	-9.46244
ิต	-9.46245
กล้ามเนื้อ	-9.46332
ที่เกี่ยวข้อง	-9.4636
ที่ได้รับ	-9.46362
บัง	-9.46419
เรียง	-9.46582
ราง	-9.46589
คําถาม	-9.46591
หัก	-9.46598
รม	-9.46679
fi	-9.46694
สต์	-9.4672
พักผ่อน	-9.46743
กระทํา	-9.46754
เรีย	-9.4677
สมเด็จพระ	-9.46792
แต้ม	-9.46804
เยาวชน	-9.46883
▁ประเภท	-9.46885
ty	-9.4697
เราก็	-9.47022
ที่มา	-9.47073
ในเรื่อง	-9.47073
▁อาหาร	-9.47092
ถอน	-9.47132
75	-9.47133
200	-9.47222
▁ควร	-9.4725
ได้ง่าย	-9.47316
พฤติกรรม	-9.47332
ดื่ม	-9.47344
กฎ	-9.47523
็ก	-9.4757
▁w	-9.47692
บิ	-9.47714
โปรด	-9.47737
สเปน	-9.47749
ควรจะ	-9.47785
ปวด	-9.47894
ี้ย	-9.47902
พรรค	-9.47937
ก่อนหน้านี้	-9.47959
ทําอะไร	-9.47981
ล้ํา	-9.48018
ใช่	-9.48054
สร้างความ	-9.48186
สํารอง	-9.48188
▁ประเทศไทย	-9.482
คล้าย	-9.48206
เดินทางไป	-9.48231
โพสต์	-9.48272
บํารุง	-9.48277
ในรูปแบบ	-9.48308
สะดวกสบาย	-9.48319
27	-9.48353
นุ่ม	-9.48459
กรอง	-9.4849
ลัก	-9.48581
ไท	-9.48584
อัล	-9.48603
▁กรุงเทพมหานคร	-9.48657
อนุ	-9.48663
เหลือง	-9.48669
▁แห่ง	-9.4869
จิตใจ	-9.48702
▁อุปกรณ์	-9.48705
▁กรกฎาคม	-9.48794
๘	-9.48813
ประสบความสําเร็จ	-9.48934
วิตามิน	-9.49008
▁ตอนที่	-9.49039
ของฉัน	-9.49094
▁เหรียญ	-9.49162
ปฏิบัติการ	-9.49213
อักเสบ	-9.49223
58	-9.49266
ไม	-9.49275
ภัย	-9.49328
▁31	-9.49336
มีคน	-9.4934
๊อก	-9.49363
▁ยิ่ง	-9.4938
กุล	-9.49385
ซัก	-9.49405
70	-9.49422
88	-9.49453
มู	-9.49476
▁ประธาน	-9.495
กางเกง	-9.49556
pa	-9.49558
สืบ	-9.49578
-5	-9.49667
ผลกระทบ	-9.49671
po	-9.4974
ข้อเสนอ	-9.49743
ความต้องการ	-9.49773
ิล	-9.4978
▁หมู่	-9.49794
ของโลก	-9.49794
แนวคิด	-9.4987
เน็ต	-9.49923
▁เมษายน	-9.50028
ki	-9.50043
EN	-9.50118
คือการ	-9.50166
๙	-9.50186
ist	-9.50186
ทดลอง	-9.50206
64	-9.50214
ca	-9.50247
ยอม	-9.50263
พนัน	-9.50405
รอด	-9.50454
อย่างแน่นอน	-9.50458
บัว	-9.505
นั่น	-9.50539
เบา	-9.50588
วุฒิ	-9.50601
ON	-9.50691
ที่ทํา	-9.50743
▁Bo	-9.5079
เรื่องของ	-9.50801
สหรัฐอเมริกา	-9.50958
xxx	-9.50997
หัน	-9.51127
ภูมิภาค	-9.51165
ผู้ผลิต	-9.51236
▁by	-9.51263
เกินไป	-9.5131
▁ดร	-9.51344
มุ่ง	-9.51369
ให้มี	-9.51399
▁สาขา	-9.51409
นานาชาติ	-9.51413
ตัวแทน	-9.5147
ห่วง	-9.51475
ตึก	-9.51679
ga	-9.51683
▁คลิป	-9.51702
อ้อย	-9.51715
ทรัพย์	-9.51747
ฉาก	-9.51779
นู	-9.51841
ts	-9.51917
โพ	-9.51937
▁หนังโป๊	-9.52019
▁อดีต	-9.52044
สามารถใช้	-9.52229
▁http	-9.52273
มีอยู่	-9.52322
▁อาทิ	-9.52326
บวก	-9.52343
คุ	-9.52352
▁พล	-9.52446
จะใช้	-9.52482
ไปที่	-9.52574
ระเบิด	-9.52604
ear	-9.52608
คําตอบ	-9.52646
MA	-9.52647
บางคน	-9.52654
ทะเบียน	-9.52679
แบน	-9.52685
ลับ	-9.5277
br	-9.52802
อย่างน้อย	-9.52855
ต้องใช้	-9.52893
▁200	-9.52966
ide	-9.52985
แบ	-9.53017
▁สินค้า	-9.53105
54	-9.53155
▁xxx	-9.53194
100	-9.53204
วางแผน	-9.53236
หมายถึง	-9.53327
oo	-9.53338
ถอด	-9.53377
พอดี	-9.53397
ตั้งใจ	-9.5341
ฉาย	-9.53423
จีคลับ	-9.53547
ราก	-9.53555
แลกเปลี่ยน	-9.53566
เซน	-9.53628
ไพ่	-9.53678
ice	-9.53732
ข้าราชการ	-9.53762
ชิน	-9.53763
บางครั้ง	-9.53798
ผมก็	-9.53861
IC	-9.53874
เครื่องยนต์	-9.53878
ประเมิน	-9.53942
แม้แต่	-9.54012
09	-9.54037
5%	-9.5406
ขอนแก่น	-9.54092
ปุ่ม	-9.54095
กันเลย	-9.54137
▁โปรแกรม	-9.54159
รวมถึง	-9.54319
▁โอ	-9.54329
ตับ	-9.54331
ร่ม	-9.54345
ให้เรา	-9.54346
กู้	-9.54427
▁Le	-9.54431
พลาด	-9.54463
การดําเนินงาน	-9.54475
ยาม	-9.54527
รุนแรง	-9.54542
ประชาสัมพันธ์	-9.54611
ล้าน	-9.54643
หลังคา	-9.54645
หลักฐาน	-9.54702
TH	-9.54724
การผ่าตัด	-9.54729
โดยไม่	-9.54812
sh	-9.54833
▁Con	-9.54876
้ม	-9.54952
ส่วนลด	-9.55146
มาก่อน	-9.55158
นึง	-9.55178
▁---	-9.55233
ชําระ	-9.55246
มูลนิธิ	-9.55269
ยิ่งใหญ่	-9.55275
จัดทํา	-9.55313
สํา	-9.55335
ครัว	-9.55411
▁New	-9.5544
em	-9.55448
คล	-9.55497
ถือว่าเป็น	-9.55514
โดดเด่น	-9.55566
sp	-9.55616
คุม	-9.55681
แบตเตอรี่	-9.55706
▁ร่วม	-9.55811
มั่นใจ	-9.55834
ความเสียหาย	-9.55838
คลื่น	-9.55883
แผ่นดิน	-9.55888
รับผิดชอบ	-9.55897
แว	-9.55919
77	-9.55994
ud	-9.5602
ัว	-9.56048
ผี	-9.56182
▁Di	-9.56225
โชค	-9.5623
อิเล็กทรอนิกส์	-9.5625
รบ	-9.56354
gi	-9.56357
ห้องน้ํา	-9.56385
จ้า	-9.56391
ในเขต	-9.56422
ในโลก	-9.56446
โดยใช้	-9.56567
เหมือนกับ	-9.56596
สินเชื่อ	-9.56632
port	-9.5666
หรู	-9.56735
▁ไม่ต้อง	-9.56798
มีลักษณะ	-9.5682
▁www	-9.56839
▁Ro	-9.569
▁กม	-9.56927
สาน	-9.57052
ิง	-9.57057
ัญ	-9.57069
▁=	-9.57162
▁https	-9.57174
เบน	-9.57196
ff	-9.57209
62	-9.57333
ทางเลือก	-9.57374
สํารวจ	-9.57375
การตรวจ	-9.57414
สีสัน	-9.57446
สตรี	-9.57454
ธิ	-9.57464
เบื้องต้น	-9.57485
▁ช่วย	-9.57538
ตัวเลข	-9.57563
วิทยาลัย	-9.57577
ack	-9.57586
ในด้าน	-9.57621
เลื่อน	-9.57645
ให้เลือก	-9.57646
บ่อย	-9.57665
โต้	-9.57817
ออกกําลังกาย	-9.57831
ตามที่	-9.57858
ถ้ํา	-9.579
แป้ง	-9.57908
43	-9.57921
ดาวน์โหลด	-9.57947
▁สาว	-9.5797
▁รายการ	-9.58013
โครง	-9.58025
ในราคา	-9.58054
อนาคต	-9.58073
เอาชนะ	-9.58082
▁เหมาะสําหรับ	-9.58114
มีอาการ	-9.58149
ดีที่สุด	-9.58254
ทอ	-9.58256
▁จุด	-9.58343
▁คุณสามารถ	-9.58354
ซึ่งเป็น	-9.5839
ดังนี้	-9.58398
*	-9.58479
เรียบร้อย	-9.58552
บุคลากร	-9.58564
เชื่อมต่อ	-9.58641
ชาร์จ	-9.58714
▁กิโลเมตร	-9.58762
ที่ผม	-9.58796
▁ประตู	-9.58806
▁พร้อมกับ	-9.58848
สติ	-9.58962
▁ผู้อํานวยการ	-9.58994
ที่เขา	-9.59013
ให้เห็น	-9.59019
การบริหาร	-9.59099
พันธ์	-9.59136
จร	-9.59181
บางอย่าง	-9.59225
ชั้นนํา	-9.5923
▁พฤษภาคม	-9.59272
กาล	-9.59284
ดูหนัง	-9.59357
เกียร์	-9.59364
เพาะ	-9.59381
มิติ	-9.594
เกรด	-9.59428
มะเร็ง	-9.59428
ep	-9.59456
กลม	-9.59506
บุรีรัมย์	-9.59513
จัดงาน	-9.59517
ion	-9.5953
เป็นตัว	-9.59626
ag	-9.59638
เมืองไทย	-9.5966
เสี่ยง	-9.59712
เราต้อง	-9.59714
▁Vi	-9.59721
32	-9.59754
ว์	-9.59866
▁กิจกรรม	-9.59877
▁An	-9.59908
คุณแม่	-9.59919
ยะ	-9.59921
▁Bu	-9.59954
ip	-9.59977
ka	-9.60002
คิว	-9.60029
เกร	-9.60044
ด้า	-9.60064
กระตุ้น	-9.60104
▁ที่พัก	-9.60116
ขนส่ง	-9.60138
mp	-9.60168
นายกรัฐมนตรี	-9.60214
▁ภายใน	-9.60222
▁HD	-9.60231
เรามี	-9.60232
▁Tr	-9.60254
ในวัน	-9.60262
ฆ	-9.60268
อธิบาย	-9.60315
57	-9.60353
ให	-9.60372
▁ซึ่งมี	-9.60375
เป็นที่	-9.60382
ก่อ	-9.60389
นอกจาก	-9.60431
▁Ex	-9.60489
สมาร์ทโฟน	-9.60493
ยาวนาน	-9.605
โค้ช	-9.60515
รายชื่อ	-9.60531
เค้ก	-9.60537
▁For	-9.6059
เกี่ยวกับการ	-9.6059
เปรียบเทียบ	-9.60698
▁และการ	-9.60704
ยาเสพติด	-9.60734
ปีนี้	-9.60742
53	-9.60759
วิทยุ	-9.60783
แข้ง	-9.6081
ในโรคสะเก็ดเงิน	-9.60825
องค์การ	-9.60847
สายตา	-9.60868
▁รักษา	-9.60896
art	-9.60922
ในแต่ละ	-9.60935
ทู	-9.61061
เดี่ยว	-9.61126
คนหนึ่ง	-9.61126
เชียงราย	-9.61152
ัง	-9.61167
▁He	-9.61172
เผยแพร่	-9.61181
สิน	-9.61243
▁2557	-9.61259
ประชา	-9.61263
อยากให้	-9.61266
อาทิตย์	-9.61305
อิตาลี	-9.61439
เด่น	-9.6144
66	-9.61507
็อก	-9.61576
US	-9.61669
▁ธันวาคม	-9.61771
ในเมือง	-9.61779
แก้ปัญหา	-9.61798
ยง	-9.61844
▁เดอะ	-9.61929
เรียบ	-9.61992
สเตอร์	-9.62023
▁โรค	-9.62027
เสด็จ	-9.62052
ร่วมงาน	-9.62066
ผ่านทาง	-9.62204
คุณค่า	-9.62227
สร	-9.62255
เจ้าตัว	-9.62256
ตลอดเวลา	-9.62271
มานาน	-9.62291
AT	-9.62356
เป็นสิ่งที่	-9.62406
ของไทย	-9.62438
ไม่ควร	-9.62441
พระบาทสมเด็จ	-9.62464
ดร	-9.62486
.1-	-9.6249
ของปรสิต	-9.62607
▁Be	-9.62662
41	-9.62699
มันเป็น	-9.62741
ขณะนี้	-9.62745
เสียชีวิต	-9.62802
ู่	-9.62802
61	-9.62833
ศิลปิน	-9.62846
หมายเลข	-9.62978
▁บาคาร่า	-9.62984
เสียหาย	-9.62993
อั	-9.62998
รู้สึกว่า	-9.63
ปกป้อง	-9.63029
▁2015	-9.63031
ภายหลัง	-9.6304
พันธมิตร	-9.63046
ขุน	-9.63086
สัม	-9.63092
31	-9.63099
ast	-9.63144
บัณฑิต	-9.63155
▁มกราคม	-9.63222
ers	-9.63328
็ด	-9.63399
จะทํา	-9.63433
อส	-9.63524
บูชา	-9.63568
เป็นหนึ่งใน	-9.63573
ตื่น	-9.63599
▁เสื้อ	-9.63691
▁valgus	-9.63719
พับ	-9.63723
▁จะมี	-9.63822
ราม	-9.6388
คัด	-9.63906
@	-9.63914
เลีย	-9.63978
รร	-9.63979
บ่อ	-9.64002
อย่างเป็นทางการ	-9.64036
คุณสมบัติ	-9.64081
ในเด็ก	-9.64086
รับประกัน	-9.64089
.4	-9.64108
▁Sp	-9.64115
ล้วน	-9.64223
เล็บ	-9.64286
ไลน์	-9.64439
400	-9.64461
▁แล้วก็	-9.64472
ปัญญา	-9.64485
GB	-9.64516
เนอร์	-9.64526
ค้า	-9.64538
son	-9.64539
เหล	-9.64554
ฝีมือ	-9.64559
▁ราย	-9.64608
ยังเป็น	-9.647
ไบ	-9.64726
หายไป	-9.64793
ย่า	-9.64886
๊ก	-9.64987
ขยะ	-9.65011
▁Mar	-9.6502
ตรี	-9.65032
อัพ	-9.65045
ขอให้	-9.65061
ick	-9.65166
ย้อน	-9.65406
▁d	-9.65407
่อ	-9.65448
เป็นอย่างมาก	-9.65551
เลนส์	-9.65553
ฝุ่น	-9.65593
นิว	-9.65623
หมื่น	-9.65705
ฤทธิ์	-9.65777
คุ้มครอง	-9.65778
▁ซึ่งจะ	-9.65811
ทุกข์	-9.6583
แอพ	-9.65838
▁ข้อ	-9.65907
ที่นั่ง	-9.65923
บริษัทฯ	-9.6599
หมา	-9.6607
ของทีม	-9.66139
▁คอนโด	-9.66146
กระชับ	-9.66168
มองเห็น	-9.66173
▁Google	-9.66179
ถ่ายรูป	-9.66227
หนาว	-9.66253
เซีย	-9.66278
อินเดีย	-9.66282
กรุงเทพฯ	-9.66294
กอ	-9.66304
เฟอร์นิเจอร์	-9.66329
ที่ตั้ง	-9.66354
โดยไม่ต้อง	-9.66438
▁รูป	-9.66442
เป็นไปได้	-9.66487
เหมาะ	-9.66509
ได้ที่	-9.66526
คุ้ม	-9.66531
ov	-9.66601
คัดเลือก	-9.66641
▁เพราะว่า	-9.66678
ที่สวยงาม	-9.66717
▁เ	-9.66768
วรรณ	-9.66882
vo	-9.66893
ทรัพยากร	-9.66905
รัตน์	-9.66918
av	-9.6692
ห่าง	-9.66968
tic	-9.66975
▁กรม	-9.66982
52	-9.66986
tra	-9.67062
ชลบุรี	-9.67069
สูงขึ้น	-9.67072
▁Ba	-9.67078
รัด	-9.67107
.25	-9.67135
ทั้งสิ้น	-9.6714
วงการ	-9.67167
33	-9.67321
เจอร์	-9.67345
๕	-9.67354
ยิ่งขึ้น	-9.6745
น่าสนใจ	-9.67533
ัท	-9.67533
ความหมาย	-9.67538
ยกเลิก	-9.67546
SA	-9.67552
ance	-9.67564
สีเขียว	-9.67607
เข้ากับ	-9.6763
▁*	-9.67686
ครอบคลุม	-9.67757
มืออาชีพ	-9.67772
รถไฟฟ้า	-9.67778
▁Sh	-9.67892
หมุน	-9.67987
ปั่น	-9.6799
▁ปรสิตใน	-9.68021
ดัน	-9.68067
ไต	-9.68126
พ้น	-9.68134
▁อาการ	-9.68237
สื่อสาร	-9.68238
▁เริ่ม	-9.68246
end	-9.68304
ในบ้าน	-9.68457
ไม่มีใคร	-9.68465
สงสัย	-9.68469
เป็นเวลา	-9.68534
เยอรมัน	-9.68558
เหรียญ	-9.68581
ทรัพย์สิน	-9.68593
▁ใบ	-9.68596
OR	-9.6861
▁เธอ	-9.68622
อย่างนี้	-9.68729
ื่อ	-9.68732
กี้	-9.68733
IT	-9.68772
กล่าวว่า	-9.68779
หน้าอกเล็ก	-9.68788
ก้า	-9.68799
อินเทอร์เน็ต	-9.68833
มาใช้	-9.68856
ถ้าหาก	-9.68861
AL	-9.68889
о	-9.68891
ไน	-9.68938
ประดับ	-9.68949
ได้จาก	-9.68989
ุ้ง	-9.68995
▁แม้ว่า	-9.68998
so	-9.69029
สากล	-9.69063
จดทะเบียน	-9.6914
เรื่องการ	-9.69152
▁ซิตี้	-9.69203
ock	-9.69288
ภูเขา	-9.69302
สเต	-9.69399
▁นาง	-9.69402
69	-9.69413
ไม่ให้	-9.69426
▁5.	-9.69457
ยาน	-9.69469
จักรยาน	-9.69479
แต่งตั้ง	-9.69507
ทารก	-9.69512
สถานะ	-9.69519
วันเสาร์	-9.6955
บางส่วน	-9.69593
สปอร์ต	-9.69594
▁เพิ่ม	-9.69614
หรอก	-9.69624
ss	-9.69699
ค่อย	-9.69705
od	-9.69707
sion	-9.69714
IS	-9.69723
ยังสามารถ	-9.69739
ภาพถ่าย	-9.69749
ได้มา	-9.69759
แท	-9.69775
▁ผล	-9.69857
ผง	-9.69872
การเมือง	-9.69884
▁ลูก	-9.69907
จะไป	-9.69939
ของตน	-9.69967
เลยค่ะ	-9.69981
bu	-9.69998
89	-9.70007
เทียน	-9.70029
ทันสมัย	-9.70061
ซอง	-9.701
มาตรการ	-9.70106
ถ้วย	-9.70161
▁อาจ	-9.70162
ถูกต้อง	-9.70179
ที่สอง	-9.70216
ธน	-9.70224
หมายความว่า	-9.70238
จ่ายเงิน	-9.70242
สะท้อน	-9.70257
▁ภาพ	-9.70292
▁100%	-9.70299
ความสําเร็จ	-9.70329
ผา	-9.70411
เกณฑ์	-9.70417
วันหยุด	-9.70576
สว่าง	-9.70602
ลี่	-9.70612
ปั้น	-9.70626
อยู่บน	-9.70641
ล้ม	-9.7069
เฉลี่ย	-9.70734
เจีย	-9.70816
ไ	-9.70914
▁ก็จะ	-9.70984
ase	-9.71037
นิ่ง	-9.71063
การดูแล	-9.71076
ผู้จัดการ	-9.71083
กันได้	-9.71085
▁คณะ	-9.71143
แตกต่างกัน	-9.71186
▁พร้อมทั้ง	-9.71202
เขียว	-9.71342
ci	-9.71417
เซ็น	-9.71459
▁ล่าสุด	-9.71515
ดับ	-9.7156
การเลือก	-9.71562
แพง	-9.71607
ในทุก	-9.7163
ได้เห็น	-9.71635
ลุย	-9.71645
หาด	-9.71673
▁จําหน่าย	-9.71686
แชร์	-9.71717
ตรงนี้	-9.71733
มอ	-9.71789
็ง	-9.7183
▁หลังจากที่	-9.71833
แต	-9.71859
๓	-9.71868
หลอด	-9.71961
ออน	-9.7198
ในส่วนของ	-9.7198
วินาที	-9.71985
ในวันที่	-9.7206
แป	-9.72079
เวียดนาม	-9.72084
ทุกๆ	-9.72184
แจ	-9.72232
พอใจ	-9.72249
รัสเซีย	-9.72273
&	-9.72278
อาบน้ํา	-9.72285
พงษ์	-9.72306
ครั้งที่	-9.7238
▁ซี	-9.72385
อาศัย	-9.72413
ของบริษัท	-9.72455
ถ่ายภาพ	-9.7246
ไปสู่	-9.72461
แวะ	-9.72465
บางที	-9.72471
สนิท	-9.72509
ไปกับ	-9.72512
เต้น	-9.7256
จะให้	-9.72621
ลงสนาม	-9.72674
ความเข้าใจ	-9.72681
ชีพ	-9.72684
▁g	-9.72693
จะมา	-9.7274
ลอน	-9.72784
day	-9.72851
รวมทั้ง	-9.72869
▁อีกทั้ง	-9.72934
▁เผย	-9.73037
51	-9.7304
▁ถ้าคุณ	-9.73046
ล่วงหน้า	-9.73117
95	-9.73119
ล็อค	-9.73146
ส่วนหนึ่ง	-9.73189
ตํานาน	-9.73238
ทร	-9.7324
▁ภายใต้	-9.73275
จมูก	-9.73327
ั่ง	-9.73333
เพื่อการ	-9.73368
ม่า	-9.73418
ทิศทาง	-9.73424
เลิศ	-9.73432
ดิจิตอล	-9.7347
แหละ	-9.73516
เต็มไปด้วย	-9.7361
สนามบิน	-9.73619
ฝัง	-9.73626
ฝ	-9.73648
ประธาน	-9.73693
แทงบอล	-9.73867
นี้มี	-9.73952
เกมนี้	-9.7397
ก็เลย	-9.73992
วาย	-9.74021
85	-9.74052
สัมมนา	-9.74095
เทรด	-9.74121
คอร์	-9.74173
ด้านหลัง	-9.74174
ไส้	-9.7424
ในยุค	-9.74245
ิด	-9.74281
เข้าถึง	-9.74483
มิน	-9.74502
Cl	-9.74542
อีกหนึ่ง	-9.74662
ps	-9.74668
คิ	-9.74673
ขวด	-9.74675
จะมีการ	-9.74684
ial	-9.747
นุ	-9.74712
▁ช่วง	-9.74729
ศิริ	-9.748
ไปตาม	-9.74815
งดงาม	-9.74821
ลงเล่น	-9.74854
ลาว	-9.74901
ต่อสู้	-9.7492
การนํา	-9.7496
ข้า	-9.74991
ประทับใจ	-9.751
เบล	-9.75101
▁หี	-9.75165
กันไป	-9.75202
▁ชื่อ	-9.75241
ผู้ช่วย	-9.75363
▁หากคุณ	-9.75404
ช่วยลด	-9.75433
ระบุว่า	-9.75483
พัดลม	-9.75496
มอเตอร์	-9.75535
ระวัง	-9.75552
เจน	-9.75553
▁กุมภาพันธ์	-9.75586
ou	-9.7562
การวิเคราะห์	-9.75627
00	-9.75664
ด้านล่าง	-9.75669
ซุ	-9.75785
อย่างรวดเร็ว	-9.75803
▁Wi	-9.75805
▁'	-9.75822
▁ส่ง	-9.75865
▁นัก	-9.75892
ไม่เป็น	-9.75892
▁Online	-9.7592
แก้ไขปัญหา	-9.75961
ต่อมา	-9.75975
ห้า	-9.7599
คลินิก	-9.76019
หรือเปล่า	-9.76027
ุ่ม	-9.76041
▁h	-9.76119
ของเวิร์ม	-9.76127
เตา	-9.76138
ห้าง	-9.76159
โคร	-9.76194
|	-9.76244
ที่เหลือ	-9.76287
มุมมอง	-9.76348
ทองคํา	-9.76382
.....	-9.76399
ตอบสนอง	-9.76419
แนะนําให้	-9.76432
อร	-9.76473
เชื่อม	-9.76474
สงบ	-9.76497
ในตัว	-9.76511
ฮอ	-9.76542
tor	-9.76597
ก่อนที่จะ	-9.76619
▁ชม	-9.76626
ภาษาไทย	-9.76633
47	-9.76678
ยุ	-9.76718
๗	-9.7676
ต้ม	-9.76775
ขวัญ	-9.76813
▁?	-9.76835
AC	-9.76942
มวย	-9.76956
ตู	-9.76957
ความเห็น	-9.77003
AS	-9.77024
ค้าง	-9.77084
่อง	-9.77131
▁อ่าน	-9.77152
ที่ว่า	-9.77194
นักแสดง	-9.77264
เท่ากับ	-9.77272
▁และยัง	-9.77284
▁แผ่น	-9.77314
ปะ	-9.77326
▁พวกเขา	-9.77361
เส้นเลือด	-9.77405
การทดสอบ	-9.77468
ทะ	-9.77517
อย่างดี	-9.77558
โตโยต้า	-9.77565
จัดตั้ง	-9.7762
ระยะทาง	-9.77689
แมลง	-9.77729
ตัวนี้	-9.77738
หมู่	-9.77775
online	-9.77797
ัช	-9.77809
ซ่า	-9.77885
ไปได้	-9.77894
ตาก	-9.77915
เงา	-9.77918
จักร	-9.77939
พระราม	-9.77941
▁สร้าง	-9.77942
ster	-9.77947
๊อ	-9.77952
line	-9.77955
ทุกชนิด	-9.78006
วาน	-9.78009
เหมา	-9.78028
เผย	-9.78056
ปอ	-9.78088
หุ่น	-9.78104
ight	-9.78158
สุร	-9.78193
ระดับโลก	-9.78283
LE	-9.78331
▁Home	-9.78341
ปร	-9.78349
จัง	-9.78364
แต่ละคน	-9.78374
▁ลอง	-9.78415
สัดส่วน	-9.78426
๐	-9.78477
▁ในขณะที่	-9.78483
เสริมดวง	-9.78491
รหัส	-9.78512
เข้าชม	-9.78523
กระแทก	-9.78531
การบริการ	-9.78532
ในการรักษา	-9.78615
ยิ้ม	-9.7867
กันว่า	-9.78682
▁คาราโอเกะ	-9.78683
IP	-9.7871
ว่ามี	-9.78807
คนเดียว	-9.78822
ชื่อดัง	-9.78879
ต้นทุน	-9.78907
▁2014	-9.7894
ive	-9.78943
▁วิเคราะห์บอล	-9.78959
เบีย	-9.78967
แถบ	-9.7903
▁เพลง	-9.79063
แอล	-9.79082
thai	-9.79089
อู	-9.79098
-4	-9.79103
เหนื่อย	-9.79109
▁มาตรา	-9.7911
CH	-9.79114
นั้นก็	-9.79131
บ้า	-9.79152
หมวก	-9.79188
ด้านการ	-9.79208
สดใส	-9.7925
เสื่อม	-9.79252
พยาบาล	-9.7928
บก	-9.7932
แกน	-9.79338
ต้องทํา	-9.7942
เก๋	-9.79426
thailand	-9.79429
che	-9.79443
พิพิธภัณฑ์	-9.79452
นี้ก็	-9.79455
ัย	-9.79455
ok	-9.79458
พิษ	-9.79494
เซล	-9.79536
เยี่ยมชม	-9.79537
ของผม	-9.79626
ดี้	-9.79663
สวม	-9.79669
เลือกใช้	-9.79712
▁๓	-9.79713
แฟนบอล	-9.79752
บั	-9.79808
รุ่นใหม่	-9.79846
ทีมชาติไทย	-9.79918
ลุก	-9.79932
อัพเดท	-9.79956
▁ด้วยการ	-9.80051
▁re	-9.80082
หัวข้อ	-9.80168
สามี	-9.80173
▁ไม่ใช่	-9.80174
ในฐานะ	-9.80177
ชนะเลิศ	-9.80211
สังกัด	-9.80216
กล้วย	-9.80276
▁มาดริด	-9.8031
EC	-9.80318
เทศ	-9.80318
พัง	-9.8034
our	-9.80357
การขาย	-9.80368
ara	-9.80394
63	-9.80415
มองว่า	-9.8043
ัค	-9.80433
ประสาท	-9.80472
ฎ	-9.80488
ลําดับ	-9.80511
ร่อง	-9.80522
เองก็	-9.80524
แอน	-9.80578
▁on	-9.80586
น้ําตก	-9.80593
เพจ	-9.80593
▁รอบ	-9.80605
600	-9.80642
วิช	-9.80642
เกลือ	-9.80705
้ว	-9.80755
บาย	-9.80756
พนันบอล	-9.80823
บนใบหน้า	-9.80831
ของตนเอง	-9.80857
ฟู	-9.80862
ในกลุ่ม	-9.80933
เพล	-9.80965
RE	-9.81016
เขื่อน	-9.81026
ชัก	-9.81029
▁เอา	-9.81101
▁เจ้าของ	-9.81155
rt	-9.81179
เช่นเดียวกับ	-9.81234
เชื่อมโยง	-9.81268
ทับ	-9.81333
อิ่ม	-9.81409
นึก	-9.81443
เมล็ด	-9.81472
พระบรม	-9.815
ขี้	-9.8161
▁พร้อมด้วย	-9.81701
▁ผ่าน	-9.81705
แนะ	-9.81717
สาธารณะ	-9.81785
บอร์ด	-9.81813
uk	-9.81891
โทรทัศน์	-9.81901
out	-9.81979
เมื่อปี	-9.81982
กองทัพ	-9.81999
▁09.00	-9.82018
เอกชน	-9.82019
ทนทาน	-9.82028
▁32	-9.82035
้อย	-9.82052
บันเทิง	-9.82095
โทรศัพท์มือถือ	-9.82113
ให้เช่า	-9.82165
ผ่าตัด	-9.8221
ner	-9.82223
การณ์	-9.82243
▁Lo	-9.82297
เอฟ	-9.8232
а	-9.82352
ตําบล	-9.82369
บรร	-9.82375
บริ	-9.8238
ความงาม	-9.82392
รวย	-9.82424
มีส่วนร่วม	-9.82425
จะช่วยให้	-9.82452
สระว่ายน้ํา	-9.82463
เขาก็	-9.82592
ปูน	-9.82593
เคมี	-9.82608
ake	-9.82648
ภรรยา	-9.82652
เพราะว่า	-9.82661
▁You	-9.82699
▁สถานที่	-9.82707
ทําไม	-9.82718
เวิร์ม	-9.82761
^	-9.82761
บรรยาย	-9.82848
ที่เกี่ยวข้องกับ	-9.8286
ขับเคลื่อน	-9.82876
โดยการ	-9.82881
▁อัน	-9.82924
มีประสบการณ์	-9.82928
ย่าง	-9.82952
เราสามารถ	-9.82958
ning	-9.8298
ของโรคสะเก็ดเงิน	-9.83013
คาดว่า	-9.83039
มอน	-9.8306
ton	-9.83065
ว่ามัน	-9.83142
ลงทะเบียน	-9.8315
▁พา	-9.83183
เลยว่า	-9.83189
ung	-9.83195
ช่วงเวลา	-9.83201
az	-9.8322
▁500	-9.83221
อาวุธ	-9.83239
ความเสี่ยง	-9.8329
2018	-9.8331
แหลม	-9.83339
เกิดจาก	-9.8335
สารสนเทศ	-9.83475
ละเอียด	-9.83502
รบกวน	-9.83507
▁ห้องพัก	-9.83529
ในที่สุด	-9.83609
ไปเที่ยว	-9.83653
▁ที่ผ่านมา	-9.83718
พอสมควร	-9.83862
กลยุทธ์	-9.83916
ดิจิทัล	-9.83916
บริจาค	-9.83916
▁ทั้งหมด	-9.83948
สวรรค์	-9.83984
▁Po	-9.83997
▁อําเภอเมือง	-9.83999
ธง	-9.84027
หม้อ	-9.84027
่ว	-9.84035
มวล	-9.84057
ber	-9.84074
กัด	-9.84075
98	-9.84115
หลอดเลือดดํา	-9.84121
มิตร	-9.8414
▁ตู้	-9.84155
ยาย	-9.84156
ไม่กี่	-9.84195
หาร	-9.84198
-6	-9.84271
bi	-9.84315
ทางเข้า	-9.84328
▁โร	-9.84339
รุก	-9.8435
▁เตรียม	-9.84397
สมาธิ	-9.84416
ประจําปี	-9.84499
เต้	-9.84503
▁เค	-9.84531
▁Facebook	-9.84533
shop	-9.84582
▁GClub	-9.84722
เนียน	-9.8475
คี	-9.8476
▁Line	-9.84764
รัฐธรรมนูญ	-9.84778
oc	-9.84782
แถม	-9.84827
รักษ์	-9.84894
โฟ	-9.84898
ฉลอง	-9.84903
รูปร่าง	-9.84909
▁ระดับ	-9.84914
๒๕	-9.84929
ในครั้งนี้	-9.84949
▁ทําไม	-9.84979
ภารกิจ	-9.85001
หล	-9.85017
ได้ด้วย	-9.85041
ท่ามกลาง	-9.85057
800	-9.85088
เพียงพอ	-9.85132
สัญลักษณ์	-9.85141
การทํางานของ	-9.8527
ประสงค์	-9.85276
▁ขอบคุณ	-9.85292
เครื่องบิน	-9.85293
96	-9.85382
ปฏิเสธ	-9.85393
สูบ	-9.85472
โลหะ	-9.85602
สาวๆ	-9.85627
ดูดวง	-9.85629
▁ร่วมกับ	-9.85664
สระ	-9.85688
กล่าวถึง	-9.85713
▁Dr	-9.85772
ต่ํากว่า	-9.85817
▁รีวิว	-9.85827
ไปจนถึง	-9.85862
จึงเป็น	-9.85868
net	-9.85905
นั้นมี	-9.85937
หยิบ	-9.85956
มติ	-9.85962
การกระทํา	-9.85987
อนุรักษ์	-9.85992
อีกมากมาย	-9.86064
ราน	-9.86082
จนกระทั่ง	-9.86115
วิชาชีพ	-9.86129
ตั้งอยู่	-9.86148
ace	-9.86168
มากยิ่งขึ้น	-9.86223
เข้ม	-9.8624
555	-9.8626
ลําไส้	-9.86261
▁ค่า	-9.86266
▁ในปี	-9.8627
ระยอง	-9.86279
▁รองเท้า	-9.86315
ของขวัญ	-9.86327
▁กระเป๋า	-9.86379
▁ซอย	-9.86442
▁เราจะ	-9.86516
ใช้ได้	-9.86538
ได้ตาม	-9.86599
อาย	-9.866
▁รายละเอียด	-9.86614
ปรุง	-9.86621
โว	-9.86621
ST	-9.86622
ที่มีการ	-9.86647
▁อายุ	-9.8673
ko	-9.86796
มื้อ	-9.86859
▁กุนซือ	-9.86863
เดอะ	-9.86924
ปุ	-9.86941
▁t	-9.86967
TS	-9.8699
ส่อง	-9.87
▁กรณี	-9.87006
mon	-9.87019
ืด	-9.8703
็น	-9.87089
▁Na	-9.87208
รํา	-9.87216
▁Car	-9.87277
ข้อตกลง	-9.87293
▁ราคาถูก	-9.87329
ผ่อนคลาย	-9.87337
จด	-9.8736
สูงกว่า	-9.87383
ลิง	-9.87383
▁·	-9.87399
▁Ad	-9.87465
MS	-9.87474
ก่อให้เกิด	-9.87479
▁Ti	-9.87489
เกิดการ	-9.87489
ตรงกับ	-9.87493
ทําให้เรา	-9.87512
ของมนุษย์	-9.87544
เปลือก	-9.87554
CE	-9.87651
▁ยน	-9.87654
ไม่อยาก	-9.87679
ian	-9.87685
ชั่ว	-9.87689
▁Apple	-9.87694
ข้าพเจ้า	-9.87694
หวังว่า	-9.87744
โชคดี	-9.8776
เผา	-9.87773
min	-9.87783
BET	-9.87855
เดินทางมา	-9.87877
เป็นประจํา	-9.87903
เนี่ย	-9.8793
เคลือบ	-9.87953
▁No	-9.87957
ออฟ	-9.87974
ฟื้นฟู	-9.87986
รายวัน	-9.88048
อยากได้	-9.88078
ฟุตบอลโลก	-9.88103
เด็กๆ	-9.8814
▁คัน	-9.88203
mer	-9.88205
▁varices	-9.8827
สหรัฐฯ	-9.88295
▁Br	-9.88314
เป็นต้น	-9.8832
▁อัล	-9.88328
ust	-9.88348
โกง	-9.8844
ผลผลิต	-9.88488
ปุ๋ย	-9.8856
ผ่านการ	-9.88588
ประเพณี	-9.88618
บล็อก	-9.88627
ฟ้อง	-9.88675
be	-9.88696
พ่อแม่	-9.88704
▁be	-9.88784
เสียบ	-9.88786
สิงคโปร์	-9.88792
ปั๊ม	-9.888
▁61	-9.88832
ให้เกิด	-9.88844
สัมพันธ์	-9.88852
สตาร์	-9.88883
พี่น้อง	-9.88904
ั่น	-9.88907
ค่ํา	-9.88908
พื้นบ้าน	-9.88951
เซ็นทรัล	-9.88995
เงินเดือน	-9.89
▁with	-9.89056
เงินสด	-9.8906
/1	-9.89155
▁Ra	-9.89219
เกิดความ	-9.89265
อินเตอร์เน็ต	-9.89267
ลิตร	-9.89275
เครื่องจักร	-9.8929
79	-9.89315
ran	-9.89318
▁ประจําปี	-9.89351
▁แขวง	-9.89364
อรี่	-9.89371
ด่าน	-9.89387
เขาจะ	-9.89397
พิสูจน์	-9.89403
ture	-9.89426
มากนัก	-9.89474
▁ลีก	-9.89489
อุ่น	-9.89517
พัทยา	-9.8955
นัน	-9.89615
94	-9.89647
ไพ	-9.89651
ในเรื่องของ	-9.89668
กรุณา	-9.89669
สวยๆ	-9.8967
การให้บริการ	-9.89688
ตรงข้าม	-9.89723
เรน	-9.89739
พระราชทาน	-9.89763
68	-9.89817
สัง	-9.89859
ส้ม	-9.89863
▁90	-9.89866
ในห้อง	-9.89867
ด้านหน้า	-9.89904
▁Ho	-9.8991
ได้ถึง	-9.89921
ผู้มี	-9.89942
กุศล	-9.89963
สิ่งของ	-9.89986
ปรึกษา	-9.90039
ได้แล้ว	-9.90068
mb	-9.90115
กันอย่าง	-9.90132
นั้นจะ	-9.90143
86	-9.90154
ix	-9.90211
ในชีวิต	-9.90249
ชะ	-9.90257
ที่อยู่ใน	-9.90285
อินเตอร์	-9.903
งวด	-9.90336
พ่น	-9.90341
ตื่นเต้น	-9.9038
แน่นอนว่า	-9.90419
е	-9.90432
ย้อนหลัง	-9.90446
นพ	-9.90537
มีผล	-9.9056
ทั้งคู่	-9.90641
ณี	-9.90659
ได้เป็นอย่างดี	-9.90673
ในทาง	-9.90699
▁อิ	-9.90786
สหรัฐ	-9.90817
งบ	-9.90894
กุ้ง	-9.90922
ยกเว้น	-9.90925
act	-9.90929
▁Thai	-9.90999
▁ตอน	-9.91002
อุจจาระ	-9.91024
เป็นไปตาม	-9.91034
ไวรัส	-9.91064
▁มีความ	-9.91071
็อต	-9.91122
ความละเอียด	-9.91154
CO	-9.91162
▁no	-9.91171
คลัง	-9.9119
คับ	-9.91191
-10	-9.91208
เลน	-9.91281
เครื่องสําอาง	-9.91292
ไปดู	-9.91361
ระหว่างประเทศ	-9.91364
อย่างเดียว	-9.91366
วะ	-9.91373
หนึ่งที่	-9.91373
การควบคุม	-9.9145
ประกันภัย	-9.91484
▁ประกอบด้วย	-9.91494
ก์	-9.91511
แรกของ	-9.91566
พร้อมกัน	-9.91589
และเทคโนโลยี	-9.91614
▁เด็ก	-9.91626
thrombophlebitis	-9.9165
ies	-9.91662
สาขาวิชา	-9.91693
เมื่อวันที่	-9.91699
มาร่วม	-9.91728
ศิลป์	-9.9173
คําแนะนํา	-9.91738
นครราชสีมา	-9.9174
แฟ	-9.91763
ปลอม	-9.9177
ได้ยิน	-9.91794
เทียม	-9.91823
▁ตลอดจน	-9.91841
บี้	-9.91844
ฮิต	-9.91847
โค้ง	-9.91897
กรด	-9.91904
สมเด็จ	-9.91909
กลางคืน	-9.91917
▁Tagged	-9.91924
คราว	-9.91968
▁หัวข้อ	-9.91993
top	-9.91999
▁2012	-9.92065
00,000	-9.92092
แต่งตัว	-9.92127
แผนที่	-9.92139
ผู้อื่น	-9.92156
พรหม	-9.92179
▁ชา	-9.92243
รีสอร์ท	-9.92308
คู่มือ	-9.92366
พุ่ง	-9.9237
เข้มข้น	-9.9246
น้อยกว่า	-9.92509
เป็นพิเศษ	-9.92584
ความมั่นคง	-9.92708
สเปค	-9.92708
สัมภาษณ์	-9.92721
สู	-9.92724
กั้น	-9.92745
her	-9.92759
กําลังจะ	-9.92767
เปอร์	-9.92769
แค่ไหน	-9.92809
ซ่อน	-9.92862
▁ฟรี	-9.92871
dy	-9.92873
ชาวไทย	-9.92903
ในศึก	-9.92907
ภาครัฐ	-9.92925
76	-9.92988
วินิจฉัย	-9.93004
อาจมี	-9.93033
เวล	-9.9307
▁และเป็น	-9.93073
▁เมือง	-9.93099
ตุ๊กตา	-9.93125
▁ต่อมา	-9.93128
กี่	-9.93132
ที่ยอดเยี่ยม	-9.93151
ได้ทันที	-9.93191
▁Tags	-9.93216
▁จบ	-9.93246
ยศ	-9.93262
มาพร้อม	-9.93267
ยูฟ่า	-9.93277
พึง	-9.93296
เกี่ยว	-9.93324
มี่	-9.93349
การสื่อสาร	-9.93381
หน้าตา	-9.93392
▁File	-9.93395
ในระบบ	-9.93396
и	-9.93399
ถ่ายทอด	-9.93406
บทบาท	-9.9341
ปก	-9.9346
สารเคมี	-9.93464
ตั๋ว	-9.93485
ตระกูล	-9.93524
shi	-9.9355
ถั่ว	-9.93582
แฮ	-9.93603
จัดขึ้น	-9.93627
TV	-9.93642
▁หางาน	-9.9366
rea	-9.93706
คงจะ	-9.93728
เวอร์ชั่น	-9.9374
ซับ	-9.93787
ood	-9.93816
ด้านบน	-9.93816
เศษ	-9.93828
แตกต่าง	-9.93836
ซื้อขาย	-9.93865
นิด	-9.93876
แน	-9.93879
พม่า	-9.93893
ในวันนี้	-9.93898
▁Li	-9.93903
ปลด	-9.9392
play	-9.93928
-11	-9.93945
▁ถึงแม้	-9.93972
ข้างหน้า	-9.93992
การเรียนการสอน	-9.94069
oto	-9.9411
ย่อ	-9.94111
au	-9.94118
บริสุทธิ์	-9.94131
ทบทวน	-9.94132
แลก	-9.94142
เล่นเกม	-9.94187
ตะวันออก	-9.9419
ฬ	-9.94226
ยังไม่มี	-9.94228
มาตรา	-9.94228
78	-9.94274
คํานวณ	-9.94285
นั้นๆ	-9.94293
เฝ้า	-9.94325
▁ผู้เขียน	-9.94327
หก	-9.94357
ปีก	-9.94411
ปรับตัว	-9.9442
ess	-9.9444
ทัย	-9.94472
็ค	-9.94473
TO	-9.94476
แล้วแต่	-9.94482
แร่	-9.94493
▁ไร่	-9.94508
▁กรุงเทพฯ	-9.94513
ก่อตั้ง	-9.94529
เปล	-9.94588
ลงใน	-9.94595
int	-9.94709
แร	-9.94726
ens	-9.94745
,500	-9.94769
มีส่วน	-9.94862
ike	-9.94901
▁อยาก	-9.94908
การพนัน	-9.94911
▁โดยใช้	-9.9493
อ้วน	-9.94962
ลําโพง	-9.95086
่อน	-9.95086
อสังหาริมทรัพย์	-9.95117
▁ผ้า	-9.95141
แย	-9.95164
เทียบ	-9.95212
▁วิ	-9.95218
ไอเดีย	-9.95246
มาพร้อมกับ	-9.95346
โข	-9.95377
เลเซอร์	-9.95407
fe	-9.95421
หายใจ	-9.95437
จากปรสิต	-9.95492
ในการทํางาน	-9.95536
ข่าวสาร	-9.95546
▁เนื้อ	-9.95549
ผลักดัน	-9.95582
กว้างขวาง	-9.9562
ส่งออก	-9.95626
ทุกวันนี้	-9.95632
▁ตั้งอยู่	-9.9565
ประสบ	-9.95726
ลาด	-9.95727
▁So	-9.95735
ป่วย	-9.9575
:00	-9.95751
เทศบาล	-9.95864
ในตลาด	-9.95868
จราจร	-9.95925
ในระหว่าง	-9.95929
กรุ๊ป	-9.95958
500	-9.95963
บ้านเดี่ยว	-9.95984
เป็นหลัก	-9.95988
▁80	-9.96021
๊ด	-9.96022
ขอบคุณ	-9.96028
หลักการ	-9.96032
▁300	-9.9608
-20	-9.96102
ยืด	-9.96107
วัฒน์	-9.96125
ผู้อํานวยการ	-9.96155
ไม่เห็น	-9.96157
▁ระหว่าง	-9.96172
ลงตัว	-9.9619
▁Do	-9.96216
นั้นเป็น	-9.96262
สาระ	-9.96283
การติดตั้ง	-9.96291
ชื่นชอบ	-9.96346
วิล	-9.96373
ไม่ถึง	-9.96387
อภิ	-9.96396
แตะ	-9.96411
▁฿	-9.96469
▁อม	-9.96567
พึ่ง	-9.96577
ไม่น้อย	-9.96588
▁Mi	-9.96597
67	-9.96611
ไม่ว่าจะเป็น	-9.96612
คุย	-9.96629
SD	-9.96642
ปีที่ผ่านมา	-9.96699
ได้ทุก	-9.96726
▁Su	-9.96742
โหมด	-9.96752
ซ้อม	-9.96828
ทีเดียว	-9.96856
▁ยู	-9.96856
ไม่จําเป็นต้อง	-9.96906
กับเรา	-9.96918
เต็มที่	-9.96931
za	-9.96936
มาน	-9.96937
านุ	-9.96941
ในรอบ	-9.96985
▁ทรง	-9.9699
พรรณ	-9.97011
ช์	-9.97013
เปร	-9.97056
ใหม่ล่าสุด	-9.9707
▁ฉาก	-9.97088
ติน	-9.97148
mail	-9.97192
72	-9.97197
ธา	-9.97204
ร้า	-9.97219
▁คา	-9.97226
อุป	-9.97246
ปกครอง	-9.97251
เป็นครั้งแรก	-9.97254
พาณิชย์	-9.97269
เชียร์	-9.97274
ว่าการ	-9.97303
ng	-9.97316
สลับ	-9.974
▁Sa	-9.97434
ไปอีก	-9.97449
ชายหาด	-9.9746
วิหาร	-9.97476
97	-9.97503
▁2013	-9.97593
ความเชื่อ	-9.97615
เนื้อที่	-9.97619
หลับ	-9.97649
อบอุ่น	-9.9766
ade	-9.97682
▁ชนิด	-9.97693
ญาติ	-9.97715
1%	-9.97726
พรรษา	-9.97751
▁Royal	-9.97783
คลอด	-9.97793
พูดคุย	-9.97793
มาได้	-9.97797
รีด	-9.97816
อาหารเสริม	-9.97832
ละลาย	-9.97832
และพัฒนา	-9.97847
ส่วนผสม	-9.97894
การสนับสนุน	-9.97929
ฟิต	-9.97983
ฮอร์โมน	-9.98005
hu	-9.98009
บิ๊ก	-9.98016
ตัก	-9.9802
อุบัติเหตุ	-9.98056
ตะวันตก	-9.98064
ดอย	-9.98077
ในอดีต	-9.9818
เอามา	-9.98191
เห็ด	-9.9822
ต่อการ	-9.98223
ตอบโจทย์	-9.98234
มืด	-9.9826
ที่แตกต่างกัน	-9.98272
ียน	-9.98298
EL	-9.98465
▁USB	-9.98466
ไข	-9.9847
ประดิษฐ์	-9.98484
▁LED	-9.98554
ประสาน	-9.98572
จะเริ่ม	-9.98579
ออสเตรเลีย	-9.9858
อย่างยิ่ง	-9.98812
▁แทงบอล	-9.98818
ความต้องการของ	-9.98824
เลือกตั้ง	-9.98837
TA	-9.98918
การตรวจสอบ	-9.98924
ในขณะที่	-9.98936
พรม	-9.98938
ไม่ยอม	-9.98943
นักลงทุน	-9.98952
ตามมา	-9.98963
อย่าลืม	-9.99055
ฮั	-9.99064
ew	-9.99074
สุขุมวิท	-9.99094
ปัด	-9.99117
▁รวมไปถึง	-9.99124
โลหิต	-9.99158
ind	-9.99229
จุดเด่น	-9.99258
เคลื่อนที่	-9.99267
ั้ง	-9.99267
มิได้	-9.9927
▁มันเป็น	-9.99291
โจมตี	-9.99352
อาหารเช้า	-9.99406
5,000	-9.99444
ฤกษ์	-9.99449
......	-9.9947
ในกรณีที่	-9.99472
มั้ย	-9.99485
เป้	-9.99495
กรุงเทพมหานคร	-9.99548
รับรู้	-9.99611
เก้าอี้	-9.99643
ผู้เชี่ยวชาญ	-9.99645
ลอก	-9.99662
ไทยลีก	-9.99705
car	-9.99724
เพื่อสร้าง	-9.99745
กับทีม	-9.99767
ec	-9.99817
ให้ท่าน	-9.99819
เหมาะสําหรับ	-9.99836
ลาก	-9.99897
สมัครเล่น	-9.99919
ทราบว่า	-9.99927
สงขลา	-9.99935
▁35	-9.99935
▁Bl	-9.99943
หัวหิน	-9.99944
ness	-10
เลือกซื้อ	-10.0001
▁Inter	-10.0002
เจดีย์	-10.0003
วัตถุดิบ	-10.0007
ure	-10.0009
บรรลุ	-10.001
รับประทานอาหาร	-10.0012
ปฏิ	-10.0019
ES	-10.0026
92	-10.0033
▁แมนเชสเตอร์	-10.0035
ที่จะทําให้	-10.0035
▁ใคร	-10.0036
โน่	-10.0037
oll	-10.0039
ทิศ	-10.004
อย่างนั้น	-10.0041
ราบ	-10.0043
ตอบรับ	-10.0048
ฝ้ากระ	-10.005
เรานั้น	-10.005
cu	-10.005
การป้องกัน	-10.0052
มั่น	-10.0053
กระทู้	-10.0055
▁จากการ	-10.0055
เมอร์	-10.0057
การตัดสินใจ	-10.0063
ถ้าเรา	-10.0063
พริก	-10.0063
เป็นเจ้าของ	-10.0067
เกิดเหตุ	-10.0068
นาค	-10.007
ซิล	-10.0072
งานวิจัย	-10.0072
เวย์	-10.0073
RT	-10.0076
tu	-10.0076
ศัลยกรรม	-10.0078
ยกระดับ	-10.0079
ja	-10.0084
การวิจัย	-10.0088
เรียกได้ว่า	-10.0088
ตรัส	-10.0088
๊ะ	-10.0092
▁Super	-10.0092
เก็บไว้	-10.0094
▁under	-10.0095
ข้อมูลเพิ่มเติม	-10.0096
รอน	-10.0098
แทบ	-10.0105
nd	-10.0106
พกพา	-10.0106
▁๔	-10.0107
porn	-10.011
ฟังเพลง	-10.0112
เมน	-10.0117
ซึม	-10.0117
รัช	-10.0118
▁เปิดเผยว่า	-10.0121
▁ไม่ว่า	-10.0121
▁อิน	-10.0122
ลดน้ําหนัก	-10.0124
time	-10.0129
เหม	-10.0133
▁phlebologist	-10.0134
เบอร์โทรศัพท์	-10.0136
ได้ทั้ง	-10.014
ผูก	-10.0143
71	-10.0143
84	-10.0145
TE	-10.0145
คนนี้	-10.015
▁ดูดวง	-10.0151
คนรัก	-10.0152
เพิ่มความ	-10.0152
เฟอร์	-10.0155
เงียบ	-10.0157
▁เป็นการ	-10.0157
นิค	-10.0158
หลวงปู่	-10.0158
พลิก	-10.016
ผิดหวัง	-10.0163
ไซส์	-10.0164
คู่แข่ง	-10.0167
กาว	-10.0169
การเรียน	-10.017
ซอ	-10.0172
-8	-10.0174
-7	-10.0174
เป็นประโยชน์	-10.0175
โดยรวม	-10.0177
ยังไม่ได้	-10.0179
ปริ	-10.0188
Pa	-10.0188
เข่า	-10.0189
บาดเจ็บ	-10.0189
แขก	-10.019
ตํา	-10.019
▁ก่อนจะ	-10.0191
ก็ไม่ได้	-10.0192
81	-10.0199
กําแพง	-10.0203
กี	-10.0207
ที่ปรึกษา	-10.0208
เครดิต	-10.0208
พระพุทธเจ้า	-10.0212
็กซ์	-10.0215
ET	-10.0216
ห่างจาก	-10.0221
ดังนั้น	-10.0221
กว่าเดิม	-10.0223
ไปเลย	-10.0226
แช่	-10.0232
ตั้งแต่วันที่	-10.0236
อนุมัติ	-10.0237
อํานวย	-10.024
▁l	-10.0242
we	-10.0244
can	-10.0246
▁Android	-10.0247
ary	-10.0249
ไม่นาน	-10.0252
▁รับซื้อ	-10.0252
▁70	-10.0253
▁มาร์	-10.0254
ก็คง	-10.0255
สิริ	-10.0256
จุดด่างดํา	-10.0257
ประเทศญี่ปุ่น	-10.0259
▁คะแนน	-10.0262
ของเด็ก	-10.0263
▁ไม่ว่าจะ	-10.0267
ron	-10.0268
ในการทํา	-10.0269
ina	-10.0274
บวม	-10.0276
ปราสาท	-10.0277
ได้มี	-10.0281
ดิบ	-10.0281
ศักยภาพ	-10.0282
ฟิน	-10.0296
▁Al	-10.03
วิถี	-10.03
แอนด์	-10.03
ป้า	-10.0303
▁ในวันที่	-10.0303
▁เราก็	-10.0308
มาเลเซีย	-10.031
องค์ประกอบ	-10.0312
ขัน	-10.0312
ยักษ์	-10.0313
พัฒนาการ	-10.0315
๊บ	-10.0316
tt	-10.032
ยอมรับว่า	-10.0323
มีหลาย	-10.0323
▁เป	-10.0326
ที่มีคุณภาพ	-10.0332
ส่งผลให้	-10.0334
ev	-10.0338
ari	-10.0351
ในส่วน	-10.0352
อ่าง	-10.0355
ยืนยันว่า	-10.0359
OL	-10.036
รณ	-10.0362
▁คลิปโป๊	-10.0362
เป็นอย่างดี	-10.0363
ทดแทน	-10.0367
▁เที่ยว	-10.0373
ทวี	-10.0378
ยุติธรรม	-10.0379
lazada	-10.0381
บราซิล	-10.0381
กังวล	-10.039
ขอแนะนํา	-10.039
อ่าว	-10.0395
เบี้ย	-10.0396
สแตนเลส	-10.0401
มัด	-10.0403
ดีเยี่ยม	-10.0405
ั่ว	-10.041
ya	-10.0411
ยุทธ	-10.0415
MP	-10.0418
คาน	-10.0423
ดําน้ํา	-10.0427
นนทบุรี	-10.0428
▁รีสอร์ท	-10.0429
รัตน	-10.0434
ทางการ	-10.0434
สูญเสีย	-10.0437
หง	-10.0439
ตัดสิน	-10.0441
แน่ใจ	-10.0443
▁v	-10.0449
ถามว่า	-10.0456
of	-10.0457
▁ถือเป็น	-10.0457
▁Ja	-10.0457
ุ่น	-10.0459
ฟิล์ม	-10.0462
สมดุล	-10.0464
เบิก	-10.0471
▁Windows	-10.0472
BO	-10.0473
กอล์ฟ	-10.0476
ทํานาย	-10.0486
สิ้นสุด	-10.0487
อย่างหนึ่ง	-10.0491
RO	-10.0498
พระพุทธ	-10.0499
เมื่อคุณ	-10.0502
▁เด	-10.0503
ผู้สูงอายุ	-10.0505
เทล	-10.0506
ถ้าคุณ	-10.0506
87	-10.0511
▁6.	-10.0514
ใส่ใจ	-10.0515
ครอบครอง	-10.0517
by	-10.052
เช่นนี้	-10.0523
ral	-10.0524
อยู่ใกล้	-10.0526
ธร	-10.0527
ฮ่องกง	-10.053
กษ	-10.0531
บัตรเครดิต	-10.0532
▁ถ	-10.0534
▁วินาที	-10.054
▁ได้รับ	-10.054
ความสวยงาม	-10.0544
OP	-10.0545
ต่างกัน	-10.0548
โพส	-10.0548
▁บริเวณ	-10.0549
sta	-10.0553
สมควร	-10.0553
อุดตัน	-10.0555
ทางเดิน	-10.0556
▁พี่	-10.0557
▁ยังมี	-10.0562
สิง	-10.0563
เมา	-10.0565
ยอดขาย	-10.0567
ติก	-10.057
ให้ความ	-10.0577
คุณต้อง	-10.0582
โฮม	-10.0583
ที่เรียกว่า	-10.0587
พฤหัส	-10.0592
พระราชบัญญัติ	-10.0596
▁ให้เช่า	-10.0597
มูล	-10.0598
pro	-10.0612
หลอดเลือด	-10.0613
120	-10.0619
จัดกิจกรรม	-10.062
ของลูกค้า	-10.0622
คลุม	-10.0623
สร้างขึ้น	-10.0625
▁หลังจากนั้น	-10.0626
วันละ	-10.0629
ชิม	-10.063
สายการบิน	-10.0632
ทําเล	-10.0634
ได้รับรางวัล	-10.0639
ผ่านไป	-10.0643
เท่าที่	-10.0647
หุ้ม	-10.0648
ED	-10.065
91	-10.0659
ish	-10.0667
อุทยาน	-10.0681
▁Ta	-10.0682
.7	-10.0686
๊า	-10.0691
ได้แก่	-10.0692
ที่ท่าน	-10.0693
▁2556	-10.0696
***	-10.07
ยุทธศาสตร์	-10.0702
มาดู	-10.0702
ดึงดูด	-10.0704
ความสนใจ	-10.0706
▁All	-10.0706
▁รายงาน	-10.0708
ผู้รับ	-10.0708
Fi	-10.071
ขยายตัว	-10.0713
เสริมสร้าง	-10.0714
บําบัด	-10.0714
ก็จะมี	-10.0717
ลาดพร้าว	-10.0717
ช้อปปิ้ง	-10.0721
▁สุ	-10.0722
วันศุกร์	-10.0723
PA	-10.0727
ที่สุดใน	-10.073
air	-10.073
▁๕	-10.0738
อยู่เสมอ	-10.0742
iz	-10.0746
มาร์	-10.0749
ทริป	-10.0752
app	-10.0756
ให้ดี	-10.0756
ปิ้ง	-10.0759
เข้าไปใน	-10.0763
pan	-10.0768
ณา	-10.0769
▁สูตร	-10.0769
ปฏิบัติงาน	-10.077
สมบัติ	-10.0772
ความผิด	-10.0773
เว้น	-10.0775
EX	-10.0776
เมตร	-10.0777
ประมูล	-10.0779
แม้ว่า	-10.0787
เล่	-10.0787
คณิตศาสตร์	-10.0791
OS	-10.0793
ย้ํา	-10.0794
▁ในช่วง	-10.0797
ยอดนิยม	-10.0798
ได้ใน	-10.0803
พันธ	-10.0806
ค่อยๆ	-10.0806
วรรค	-10.0809
▁เส้นเลือดขอด	-10.081
นิทรรศการ	-10.0812
ปฏิทิน	-10.0815
โป้	-10.0818
บริหารจัดการ	-10.0823
ัน	-10.0823
แดด	-10.0823
เดียวกับ	-10.0825
ยอง	-10.0828
bet	-10.083
ประสานงาน	-10.083
hy	-10.0831
amp	-10.0833
ส่วนมาก	-10.0834
สนุกสนาน	-10.0835
ความสามารถในการ	-10.0838
เคารพ	-10.0847
ศร	-10.0849
ขุด	-10.085
ผู้ให้บริการ	-10.0851
ไฮโล	-10.0855
เข็ม	-10.0856
นํามาใช้	-10.0857
โดยสาร	-10.0859
NA	-10.0864
ใช้งานได้	-10.0871
ี่ยว	-10.0874
ในสมัย	-10.0877
สล็อต	-10.088
SS	-10.0881
CD	-10.0883
เรียบร้อยแล้ว	-10.0883
แขวน	-10.0884
วันเกิด	-10.0886
ญา	-10.0891
น่ะ	-10.0896
ผมจะ	-10.0898
การบริหารจัดการ	-10.0898
ml	-10.0899
▁ดังนี้	-10.0903
การออกกําลังกาย	-10.0903
สปา	-10.0907
my	-10.0909
ด้วยตัวเอง	-10.0911
อาศัยอยู่	-10.0912
ms	-10.0913
ลัง	-10.0918
ผิดปกติ	-10.092
ความยาว	-10.092
▁k	-10.0925
2%	-10.0929
เล่นเกมส์	-10.093
เรียกร้อง	-10.0932
น้อยลง	-10.0933
อุดม	-10.0933
ตัวละคร	-10.0934
▁แค่	-10.0938
สามารถที่จะ	-10.0938
อะไหล่	-10.0939
จอด	-10.0942
สําหรับเด็ก	-10.0944
ตัวจริง	-10.0945
เวน	-10.0947
เบียร์	-10.0949
▁เพราะฉะนั้น	-10.095
▁โปรโมชั่น	-10.0954
gu	-10.0955
ทําบุญ	-10.0956
ลุง	-10.0966
ไปหา	-10.0971
▁นั่นคือ	-10.0974
ซัน	-10.0974
ana	-10.0974
ทําผลงาน	-10.0975
ั้น	-10.0979
ริน	-10.098
เป็นจํานวนมาก	-10.098
▁คง	-10.0983
ปล่อยให้	-10.0986
ชัยชนะ	-10.0986
low	-10.0987
ใย	-10.0991
คอล	-10.0994
MI	-10.0995
วงจร	-10.0995
н	-10.0997
นิสัย	-10.1004
่ํา	-10.1005
แล้วว่า	-10.1007
▁ลิเวอร์พูล	-10.1011
ทั้งใน	-10.1012
จัดสรร	-10.1012
มีเส้นเลือดขอด	-10.1012
รับฟัง	-10.1012
▁แต่ว่า	-10.1013
ไม่มีอะไร	-10.1013
▁ห้องนอน	-10.1014
ทุ	-10.1016
แทรก	-10.1019
ปัก	-10.1021
เดินหน้า	-10.1024
เรื่อยๆ	-10.1036
ห้วย	-10.1036
ับ	-10.1044
ิ่น	-10.1046
เป็นแบบ	-10.1047
เช่นนั้น	-10.1047
คิ้ว	-10.1048
รับชม	-10.1049
แสดงผล	-10.105
▁ลักษณะ	-10.105
OT	-10.1051
เป็นเรื่องที่	-10.1053
ท่าเรือ	-10.1057
ฒ	-10.1062
ลําปาง	-10.1066
เบาะ	-10.1071
คว้าแชมป์	-10.1075
อันเป็น	-10.1076
▁>>	-10.1077
แหล่งท่องเที่ยว	-10.1078
ึก	-10.1084
▁09	-10.1088
▁ago	-10.1092
▁อีกทั้งยัง	-10.1097
ob	-10.1097
▁บี	-10.1099
คืออะไร	-10.1101
ลิ้น	-10.1101
ซีซั่น	-10.1102
ติดเชื้อ	-10.1103
▁อี	-10.1105
ในกรณี	-10.1106
ซับซ้อน	-10.1109
วัว	-10.1112
▁Qu	-10.1112
ล้น	-10.1113
74	-10.1114
▁แม่	-10.1115
▁กองหน้า	-10.1123
เดีย	-10.1124
ถึงความ	-10.1127
มังกร	-10.1129
▁เหมือน	-10.113
ต่างชาติ	-10.113
▁เจ้าหน้าที่	-10.1132
แผง	-10.1143
ไซด์	-10.1156
มีผู้	-10.1158
หมวด	-10.1159
ประชากร	-10.1159
ยี	-10.1163
view	-10.117
▁Go	-10.117
able	-10.1172
นิติ	-10.1174
▁เท่า	-10.1176
วิส	-10.1176
บิด	-10.1178
หนังโป๊	-10.1179
เวียน	-10.118
โบนัส	-10.1182
▁ดาวน์โหลด	-10.1185
รั	-10.1185
ยูโร	-10.1186
if	-10.1204
สีน้ําตาล	-10.1205
แห่งหนึ่ง	-10.121
ศิษย์	-10.1211
การดําเนินการ	-10.1215
93	-10.1217
▁มม	-10.1217
res	-10.1218
▁หมายถึง	-10.122
▁เวิร์ม	-10.1222
ให้ดู	-10.1226
eg	-10.1226
ผสมผสาน	-10.1226
กุนซือ	-10.1229
The	-10.123
กรอก	-10.1232
ek	-10.1238
แย่	-10.1239
มันส์	-10.1244
ซ้อน	-10.1244
เหมือนเดิม	-10.1244
สามารถเลือก	-10.1246
ส่งผล	-10.1247
ศัตรู	-10.125
ink	-10.1254
DA	-10.1254
หรูหรา	-10.1255
เช่นเดียวกัน	-10.1256
ทุกครั้ง	-10.1257
สถาปัตยกรรม	-10.1259
▁ไอ	-10.1261
ผู้จัดการทีม	-10.1261
บ่อยๆ	-10.1262
RA	-10.1267
เดี๋ยว	-10.1273
พร้อมด้วย	-10.1277
เป็นโรค	-10.1282
AI	-10.1294
▁$	-10.1295
▁เฮ	-10.13
ของแต่ละ	-10.1302
ปีใหม่	-10.1304
อาจเป็น	-10.1305
lic	-10.1307
ตอนที่	-10.1311
ญาณ	-10.1311
วันจันทร์	-10.1312
เอื้อ	-10.1314
ven	-10.1318
บาคาร่า	-10.1319
สอดคล้องกับ	-10.1323
▁Web	-10.1323
มีประโยชน์	-10.1326
หลอก	-10.1331
หน้าต่าง	-10.1332
ผู้โดยสาร	-10.1338
รุ่ง	-10.1341
ทางการเงิน	-10.1342
เดช	-10.1344
ยัน	-10.1346
82	-10.1351
▁โดยการ	-10.1353
หลุม	-10.1355
เป็นสถานที่	-10.136
เงี่ยน	-10.1363
ดินแดน	-10.1367
ถาวร	-10.1371
▁อาร์	-10.1371
การเลือกตั้ง	-10.1372
ตอนนั้น	-10.138
นักกีฬา	-10.1383
▁2-3	-10.1383
▁Ar	-10.1386
▁ซม	-10.1389
เคร	-10.1392
มีชีวิต	-10.1392
วู	-10.1398
unt	-10.14
กันมา	-10.1404
เนื่อง	-10.1404
les	-10.1406
หมึก	-10.1407
เที่ยง	-10.1411
คาร	-10.1417
แกะ	-10.142
ลําบาก	-10.1424
โฟกัส	-10.1426
▁คุณสมบัติ	-10.1427
ค้นพบ	-10.1428
▁เพียง	-10.1429
ตั้งครรภ์	-10.143
อาจทําให้	-10.143
แผนก	-10.1432
ize	-10.1432
▁ไฟ	-10.1433
สอด	-10.1435
ชั่วคราว	-10.1438
ครบถ้วน	-10.1438
ขายส่ง	-10.1439
การ์	-10.1445
ัณ	-10.1449
หลังจากที่	-10.1449
การเกิด	-10.1449
โดยทั่วไป	-10.1449
ไม่ว่า	-10.1453
▁ซา	-10.1454
ได้ผล	-10.146
การสอน	-10.1462
สําเร็จรูป	-10.1463
จําเลย	-10.1464
มีแต่	-10.1464
กระบี่	-10.1471
เบื่อ	-10.1474
ug	-10.1475
ศีรษะ	-10.1481
เถ	-10.1482
ฤดู	-10.1484
sis	-10.1485
ในร่างกาย	-10.1485
▁แถมยัง	-10.1487
มั่นคง	-10.1498
ือก	-10.1498
แส	-10.1506
โส	-10.1506
จึงต้อง	-10.1514
▁บางคน	-10.1518
т	-10.152
พร้อมทั้ง	-10.152
เคล	-10.1522
▁มีการ	-10.1522
ช่วงนี้	-10.1528
สีเหลือง	-10.1531
ชิด	-10.1533
ปรับเปลี่ยน	-10.1542
บิล	-10.1543
▁กองกลาง	-10.1553
pi	-10.156
เป็นมิตร	-10.156
ไม่มีการ	-10.156
รัน	-10.156
▁Un	-10.1562
สั่น	-10.1564
สกอร์	-10.157
เครื่องหมาย	-10.1577
ความดัน	-10.1577
CR	-10.158
คุณธรรม	-10.1582
▁นี่	-10.1582
▁ธนาคาร	-10.1582
ซิน	-10.1583
cc	-10.1603
เคล็ดลับ	-10.1604
เชี่ยวชาญ	-10.1604
มีความรู้	-10.1606
ฝ้า	-10.1606
ทั้งนั้น	-10.1607
กระทบ	-10.1612
จําลอง	-10.1612
บทเพลง	-10.1619
รายงานว่า	-10.1621
อุทยานแห่งชาติ	-10.1624
มีคุณภาพ	-10.1625
กล้องวงจรปิด	-10.1627
สกัด	-10.1627
ขี่	-10.1628
▁เลือก	-10.1631
สีฟ้า	-10.1633
BA	-10.1633
จะนํา	-10.1634
▁นอกจากนั้น	-10.1635
ปลุก	-10.1639
สิงห์	-10.1643
ฟื้น	-10.1645
การปฏิบัติ	-10.1647
สวมใส่	-10.1652
ox	-10.1652
ธีร	-10.1653
การประกวด	-10.1657
ขยับ	-10.1657
เช็ด	-10.166
▁::	-10.1662
ดีใจ	-10.1662
เงินกู้	-10.1665
ย้ายไป	-10.1665
73	-10.1668
▁กระเบื้อง	-10.1669
ล้อม	-10.1669
▁หัว	-10.1669
UN	-10.167
ลดราคา	-10.1672
▁Air	-10.1673
▁สวน	-10.1674
คุณภาพดี	-10.1674
ซูเปอร์	-10.1674
เกล	-10.1675
ของชาว	-10.1678
▁โม	-10.1679
โฉม	-10.168
สมบูรณ์แบบ	-10.1685
กลางวัน	-10.1686
อ้าง	-10.169
▁แต่ยัง	-10.1693
คนละ	-10.1698
PS	-10.17
เมนต์	-10.1703
เป้า	-10.1703
เหนียว	-10.1703
▁ข	-10.1707
▁neurodermatitis	-10.1707
▁อง	-10.1707
คัพ	-10.171
ต่างก็	-10.1715
หอย	-10.1717
กลางแจ้ง	-10.1717
บีบ	-10.172
น้ํายา	-10.1727
รัชกาลที่	-10.1738
สุภาพ	-10.1739
มีให้เลือก	-10.174
▁กล้อง	-10.174
โซ่	-10.1744
ผ่อน	-10.1749
ที่ไม่มี	-10.175
▁ร้านอาหาร	-10.1752
▁Power	-10.1754
การเขียน	-10.1755
ข้อดี	-10.1764
ual	-10.1767
รวมกัน	-10.1767
เพื่อที่จะ	-10.1769
ความแข็งแรง	-10.1771
▁แม้จะ	-10.1773
นด์	-10.1783
ค่าธรรมเนียม	-10.1785
รัส	-10.1785
สามัญ	-10.1787
แต่อย่างใด	-10.1789
ผลประโยชน์	-10.1795
pr	-10.1797
คิดถึง	-10.18
แม่นยํา	-10.18
สถานศึกษา	-10.1801
ต่อต้าน	-10.1802
ไอ้	-10.1803
“	-10.1805
7%	-10.1809
พงศ์	-10.1812
ฐานข้อมูล	-10.1813
ลาส	-10.1813
คลับ	-10.1813
▁แนะนํา	-10.1813
ครบวงจร	-10.1814
LA	-10.1817
นัย	-10.1817
ปีก่อน	-10.1818
เอาไป	-10.1819
ผิวหน้า	-10.182
ส่วนประกอบ	-10.1821
ภั	-10.1822
กิ่ง	-10.1822
ฉลาด	-10.1826
น้ําหอม	-10.1828
กระเบื้อง	-10.1828
ช่วยกัน	-10.183
ปรารถนา	-10.1831
เชียง	-10.1836
วีดีโอ	-10.1842
แรงบันดาลใจ	-10.1843
อัลบั้ม	-10.1843
ฟาร์ม	-10.1843
▁พบ	-10.1844
ทุ่ม	-10.1845
.8	-10.1847
▁ดาว	-10.1849
83	-10.1849
รั่ว	-10.1849
ศรัทธา	-10.1851
ปรี	-10.1851
▁คาสิโนออนไลน์	-10.1871
ว่าเรา	-10.1881
รังสิต	-10.1882
▁Gu	-10.1885
ภาระ	-10.1886
พนันออนไลน์	-10.1887
▁1-2	-10.1887
นําไปใช้	-10.1888
ส่วนบุคคล	-10.189
พาน	-10.1892
เซนต์	-10.1895
หลาน	-10.1899
▁ถุง	-10.1901
ชื่นชม	-10.1907
สุวรรณ	-10.1907
ไม่ชอบ	-10.1908
▁ชิ้น	-10.191
eb	-10.1911
.9	-10.1912
สมัครสมาชิก	-10.1914
ผลการ	-10.1915
▁สัปดาห์	-10.192
ของมัน	-10.192
ตามกฎหมาย	-10.1924
เตะ	-10.1925
เท่าไร	-10.1927
นอกจากจะ	-10.1927
ล้า	-10.1929
\	-10.1929
▁จึงได้	-10.1931
▁นี่คือ	-10.1933
▁เจ	-10.1933
เทป	-10.1935
เสน่ห์	-10.1936
SE	-10.1938
▁2010	-10.1939
แสดงความ	-10.1939
กราบ	-10.1941
หารือ	-10.1943
รังสี	-10.1947
ยั่งยืน	-10.1955
มะนาว	-10.1961
การเปิด	-10.1962
AD	-10.1963
ome	-10.1965
ท็อป	-10.1966
SP	-10.1968
มิล	-10.1968
เพื่อเพิ่ม	-10.1972
ติดต่อกัน	-10.1975
ริ้วรอย	-10.1977
บัน	-10.1977
นิ้วมือ	-10.1977
▁เกาะ	-10.1978
ที่มีอยู่	-10.1984
อลูมิเนียม	-10.1985
cha	-10.1988
หันมา	-10.1988
ใบอนุญาต	-10.1989
วินัย	-10.1989
สงฆ์	-10.1992
อีเมล	-10.1993
เดินไป	-10.2
คุณภาพสูง	-10.2
AB	-10.2004
บ้านพัก	-10.2004
สําคัญของ	-10.2007
ซื้อสินค้า	-10.2007
ที่กําหนด	-10.2014
เจล	-10.2015
ไปทาง	-10.2015
300	-10.2016
ที่ถูกต้อง	-10.2017
▁โดยจะ	-10.2017
ถูกใจ	-10.203
▁ก่อนที่	-10.2034
เครียด	-10.2035
น้ําแข็ง	-10.2036
มากเกินไป	-10.2036
หว	-10.2045
▁รหัส	-10.2046
กําลังใจ	-10.2049
ได้อีก	-10.2049
กองหลัง	-10.2055
จะเห็น	-10.2055
ผลลัพธ์	-10.2064
ser	-10.2067
็บ	-10.207
ดิฉัน	-10.2072
ไผ่	-10.2072
สภาพแวดล้อม	-10.2073
การปรับ	-10.2073
ทวาร	-10.2075
มั	-10.2076
อิทธิพล	-10.2077
สุก	-10.2077
ขีด	-10.2081
การปกครอง	-10.2081
▁นั่น	-10.2082
-12	-10.2083
ไง	-10.2084
ฟี	-10.2085
แข็งแกร่ง	-10.2086
ence	-10.2092
เวลาที่	-10.2101
row	-10.2102
ขุ	-10.2103
ทางร้าน	-10.2104
ซอฟต์แวร์	-10.2104
คราบ	-10.2106
สุทธิ	-10.2108
▁45	-10.2109
วิศวกรรม	-10.2116
ทีมเยือน	-10.2118
PU	-10.2121
สามารถทํา	-10.2123
มีบริการ	-10.2123
ร้านขาย	-10.2126
eng	-10.2128
นักร้อง	-10.2129
เวช	-10.213
▁อาจจะ	-10.213
เสียเวลา	-10.2132
วอล	-10.2133
ของประเทศไทย	-10.2136
ดอน	-10.2137
ตัวเมือง	-10.2138
ger	-10.2141
สแกน	-10.2143
ศาลา	-10.2144
Com	-10.2144
เวท	-10.2148
บุรุษ	-10.2149
ปริญญา	-10.2151
ชิ้นส่วน	-10.2152
แวร์	-10.2153
มีอายุ	-10.2154
แรกที่	-10.2154
อีกหลาย	-10.2155
▁เห็น	-10.2155
อธิบดี	-10.2157
หมาก	-10.2158
ลูกสาว	-10.2161
ฟุต	-10.2161
SH	-10.2163
มีคุณสมบัติ	-10.2166
เป็นอีกหนึ่ง	-10.2167
สันติ	-10.2168
ควบ	-10.2169
ans	-10.2169
ริค	-10.2171
มีค่า	-10.2173
ดาร์	-10.2176
▁จึงทําให้	-10.2177
ทรู	-10.2177
ash	-10.2177
▁รับสมัคร	-10.2178
▁สถาบัน	-10.218
ไค	-10.2182
เรื่อย	-10.2183
▁Samsung	-10.2185
▁เรามี	-10.2185
ห้องนอน	-10.2188
มาตั้งแต่	-10.2194
▁กรัม	-10.2196
ความมั่นใจ	-10.2199
รูปทรง	-10.2202
กระเทียม	-10.2205
เกีย	-10.2205
110	-10.2206
ตอนแรก	-10.2214
ไหว้	-10.2219
น้องๆ	-10.2222
เครื่องประดับ	-10.2223
หมี	-10.2223
han	-10.2223
มาหา	-10.2224
เก็ต	-10.2224
ที่ชอบ	-10.2231
▁เย็ด	-10.2233
TM	-10.2233
จ์	-10.2233
3%	-10.2234
อุปสรรค	-10.2242
-25	-10.2242
ลักษณ์	-10.2243
นึกถึง	-10.2252
ดัก	-10.2253
▁2555	-10.2258
1000	-10.2258
เง	-10.2258
▁สิ่ง	-10.2259
ลื่น	-10.2259
จัดหา	-10.226
สกรีน	-10.2264
ที่สุดในโลก	-10.2265
ษา	-10.2266
สุโขทัย	-10.227
ภาคใต้	-10.2271
โคมไฟ	-10.2271
กําลังมองหา	-10.2272
อย่างเต็มที่	-10.2272
ฟอร์ด	-10.2276
กระทั่ง	-10.2276
▁ขอให้	-10.2277
▁Dis	-10.2278
อย่างแท้จริง	-10.2279
ดอลลาร์	-10.2282
▁อัตรา	-10.2283
เจ้าบ้าน	-10.2283
▁ศรี	-10.2284
แล้วจะ	-10.2285
▁<	-10.2286
กัล	-10.2286
ความเป็นจริง	-10.2288
ถา	-10.229
▁Hi	-10.2299
ปัน	-10.23
ความแตกต่าง	-10.23
สีชมพู	-10.2303
กรรมการผู้จัดการ	-10.2309
ที่มีชื่อเสียง	-10.2316
▁นางสาว	-10.2319
▁pro	-10.2328
ไร้สาย	-10.2335
หาดใหญ่	-10.2338
old	-10.234
▁เซ	-10.234
ไม่ยาก	-10.2342
▁คุณจะ	-10.2346
facebook	-10.2348
ได้โดย	-10.2349
Re	-10.235
ทําจาก	-10.235
ที่พบ	-10.2352
วันพุธ	-10.2356
บด	-10.2358
St	-10.2363
มีขนาด	-10.237
ก็ดี	-10.237
การงาน	-10.2371
ical	-10.2375
ข้างต้น	-10.2376
chi	-10.2376
eat	-10.2376
เอล	-10.2381
เลขาธิการ	-10.2385
▁คํา	-10.2385
ใช้เป็น	-10.2387
สนทนา	-10.2393
ก้น	-10.2394
อีกแล้ว	-10.2394
โคตร	-10.2399
ik	-10.2401
ji	-10.2406
ple	-10.2407
-9	-10.2408
ปรสิตใน	-10.2411
ook	-10.2413
ใต้ดิน	-10.2413
▁าง	-10.2421
ปราศจาก	-10.2422
หน้ากาก	-10.2431
▁My	-10.2442
ชี้แจง	-10.2443
เซ่	-10.2446
เปลี่ยนไป	-10.2449
จิน	-10.245
gen	-10.2454
กอน	-10.2458
▁ของแท้	-10.2462
จึงได้	-10.2462
เฉพาะอย่างยิ่ง	-10.2463
แผนการ	-10.2464
▁ฉะนั้น	-10.2465
พัด	-10.2466
▁ช่อง	-10.2468
เป็นรูป	-10.2473
▁หลักสูตร	-10.2484
มีเวลา	-10.2485
ไต้หวัน	-10.2489
สีน้ําเงิน	-10.2493
รถบรรทุก	-10.2495
ดอกเบี้ย	-10.2498
▁ภาค	-10.2498
กํากับ	-10.2499
ush	-10.25
ให้คน	-10.2501
เซฟ	-10.2505
ny	-10.2506
▁ผลิตภัณฑ์	-10.2511
คาดหวัง	-10.2513
ยังได้	-10.2514
▁คืน	-10.2515
ปีที่แล้ว	-10.2517
▁เคย	-10.252
โทน	-10.252
เชื้อรา	-10.2521
LI	-10.2522
▁คัพ	-10.2523
กลับบ้าน	-10.2523
การเพิ่ม	-10.2524
ผู้ใช้งาน	-10.2524
ฑ	-10.2524
น่าน	-10.2527
ก้อ	-10.2528
▁ส่งผลให้	-10.253
9%	-10.2531
มั่นใจว่า	-10.2532
SI	-10.2532
น้ําท่วม	-10.2533
โกล	-10.254
โค้ด	-10.2541
ฟอง	-10.2542
อเมริกัน	-10.2542
คอนเสิร์ต	-10.2543
เปิดบ้าน	-10.2543
คบ	-10.2545
น้า	-10.2546
ขบวน	-10.2551
ร่วง	-10.2551
ประเทศจีน	-10.2553
เทค	-10.2557
ในปีนี้	-10.2558
ฝนตก	-10.2558
จดหมาย	-10.2558
ตูด	-10.2565
กดดัน	-10.2571
งู	-10.2574
มีความสําคัญ	-10.2581
2017	-10.2582
ตอ	-10.2582
อัตราการ	-10.2583
จัดเก็บ	-10.2585
อีกต่อไป	-10.2588
ห้องสมุด	-10.2594
แล้วครับ	-10.2596
ทางบ้าน	-10.2601
700	-10.2605
ไม่รู้ว่า	-10.2607
▁สมัย	-10.2607
อ่ะ	-10.261
การเปลี่ยน	-10.2611
เป็นเพียง	-10.2618
▁รับทํา	-10.2621
ดั้งเดิม	-10.2623
cm	-10.2625
▁วิดีโอ	-10.2627
เป็นที่นิยม	-10.263
▁ห้องน้ํา	-10.2631
ตัวตน	-10.2635
ประมวลผล	-10.264
งอก	-10.2642
วัตถุประสงค์	-10.2647
เหรียญทอง	-10.2649
ต้นสังกัด	-10.265
ชําระเงิน	-10.2652
▁จะได้	-10.2657
กับปรสิต	-10.2658
▁กล่อง	-10.2658
กุญแจ	-10.2659
บกพร่อง	-10.2661
vel	-10.2662
คอนกรีต	-10.2665
ดิส	-10.2665
เนิน	-10.2666
เย็บ	-10.2667
.4-	-10.2667
HA	-10.267
ปีศาจแดง	-10.267
ฟอก	-10.2673
พรีเมี่ยม	-10.2674
สาธารณสุข	-10.2679
หลายครั้ง	-10.2679
kin	-10.2686
ที่อาจ	-10.2686
บร	-10.2689
SC	-10.2691
หูฟัง	-10.2692
ที่จอดรถ	-10.2695
สุกร	-10.2696
▁Part	-10.2699
เกล้า	-10.2703
สภาวะ	-10.2704
อัจฉริยะ	-10.2708
ซิลิโคน	-10.2708
ต้องการให้	-10.2712
๊ค	-10.2713
CC	-10.2718
▁Or	-10.272
อวัยวะ	-10.2724
การประเมิน	-10.2724
หลักของ	-10.2735
▁33	-10.2736
สมุด	-10.2737
ตาข่าย	-10.2743
ทะลุ	-10.2747
ชีว	-10.2748
หาง	-10.275
พระเจ้าอยู่หัว	-10.275
ตั้งแต่ปี	-10.2751
โซล	-10.2751
ศักดิ์สิทธิ์	-10.2754
ของกลุ่ม	-10.2764
หลีกเลี่ยง	-10.2765
NI	-10.2779
ไข้	-10.2782
หัวนม	-10.2782
รักษากลาก	-10.2786
กันอยู่	-10.2788
ID	-10.279
ลูกชาย	-10.2795
ล่วง	-10.2797
ลิ่มเลือดอุดตัน	-10.2798
เยอะมาก	-10.2799
ero	-10.28
▁โปรด	-10.2801
ห่อ	-10.2802
bl	-10.2804
การเดิน	-10.2805
ame	-10.2806
ภาคเหนือ	-10.2807
มณฑล	-10.281
มะพร้าว	-10.281
เจอกับ	-10.2812
ไม่ได้มี	-10.2814
สละ	-10.2818
อนามัย	-10.2819
р	-10.2819
แนบ	-10.282
ให้ลูกค้า	-10.2821
อาจจะมี	-10.2821
ปฏิบัติตาม	-10.2826
▁Ph	-10.2829
ที่ช่วย	-10.283
ประกวด	-10.2831
อป	-10.2833
8%9	-10.2833
▁ID	-10.2834
สวัสดี	-10.2835
แม้จะ	-10.2839
▁เป็นผู้	-10.284
มันไม่	-10.284
ประปา	-10.2844
สมุทรปราการ	-10.2845
รับจ้าง	-10.2848
บริโภค	-10.285
▁ช่วยให้	-10.2859
ทางเรา	-10.2859
VI	-10.2859
▁เชลซี	-10.2888
nc	-10.2889
ถอย	-10.29
ความรับผิดชอบ	-10.2901
▁แต่ไม่	-10.2904
รุ่นนี้	-10.2905
ลัด	-10.2907
ตัวเครื่อง	-10.2909
กลไก	-10.2917
เคียง	-10.2919
ย้ายมา	-10.2921
MO	-10.2923
ลิส	-10.2923
มีอํานาจ	-10.2928
พระราชวัง	-10.2929
เผชิญ	-10.2932
▁iPad	-10.2932
▁อังกฤษ	-10.2934
ผู้ปกครอง	-10.2935
▁ซ	-10.2935
เฟส	-10.2935
▁Holiday	-10.2936
สูงถึง	-10.2941
ประจําวัน	-10.2942
▁ในฐานะ	-10.2953
เสมือน	-10.2953
ไม่ใช่เรื่อง	-10.2955
ชง	-10.2957
▁Hotel	-10.2958
เหลี่ยม	-10.2961
ไม่แพ้	-10.2963
แช	-10.2964
มินิ	-10.2964
เสื้อยืด	-10.2964
▁**	-10.297
ให้คําปรึกษา	-10.298
กึ่ง	-10.2981
บางนา	-10.2982
ท่านจะ	-10.2984
ภิ	-10.2984
▁i	-10.2987
ที่อยู่อาศัย	-10.2989
▁สํานัก	-10.2994
ยืดหยุ่น	-10.2997
ไหล่	-10.2998
จาง	-10.3
นานา	-10.3002
▁ดอก	-10.301
ชมพู	-10.3015
ัญญ	-10.3015
โปรตีน	-10.3019
โดเมน	-10.3022
ทําร้าย	-10.3023
กัมพูชา	-10.3024
การพิจารณา	-10.3025
เข้ารับการ	-10.3027
ล้านบาท	-10.303
รณ์	-10.3031
uck	-10.3031
Pla	-10.3033
ัตถ	-10.304
ของร่างกาย	-10.3042
ที่ได้รับการ	-10.3044
ตั้งอยู่ใน	-10.3046
ของประชาชน	-10.3046
เป่า	-10.3048
งั้น	-10.305
การต่อสู้	-10.3052
วก	-10.3055
ใช้ในการ	-10.3056
-15	-10.3057
แด	-10.3057
พาย	-10.3058
เทน	-10.3066
ล่อ	-10.3067
ใช้ประโยชน์	-10.3067
▁En	-10.3069
กิโลกรัม	-10.3072
อักษร	-10.3073
att	-10.3073
ศีล	-10.3074
อินโดนีเซีย	-10.3076
ว่าด้วย	-10.3077
ค่าตัว	-10.3079
คุณพ่อ	-10.3081
เสนอราคา	-10.3082
ดาวยิง	-10.3084
การกําหนด	-10.309
ขอรับ	-10.3092
ทะเลสาบ	-10.3094
▁Club	-10.3094
ore	-10.3098
เปรียบ	-10.3098
ก๊าซ	-10.3099
▁One	-10.3099
▁2554	-10.3101
บัญญัติ	-10.3102
ฟิล	-10.3104
นอนหลับ	-10.3106
/2	-10.3106
ign	-10.3107
ในแบบ	-10.3107
หลายอย่าง	-10.311
ผัด	-10.3112
ica	-10.3113
แมนเชสเตอร์	-10.3113
การส่ง	-10.3118
เคน	-10.3118
ค้าแข้ง	-10.3119
ที่เห็น	-10.312
๊ต	-10.312
▁2011	-10.3121
วัฒนา	-10.3121
กันบ้าง	-10.3122
เลียน	-10.3123
จัดจําหน่าย	-10.3124
ช้อป	-10.3125
ฌ	-10.3125
▁Plus	-10.3126
8%8	-10.3126
▁ติดตั้ง	-10.3128
▁เป็นต้นไป	-10.3131
2.5	-10.3132
คาดว่าจะ	-10.3138
เป็นเหตุให้	-10.3138
for	-10.3139
ไปกว่า	-10.314
ll	-10.3141
กันแล้ว	-10.3143
2,000	-10.3147
ติดกับ	-10.3148
มีอะไร	-10.3149
แพร่	-10.3152
ราศี	-10.3152
▁แต่เมื่อ	-10.3153
หะ	-10.3155
ในมนุษย์	-10.3158
ทําตาม	-10.3158
▁Black	-10.3164
ทรี	-10.3167
การส่งออก	-10.3168
เป็นสมาชิก	-10.3171
ผิวขาว	-10.3172
▁..	-10.3173
ด้านข้าง	-10.3175
ที่พวกเขา	-10.3175
โมเดล	-10.3176
ปอด	-10.3177
ไตร	-10.3183
▁admin	-10.3184
นิช	-10.3185
▁Pre	-10.3186
หุ	-10.3188
แนวรับ	-10.319
over	-10.3194
▁Tag	-10.3196
▁เรอัล	-10.3196
▁โรงเรียนบ้าน	-10.3197
คู่กับ	-10.3199
อนุญาตให้	-10.3202
เกี่ยวข้อง	-10.3203
ชุ	-10.3203
นะค่ะ	-10.3204
กันน้ํา	-10.3205
Ma	-10.3206
พลอย	-10.3207
ปั	-10.321
หมวดหมู่	-10.3211
▁เก	-10.3212
que	-10.3214
▁ทะเบียนสวย	-10.3215
▁Star	-10.3216
ป้องกันการ	-10.3223
อริ	-10.3223
นิคม	-10.3224
ทําเป็น	-10.3226
▁แทงบอลออนไลน์	-10.3231
ปัสสาวะ	-10.3232
iss	-10.3235
อย่างชัดเจน	-10.3241
ทฤษฎี	-10.3241
ring	-10.3244
log	-10.3244
▁แอร์	-10.3244
เผยว่า	-10.3245
▁และเมื่อ	-10.3247
สายพันธุ์	-10.3249
▁1,000	-10.325
▁เป็นประธาน	-10.3256
▁We	-10.3256
ซิม	-10.326
ดํารง	-10.326
จัน	-10.3263
▁เรียกว่า	-10.3263
สวัสดิการ	-10.3264
ปป	-10.3266
ให้ความสนใจ	-10.3267
fa	-10.3267
เดอ	-10.3268
กระโดด	-10.3268
ไทยแลนด์	-10.327
▁150	-10.327
รถกระบะ	-10.3271
ยัด	-10.3272
โฟม	-10.3276
ไตรมาส	-10.3282
อย่างหนัก	-10.3284
เจรจา	-10.3288
บันได	-10.329
สอบสวน	-10.3291
▁๒๕๕	-10.3291
ได้ทําการ	-10.3295
ire	-10.3296
คมชัด	-10.3298
คงไม่	-10.33
วอน	-10.3305
ว้า	-10.3307
เปอร์เซ็นต์	-10.331
PO	-10.331
หลักเกณฑ์	-10.3311
สําหรับผู้ที่	-10.3314
▁ซับไทย	-10.3315
▁ตําแหน่ง	-10.3317
ach	-10.3317
ทิพย์	-10.3318
ที่ยัง	-10.3322
ภพ	-10.3323
ล็อก	-10.3324
เมื่อเทียบกับ	-10.3326
ตัวอักษร	-10.3326
มารดา	-10.3328
านนท์	-10.3335
qu	-10.3338
สึ	-10.3339
▁และสามารถ	-10.3342
py	-10.3344
ที่คุณต้องการ	-10.3347
ดูดี	-10.3348
แปร	-10.3351
work	-10.3354
ได้ครับ	-10.3355
▁Free	-10.3357
กับเวิร์ม	-10.3358
ใช่ไหม	-10.3358
Posted	-10.336
▁Ko	-10.3364
ุ้ย	-10.3365
ฮี	-10.3367
ได้อย่างรวดเร็ว	-10.3368
ลงโทษ	-10.337
แคบ	-10.3372
กอบด้วย	-10.3373
เท่ากัน	-10.3376
️	-10.3377
ฟอร์	-10.3379
▁โรงพยาบาล	-10.3379
▁Center	-10.3382
สลาย	-10.3382
ศิ	-10.3385
ING	-10.3387
จึงไม่	-10.3388
เป็นคนที่	-10.3389
ของเมือง	-10.339
–	-10.3391
q	-10.3391
ด้วยตนเอง	-10.3391
บวช	-10.3392
แปลว่า	-10.3392
▁Read	-10.3394
ib	-10.3395
ound	-10.3397
▁นอกจากนี้ยัง	-10.3397
กษัตริย์	-10.34
เป็นผล	-10.3405
พอร์ต	-10.3406
ด้านล่างนี้	-10.3407
เตรียมตัว	-10.341
เวิร์	-10.3418
กันแดด	-10.3421
ลิป	-10.3423
เกาหลีใต้	-10.3425
แฟนๆ	-10.3426
ภัทร	-10.3428
get	-10.3431
In	-10.3433
อันดับที่	-10.3434
รักษาความปลอดภัย	-10.3436
▁1-0	-10.3439
ฉุกเฉิน	-10.3441
เซ็กซี่	-10.3441
การเดิมพัน	-10.3442
จังหวัดเชียงใหม่	-10.3443
▁2552	-10.3443
บ้านเรา	-10.3447
รก	-10.3448
▁World	-10.345
หร	-10.3452
tro	-10.3454
จะต้องมี	-10.3458
ium	-10.3458
แบบไหน	-10.3459
ฐานะ	-10.3462
การันตี	-10.3464
ดวงตา	-10.3464
▁องศา	-10.3466
▁น้อง	-10.3467
สาวสวย	-10.3472
▁Q	-10.3475
ประชาธิปไตย	-10.3478
น่าจะเป็น	-10.348
ดุล	-10.3482
ลุ	-10.3482
โจร	-10.3482
เทรนด์	-10.3483
แพ็ค	-10.3493
AV	-10.3497
สามารถทําได้	-10.3497
ซึ่งมี	-10.3498
▁Play	-10.3498
เข้าพัก	-10.3498
▁น้ํามัน	-10.3503
เกี่ยวข้องกับ	-10.3503
ถึงจะ	-10.3503
ไม่ทัน	-10.3505
เอาใจ	-10.3511
อีสาน	-10.3516
มองหา	-10.3519
ได้นํา	-10.352
uch	-10.352
ten	-10.352
ric	-10.3527
ดาวเตะ	-10.3528
ใกล้ชิด	-10.353
ต่อจาก	-10.3534
ก็อาจจะ	-10.3534
ได้อย่างไร	-10.3539
นักพนัน	-10.3542
กบ	-10.3542
form	-10.3547
เชฟ	-10.3548
ว่าเขา	-10.3551
{	-10.3552
โกรธ	-10.3552
ร้านกาแฟ	-10.3552
วีซ่า	-10.3556
เอว	-10.3561
▁กทม	-10.3561
▁อันนี้	-10.3564
เปิดให้บริการ	-10.3564
เป็นส่วนหนึ่งของ	-10.3567
อู่	-10.3568
นั้นเอง	-10.3571
ได้รับความ	-10.3572
set	-10.3573
-16	-10.3578
คริส	-10.3579
ครบครัน	-10.358
ชาร์	-10.3583
เรื่องราวของ	-10.3583
ึง	-10.3584
เทศบาลตําบล	-10.3585
ในลักษณะ	-10.3587
พระพุทธศาสนา	-10.3587
ไอที	-10.3587
เท่	-10.3587
ผืน	-10.3589
การเข้า	-10.3593
ได้อีกด้วย	-10.3595
เก่าแก่	-10.3595
way	-10.3599
ทุกปี	-10.3601
เอกลักษณ์	-10.3607
ทูต	-10.3609
การปรับปรุง	-10.3609
เทอร์	-10.3613
▁Ka	-10.3615
เผื่อ	-10.3617
แบ่งปัน	-10.3618
หิมะ	-10.3627
เมตตา	-10.3629
ผู้เรียน	-10.3632
ประกวดราคา	-10.3632
มุก	-10.3633
หีบ	-10.3635
สบู่	-10.3636
เป็นแหล่ง	-10.3636
http	-10.3641
с	-10.3645
นอกเหนือจาก	-10.3645
▁you	-10.3646
▁นอกจากนี้ยังมี	-10.3647
ว่าคุณ	-10.3648
สตาร์ท	-10.3648
เลี้ยว	-10.3649
วันอาทิตย์	-10.3653
▁หมู่ที่	-10.3657
ความจุ	-10.3659
EM	-10.366
แอด	-10.3661
▁ทว่า	-10.3663
เคราะห์	-10.3663
ขนาดนี้	-10.3664
ทรา	-10.3665
กระโปรง	-10.3668
ซัด	-10.3668
ที่แท้จริง	-10.3671
แม็ก	-10.3673
ร้องเพลง	-10.3673
รัฐมนตรีว่าการ	-10.3682
บารมี	-10.3687
ไพ่ยิปซี	-10.3688
ผมคิดว่า	-10.3698
หนังสือพิมพ์	-10.3705
มัธยม	-10.3706
ขัง	-10.3709
สบายใจ	-10.3712
นีย์	-10.3717
ระลึก	-10.3717
อ้างอิง	-10.372
ชนิดนี้	-10.3723
ปฐม	-10.3724
บุ๊ค	-10.3726
ครอบ	-10.3726
อาจจะเป็น	-10.3727
ลวด	-10.3728
คํานึงถึง	-10.3729
ความฝัน	-10.373
ฟังก์ชั่น	-10.3734
ให้เขา	-10.3738
▁เดินทาง	-10.374
ลวดลาย	-10.3741
ที่จําเป็น	-10.3743
ในระยะ	-10.3744
ใช	-10.3746
ออกอากาศ	-10.375
วัช	-10.3752
ต้าน	-10.3753
▁แต่เรา	-10.3755
อะไรบ้าง	-10.3755
ซ่อมแซม	-10.3758
▁ปัญหา	-10.3758
แสดงความคิดเห็น	-10.376
เคลื่อนไหว	-10.3762
ภัณฑ์	-10.3762
สถานที่ท่องเที่ย	-10.3762
วันอังคาร	-10.3762
▁ล้านปอนด์	-10.3763
orn	-10.3764
ช็อป	-10.3765
พวกนี้	-10.3768
เคลื่อน	-10.3768
mar	-10.3775
TR	-10.3775
้ด	-10.3777
การแพทย์	-10.378
red	-10.3783
ของรัฐ	-10.3789
}	-10.3791
ถ้ามี	-10.3792
ในช่วงเวลา	-10.3792
ต่อยอด	-10.3793
ที่นั่น	-10.3793
RI	-10.3794
ลงนาม	-10.3796
สบายๆ	-10.3796
ศิลป	-10.3796
ลิงก์	-10.3796
มีแนวโน้ม	-10.3802
hot	-10.3808
ออกมาจาก	-10.3809
101	-10.3813
เพื่อความ	-10.3815
การเคลื่อนไหว	-10.3816
ถล่ม	-10.3816
▁[...]	-10.3819
tri	-10.3821
▁ห้องประชุม	-10.3822
4%	-10.3827
หลา	-10.3831
มาตลอด	-10.3831
แพท	-10.3837
วุ่นวาย	-10.3838
▁แต่พอ	-10.3839
บํารุงผิว	-10.3841
ประทับ	-10.3841
ยิ่งกว่า	-10.3841
ชล	-10.3842
สหกรณ์	-10.3843
วาส	-10.3845
มิดฟิลด์	-10.3848
นับตั้งแต่	-10.385
แบ่งเป็น	-10.3851
การเติบโต	-10.3854
ขั้ว	-10.3858
บิดา	-10.3859
เฉลิมพระเกียรติ	-10.3862
ประหลาด	-10.3862
การอ่าน	-10.3867
ทุกรุ่น	-10.3867
มีพื้นที่	-10.387
ดํารงตําแหน่ง	-10.3874
):	-10.3874
แนวโน้ม	-10.3875
pl	-10.3877
แน่ๆ	-10.388
een	-10.3881
โอนเงิน	-10.3891
fl	-10.3897
▁is	-10.3899
ินทร์	-10.3899
▁ทอง	-10.3899
ail	-10.3904
จัดแสดง	-10.3904
▁Sport	-10.3908
แบต	-10.391
▁Comp	-10.3917
ไว้ว่า	-10.392
use	-10.3921
ในตอนนี้	-10.3922
๊ป	-10.3923
เป็นผู้นํา	-10.3924
คอนโดมิเนียม	-10.3925
กาญจนบุรี	-10.3925
ราชบุรี	-10.3927
แทงบอลออนไลน์	-10.3928
เธ	-10.3931
เด็ดขาด	-10.3931
▁สม	-10.3932
เก้	-10.3933
อยู่ระหว่าง	-10.3933
ชํานาญ	-10.3935
เรส	-10.3935
รายนี้	-10.3935
rs	-10.3943
ave	-10.3944
พร้อมที่จะ	-10.3944
ผู้แทน	-10.3944
เขตพื้นที่การ	-10.3945
▁ตร	-10.3946
แต่งหน้า	-10.3948
ord	-10.3948
NO	-10.395
เย็ดหี	-10.3951
การตกแต่ง	-10.3953
ผัว	-10.3958
ding	-10.3961
โล่	-10.3964
▁ระหว่างวันที่	-10.3969
ราด	-10.3971
ธาร	-10.3973
ฝึกซ้อม	-10.3974
ที่นอน	-10.3974
มันมี	-10.3976
ระมัดระวัง	-10.3978
สร้างรายได้	-10.3982
สดชื่น	-10.3984
ไมล์	-10.3986
ทูล	-10.3986
ความช่วยเหลือ	-10.3988
ซุปเปอร์	-10.3988
ไห	-10.3992
ney	-10.3992
▁Mon	-10.3992
ภาพรวม	-10.3992
เรียบง่าย	-10.3996
ซาก	-10.3998
ตัง	-10.4002
ในการพัฒนา	-10.4005
dd	-10.4006
▁สื่อ	-10.401
aya	-10.4015
หมอน	-10.4019
▁(1	-10.402
0000	-10.4023
สกุล	-10.4024
เบาๆ	-10.4031
press	-10.4032
▁แต่หาก	-10.4035
มากครับ	-10.4038
โร่	-10.4043
ต่างจังหวัด	-10.4045
ต้องไป	-10.4046
สกปรก	-10.4051
EA	-10.4054
อัง	-10.4054
พู	-10.4054
ile	-10.4054
บุรี	-10.4055
▁เปิดตัว	-10.4056
หาวิทยาลัยราชภัฏ	-10.4056
อาการปวด	-10.4061
club	-10.4061
แซง	-10.4062
ถ่าน	-10.4065
ไวน์	-10.4066
นครปฐม	-10.4066
แก๊ส	-10.4075
แก้ม	-10.4076
ด้านใน	-10.4076
เรียว	-10.4078
แบคทีเรีย	-10.408
แม้กระทั่ง	-10.4084
▁เชียงใหม่	-10.4084
ก่อนหน้า	-10.4089
สติ๊กเกอร์	-10.409
▁Game	-10.4092
เศร้า	-10.4094
tin	-10.4099
จอดรถ	-10.4099
นิตยสาร	-10.4099
เถอะ	-10.4101
มีชื่อ	-10.4106
ทวีป	-10.4111
เอ็กซ์	-10.4113
ปารีส	-10.4114
ble	-10.4116
วันหนึ่ง	-10.4117
ที่ทํางาน	-10.4121
ยุ่งยาก	-10.4124
สามารถนํา	-10.4127
▁ล้าง	-10.4132
ความผิดปกติ	-10.4133
9%8	-10.4134
คาว	-10.4136
มีหน้าที่	-10.4138
ส่งมอบ	-10.4138
▁Ha	-10.4145
▁รูปแบบ	-10.4145
ไหว	-10.415
ทางการเมือง	-10.415
ปรากฎ	-10.4151
การติดเชื้อ	-10.4152
วงเงิน	-10.4153
เย็ดกัน	-10.4153
ความถี่	-10.4154
ปรากฏว่า	-10.4157
ศุภ	-10.4159
เบรก	-10.4161
เพื่อใช้	-10.4164
อับ	-10.4172
▁โค	-10.4179
เพลิง	-10.4181
เกิดจากการ	-10.4182
ความบันเทิง	-10.4185
ค้น	-10.4189
จะเกิดขึ้น	-10.419
▁University	-10.4193
เตรียมความพร้อม	-10.4193
ในการเล่น	-10.4195
แรม	-10.4198
ณ์	-10.4198
เสรี	-10.4199
นักวิชาการ	-10.4202
เปียก	-10.4203
▁แสน	-10.4207
og	-10.4214
▁Ri	-10.4222
▁(1)	-10.4223
โพธิ์	-10.4225
ชิ้นงาน	-10.4226
ลีลา	-10.4233
ไวท์เทนนิ่ง	-10.4237
▁Smart	-10.4247
เร็วๆ	-10.425
อาญา	-10.4256
เข้าใจว่า	-10.4256
เรือง	-10.4262
อ้า	-10.4264
ได้รับบาดเจ็บ	-10.427
ลัน	-10.4271
ิ้ง	-10.4272
โด่งดัง	-10.4272
ถัดไป	-10.4272
แท่ง	-10.4276
สารอาหาร	-10.4277
จับกุม	-10.4277
โตเกียว	-10.4287
บาล	-10.4289
▁ก็สามารถ	-10.4289
็อป	-10.4294
กองหน้า	-10.4297
แคมเปญ	-10.4302
ชะลอ	-10.4303
2000	-10.4304
แทบจะ	-10.4304
ฤดูร้อน	-10.4305
เพื่อป้องกัน	-10.4306
ds	-10.4306
ริก	-10.4306
เป็นอย่างยิ่ง	-10.4307
นิยาย	-10.431
val	-10.4313
แนวรุก	-10.4313
ลอบ	-10.4316
เข้มแข็ง	-10.4319
พรี	-10.4322
แปรง	-10.4323
ไม่ไหว	-10.4323
ในบริเวณ	-10.4324
ศาสน	-10.4331
ตรัง	-10.4332
คติ	-10.4333
บูธ	-10.4334
รายเดือน	-10.4342
XXX	-10.4342
กาฬสินธุ์	-10.4347
ความสูง	-10.435
กราฟ	-10.4352
ประถม	-10.4352
ความรุนแรง	-10.4353
ทัศ	-10.4356
ลิขสิทธิ์	-10.4357
▁คู่	-10.4362
สัต	-10.4364
จะไม่มี	-10.4368
แรงดัน	-10.437
bit	-10.4372
ในตําแหน่ง	-10.4372
คงต้อง	-10.4374
มหาศาล	-10.438
ด้วยว่า	-10.4383
ดีเด่น	-10.4386
เสียใจ	-10.4388
นิดหน่อย	-10.4388
ไม่ถูก	-10.4389
▁แมนฯ	-10.4389
แคล	-10.4391
สลัด	-10.4399
เล็	-10.44
คําพูด	-10.44
ที่สนใจ	-10.44
ตลก	-10.4401
ข้อเท็จจริง	-10.4403
โป่ง	-10.4403
เปิดให้	-10.4403
ท่านได้	-10.4405
เป็นกันเอง	-10.4408
▁นักศึกษา	-10.441
ที่สุดของ	-10.4411
▁จะเป็น	-10.4412
มนต์	-10.4419
ประจําปีงบประมาณ	-10.4424
คุ้นเคย	-10.4425
ธี	-10.4427
วิจารณ์	-10.4428
ปลอด	-10.443
ต้องรอ	-10.4434
ติ้ง	-10.4438
รถตู้	-10.444
เริ่มจาก	-10.4444
ถนัด	-10.4445
รู้จักกัน	-10.4448
▁Galaxy	-10.4448
UR	-10.4452
อุบลราชธานี	-10.4453
ข้างใน	-10.4453
สงกรานต์	-10.4458
ช่วยในการ	-10.446
ดาวน์	-10.4462
ผลตอบแทน	-10.4466
เชลซี	-10.4469
ว่าทําไม	-10.447
วัตร	-10.4471
เครื่องใช้ไฟฟ้า	-10.4471
สร้อย	-10.4471
เส้นผม	-10.4472
เบอร์มงคล	-10.4475
พญา	-10.4476
เป็นจุด	-10.4478
ama	-10.4479
ถูกกว่า	-10.448
เงินทุน	-10.4482
การส่งเสริม	-10.4484
คาดการณ์	-10.4485
คล่อง	-10.4486
แถลงข่าว	-10.4487
ในแง่	-10.4488
ร้องไห้	-10.4489
โดร	-10.449
การพิมพ์	-10.4492
คิดเห็น	-10.4493
ทํานอง	-10.4494
กําหนดให้	-10.4495
web	-10.4496
IM	-10.4497
เลอร์	-10.4498
ผู้ชม	-10.4498
ขายบ้าน	-10.4501
ใช้ชีวิต	-10.4502
ฉบับที่	-10.4506
เล่นบาคาร่า	-10.4507
ต้นแบบ	-10.4509
แฟนคลับ	-10.4511
เชือก	-10.4512
▁Bar	-10.4513
land	-10.4513
กรณีที่	-10.4514
▁จะต้อง	-10.4515
org	-10.4516
คุยกัน	-10.4521
ank	-10.4525
ดง	-10.4532
ในสังคม	-10.4536
แสงแดด	-10.4538
เจ้าพระยา	-10.4538
หลายปี	-10.454
มาเยือน	-10.4547
ที่หลากหลาย	-10.455
ฝึกอบรม	-10.4551
lf	-10.4552
ออฟฟิศ	-10.4555
lip	-10.4556
ผู้สื่อข่าว	-10.4565
แว่น	-10.4567
lex	-10.4569
อยุธยา	-10.4571
▁ที่นี่	-10.4573
ที่ทันสมัย	-10.4575
ขอขอบคุณ	-10.4577
▁Gold	-10.4577
ขนย้าย	-10.4578
book	-10.4578
แคน	-10.458
ชีวภาพ	-10.4581
lot	-10.4583
เบส	-10.4587
IG	-10.4588
▁ชอบ	-10.4592
เพิ่มประสิทธิภาพ	-10.4592
ไฮไลท์	-10.4597
พายุ	-10.4597
แอป	-10.46
เซ็นเตอร์	-10.4601
ลักษณะของ	-10.4601
วิท	-10.4604
ได้ที่นี่	-10.4604
โหด	-10.4606
ในการสร้าง	-10.4613
กัก	-10.4615
CA	-10.4616
ได้สําเร็จ	-10.4624
ใบไม้	-10.4629
ข้อกําหนด	-10.4629
ุ๊ก	-10.4637
▁Palace	-10.4638
แกง	-10.4645
ift	-10.4649
เพชรบุรี	-10.4649
ดาวรุ่ง	-10.4653
จากประเทศ	-10.4653
ที่เราจะ	-10.4654
าราม	-10.4654
ทางเศรษฐกิจ	-10.4655
เยือน	-10.4658
นี่คือ	-10.466
ดูเหมือนว่า	-10.466
เครื่องใช้	-10.4664
ที่ชื่นชอบ	-10.4679
▁%	-10.4679
ทางธุรกิจ	-10.4687
คราวนี้	-10.4687
ความสะดวก	-10.4688
ฝูง	-10.4689
มหาสารคาม	-10.4689
วารสาร	-10.4689
2560	-10.4689
ปทุมธานี	-10.4695
ชมรม	-10.4696
โรคผิวหนัง	-10.4698
พระธาตุ	-10.47
่อม	-10.4701
ม่าน	-10.4703
▁1.5	-10.4711
มุ่งเน้น	-10.4715
เสร็จแล้ว	-10.4715
ระเบียง	-10.4715
lor	-10.4716
ข้อสอบ	-10.4723
SM	-10.4726
การซื้อ	-10.4728
ลิเวอร์พูล	-10.4731
▁Ne	-10.4732
ได้ตลอด	-10.4733
บาส	-10.4736
▁กา	-10.4736
CL	-10.4742
▁Man	-10.4747
ปริ้น	-10.475
โอเค	-10.475
อดทน	-10.4751
งง	-10.4752
มีรายได้	-10.4753
▁90%	-10.4755
หิ	-10.4756
ในวงการ	-10.4764
ลงมือ	-10.4765
อาร์เซนอล	-10.4773
ี๊ย	-10.4776
เที่ยวบิน	-10.4789
ประจําเดือน	-10.4791
แผ่	-10.4792
มหัศจรรย์	-10.4794
let	-10.4794
phone	-10.4794
ซิตี้	-10.4796
การถ่ายภาพ	-10.4798
นันท	-10.4801
มาร์ค	-10.4803
IL	-10.4803
▁Pri	-10.4814
ไว้วางใจ	-10.4815
ศูนย์การค้า	-10.4817
ยํา	-10.4818
เฟร	-10.4818
พิการ	-10.4819
เห็นได้ชัด	-10.482
ที่สาม	-10.4821
ไพร	-10.4824
ดัชนี	-10.4826
ด้วยวิธี	-10.483
เวิลด์	-10.4831
ประยุกต์ใช้	-10.4832
ทํากิจกรรม	-10.4834
ิ้ล	-10.4841
ประกอบไปด้วย	-10.4841
ซาร์	-10.4843
ถึงเวลา	-10.4844
นี่แหละ	-10.4845
ใ	-10.4846
ขั้นต่ํา	-10.4849
ในไทย	-10.4849
ได้เงิน	-10.485
▁าน	-10.4853
และบริการ	-10.4853
ข่าย	-10.4854
สัตว์เลี้ยง	-10.4854
ช่วยเพิ่ม	-10.4855
แห่งความ	-10.4855
ator	-10.4856
ระงับ	-10.4857
เยียวยาชาวบ้าน	-10.4858
พารา	-10.4862
▁ผอ	-10.4862
ทีเด็ด	-10.4864
PP	-10.4866
yn	-10.4866
ท่อง	-10.4867
▁มันก็	-10.4868
บทเรียน	-10.4873
ในขณะนี้	-10.4875
ไซต์	-10.4877
การวางแผน	-10.4888
ปากกา	-10.4895
ต่อปี	-10.4899
งด	-10.4912
แท่น	-10.4912
รูเล็ต	-10.4915
คนใหม่	-10.4915
ult	-10.4917
คู่รัก	-10.4917
ศูนย์กลาง	-10.4922
▁--	-10.4926
มรดก	-10.4927
ดังต่อไปนี้	-10.4928
▁2018,	-10.4928
ส่งเสริมการ	-10.493
ยุง	-10.4934
ความสะดวกสบาย	-10.4934
หลุยส์	-10.4942
เอช	-10.4944
ม้วน	-10.4946
ในลีก	-10.4948
แตกต่างจาก	-10.4948
สังเคราะห์	-10.4948
ที่เกิดจาก	-10.4948
TC	-10.4954
ous	-10.4956
PE	-10.4957
box	-10.4958
ลิ้ม	-10.496
ไชย	-10.4961
สองคน	-10.4961
ted	-10.4963
▁ออกแบบ	-10.4963
FA	-10.4963
รัฐมนตรี	-10.4967
มีจํานวน	-10.4967
การขนส่ง	-10.4968
ขโมย	-10.4968
ก้าน	-10.4972
tive	-10.4975
ด้วยระบบ	-10.4975
ของรัฐบาล	-10.4978
ละเมิด	-10.4979
▁Archives	-10.4979
▁เพราะเรา	-10.498
่าย	-10.4981
แบบนั้น	-10.4985
ลดกระหน่ํา	-10.4986
โพธิ	-10.4988
ริโอ	-10.4991
ไปเรื่อยๆ	-10.4992
มุ่งมั่น	-10.4996
นันท์	-10.4999
▁มิลาน	-10.5
เปีย	-10.5005
มป์	-10.5008
แฟรนไชส์	-10.5011
ทําอาหาร	-10.5014
การตั้งค่า	-10.5015
อุดรธานี	-10.5017
ในครอบครัว	-10.5023
ความดี	-10.5025
เภสัช	-10.5027
▁Auto	-10.5035
ในจังหวัด	-10.5037
สําหรับคนที่	-10.5037
NE	-10.5038
พิษณุโลก	-10.5038
ผู้อ่าน	-10.5039
หาซื้อ	-10.504
และอุปกรณ์	-10.5043
เวส	-10.5044
eo	-10.505
ware	-10.5056
กว	-10.5058
ปลีก	-10.5068
พยาธิใน	-10.5071
▁2553	-10.5073
หลบ	-10.5075
ควัน	-10.5078
▁เว็บแทงบอล	-10.5078
เสิร์ฟ	-10.5081
ได้รับผลกระทบ	-10.5086
ไปหมด	-10.5087
ทําความเข้าใจ	-10.5088
ซิ่ง	-10.5088
เงียบสงบ	-10.5093
ลูกจ้าง	-10.5095
ดีงาม	-10.5097
หลั่ง	-10.5099
ตึง	-10.5099
วิญญาณ	-10.5101
เจอกัน	-10.5102
ไม่พลาด	-10.5103
ผมว่า	-10.5104
การเชื่อมต่อ	-10.5107
อาการบาดเจ็บ	-10.5107
คุณควร	-10.511
ที่จะทํา	-10.5111
ลั่น	-10.5112
ใจกลางเมือง	-10.5114
ได้รับอนุญาต	-10.5116
ผู้ดูแล	-10.5116
หยด	-10.5122
เป็นธรรมชาติ	-10.5124
ลเลอร์	-10.5129
ยักษ์ใหญ่	-10.513
ทิวทัศน์	-10.513
ระบาย	-10.513
ที่ประชุม	-10.5141
ชุบ	-10.5142
ขั้นตอนการ	-10.5145
ผจญภัย	-10.5146
▁แห่งดู	-10.5148
รณรงค์	-10.5155
มาสู่	-10.516
จะพา	-10.5162
word	-10.5163
แบ็ค	-10.5164
ino	-10.5165
กติกา	-10.5167
เพิ่มมากขึ้น	-10.5167
-30	-10.517
ild	-10.5179
ฉนวน	-10.5179
มากถึง	-10.5182
ยานยนต์	-10.5192
ครึ่งแรก	-10.5192
,6	-10.5196
เทอ	-10.5199
เซ็นสัญญา	-10.5203
เก็บข้อมูล	-10.5208
กวน	-10.5222
เครือ	-10.5222
น้ําผึ้ง	-10.5224
Call	-10.5231
AP	-10.5231
เป็นเมือง	-10.5232
สุพรรณบุรี	-10.5234
ks	-10.5235
ดาบ	-10.5237
ดูแล้ว	-10.5238
การปฏิบัติงาน	-10.5239
ทางการแพทย์	-10.5239
น่ากลัว	-10.5239
ต่อไปนี้	-10.5239
▁Book	-10.5242
รับสมัคร	-10.5242
post	-10.5243
โถ	-10.5244
chan	-10.5244
ความเหมาะสม	-10.5245
tory	-10.525
แอบถ่าย	-10.525
มีสิทธิ	-10.5253
เบิล	-10.5253
วาท	-10.5254
จินตนาการ	-10.5256
cor	-10.526
ชุมนุม	-10.5261
เลก	-10.5264
ami	-10.5265
wa	-10.5271
ประธานาธิบดี	-10.5272
ผู้สอน	-10.5276
สัมผัสกับ	-10.5276
คนร้าย	-10.5278
พบกัน	-10.5278
การอบรม	-10.5278
▁หนังสือ	-10.5279
900	-10.5281
ise	-10.5282
เดน	-10.5284
คุยกับ	-10.5284
ld	-10.5286
บอน	-10.5291
é	-10.5294
แกรนด์	-10.5294
▁Bangkok	-10.5294
แย่ง	-10.5296
ธรรมะ	-10.53
▁กําหนด	-10.5302
สภ	-10.5305
II	-10.5307
มีหนอน	-10.5307
การซื้อขาย	-10.5308
▁Gra	-10.531
ิ้น	-10.5312
▁Per	-10.5314
เซียน	-10.5322
ศรีสะเกษ	-10.5322
mat	-10.5322
ภิกษุ	-10.5323
ition	-10.5327
บาร์เซโลน่า	-10.5327
กระบอก	-10.5328
เป็นที่เรียบร้อย	-10.5328
หลาก	-10.5329
บูรณาการ	-10.5333
yo	-10.5333
af	-10.5335
ฝ่า	-10.5338
free	-10.5339
โมง	-10.5343
ความไม่	-10.5344
ทุกประเภท	-10.5345
ยูนิ	-10.5349
ы	-10.5349
เทียบเท่า	-10.5354
ถ่ายทอดสด	-10.536
ความคิดเห็นของ	-10.5373
ความอ่อนแอ	-10.5374
ค่าบริการ	-10.5374
inter	-10.5378
lin	-10.5379
ที่เพิ่ง	-10.5379
ไว้ให้	-10.5381
โปร่ง	-10.5382
tan	-10.5383
หาได้	-10.5383
IR	-10.5383
เรื้อรัง	-10.5388
ผู้รักษาประตู	-10.5388
จี้	-10.539
บนถนน	-10.539
จึงจะ	-10.5393
การบิน	-10.5393
คอลลาเจน	-10.5394
▁อะไรคือ	-10.5397
ดูหนังโป๊	-10.5398
Co	-10.54
ขอบเขต	-10.5401
ออม	-10.5402
เหล้า	-10.5403
ประพฤติ	-10.5403
▁Mac	-10.5405
ห้องครัว	-10.5406
เนส	-10.5412
ตามปกติ	-10.5414
ยกย่อง	-10.5416
ไม่พอใจ	-10.5416
นึ่ง	-10.542
หนุน	-10.5422
ไม่ว่าจะ	-10.5426
▁งานนี้	-10.5426
อย่างถูกต้อง	-10.5426
มีบทบาท	-10.5426
PI	-10.5428
par	-10.5435
ประกันภัยรถยนต์	-10.5438
โรคมะเร็ง	-10.5438
หากคุณ	-10.5449
ไปได้ที่จะ	-10.5453
ความสนุก	-10.5461
แจ็ค	-10.5462
เพอร์	-10.5466
ไปรษณีย์	-10.5467
อิสลาม	-10.5467
ต่อวัน	-10.5473
ติว	-10.5476
มดลูก	-10.5476
คุณอาจ	-10.5479
กฤษ	-10.5483
ณัฐ	-10.5483
นับถือ	-10.5487
ธานี	-10.5491
ิ้ว	-10.5492
ดิโอ	-10.5496
Ch	-10.5498
other	-10.5501
สีเทา	-10.5501
wi	-10.5502
มัง	-10.5502
เป็นนัก	-10.5502
เยียวยา	-10.5511
เป็นผลิตภัณฑ์ที่	-10.5514
มหาราช	-10.5515
วัต	-10.5516
cer	-10.5517
มอสโก	-10.5517
เป็นที่รู้จัก	-10.5517
ในโครงการ	-10.5519
serv	-10.5523
เซ็ต	-10.5526
เอน	-10.5526
ป้องกันและ	-10.5526
เสถียร	-10.5529
▁4.0	-10.5529
จับมือ	-10.5531
เลอ	-10.5536
▁สกิน	-10.5536
ม่วง	-10.5539
วัล	-10.554
รักษาโรค	-10.554
ทําประตู	-10.5545
▁ขอเชิญ	-10.5545
ปลั๊ก	-10.5546
สูงมาก	-10.5551
aw	-10.5561
การปลูก	-10.5562
เยอรมนี	-10.5562
บ่า	-10.5563
เมื่อคืน	-10.5563
▁อ่านต่อ	-10.5565
หงส์แดง	-10.5568
▁VS	-10.5571
▁ปิด	-10.5573
ประมง	-10.5574
ล่ะครับ	-10.5576
โด้	-10.5578
พ่วง	-10.5579
แอลกอฮอล์	-10.558
รั้ง	-10.5582
ext	-10.5582
รถจักรยานยนต์	-10.5585
เต็ง	-10.5589
รับบท	-10.559
เสียงดัง	-10.5592
๐๐	-10.5601
อีกที	-10.5607
เครื่องปรับอากาศ	-10.5608
ระดม	-10.5609
อ้อม	-10.5609
รวด	-10.5609
เช็คราคา	-10.5609
▁El	-10.561
โปรตุเกส	-10.5614
ศูนย์บริการ	-10.5615
▁Am	-10.5615
อย่างอื่น	-10.5617
ในการแข่งขัน	-10.562
พลัส	-10.5624
เรซ	-10.5624
ออส	-10.5633
มีข่าว	-10.5638
ฮอนด้า	-10.5642
วาระ	-10.5642
จิตร	-10.5646
มีผลต่อ	-10.5647
ประเสริฐ	-10.5648
ไกร	-10.5648
โคล	-10.565
▁Out	-10.5652
เพียบ	-10.5654
ไลค์	-10.5656
ปฏิบัติหน้าที่	-10.5657
สภาพอากาศ	-10.5658
เกินกว่า	-10.5659
กับเพื่อน	-10.566
บรา	-10.5662
โบสถ์	-10.5667
จุฬา	-10.5669
HD	-10.5673
ทางเพศ	-10.5675
ขอด	-10.5676
แสวงหา	-10.5676
ฮุ	-10.5679
▁Op	-10.5684
PR	-10.5688
จะทําการ	-10.5689
เอฟเอ	-10.569
เครื่องเสียง	-10.5694
หลังจากนั้น	-10.5695
รอบๆ	-10.5695
ตามลําดับ	-10.5699
ปาร์ตี้	-10.5699
นิสิต	-10.57
~	-10.5705
ผู้ใด	-10.5707
เหรอ	-10.5707
เซอร์วิส	-10.5707
ที่ใหญ่ที่สุด	-10.571
หุ่นยนต์	-10.5711
จะเป็นการ	-10.5725
นั่นก็คือ	-10.5739
กิตติ	-10.5739
ภูมิใจ	-10.574
▁War	-10.574
พัฒน์	-10.5741
ตามหา	-10.5748
▁2562	-10.5748
หมอก	-10.5749
▁iOS	-10.5753
เส้นเลือดขอดใน	-10.5754
▁Art	-10.5755
less	-10.5758
ระดับสูง	-10.5766
off	-10.5766
บําเพ็ญ	-10.5769
คิง	-10.577
SU	-10.5771
ไหม้	-10.5775
สาระการเรียนรู้	-10.5776
จดจํา	-10.5779
จะกลับมา	-10.5779
เผ	-10.5781
TER	-10.5783
โลโก้	-10.5788
ให้สัมภาษณ์	-10.5788
ไม่น้อยกว่า	-10.5789
ich	-10.579
เวียง	-10.5791
ทุนการศึกษา	-10.5793
พ่าย	-10.5795
tain	-10.5795
ซุป	-10.58
ทัศน์	-10.5802
hen	-10.5808
ราษฎร์	-10.5811
บ่าย	-10.5812
โกะ	-10.5813
LO	-10.5815
ครบรอบ	-10.5817
คลาย	-10.5822
IV	-10.5822
เต่า	-10.5827
ความขัดแย้ง	-10.5827
ull	-10.5828
rat	-10.583
พวง	-10.5835
เกษตรและสหกรณ์	-10.5838
▁หน้าแรก	-10.5839
พาร์	-10.5842
ต้องมีการ	-10.5842
เด้ง	-10.5842
เบื้องหลัง	-10.5846
ทั่วไทย	-10.585
พากัน	-10.5853
อํา	-10.5858
ในสนาม	-10.5861
บางกอก	-10.5862
ทําให้คุณ	-10.5865
เป็นอันดับ	-10.5866
เพลย์	-10.5868
ling	-10.5869
ขจัด	-10.5871
light	-10.5873
คีย์	-10.5873
บึง	-10.5875
สาวก	-10.5881
ห้างสรรพสินค้า	-10.5885
▁คลิปหลุด	-10.5889
ปริมาณน้ํา	-10.5891
ประโยค	-10.5891
ยูเวนตุส	-10.5897
ราคานี้	-10.5901
เสาร์	-10.5903
มัส	-10.5904
ธนา	-10.5906
กวาด	-10.5906
วิทยากร	-10.5906
เลยก็ว่าได้	-10.5909
เรายัง	-10.5911
มณี	-10.5914
พื้นผิว	-10.5915
ใครๆ	-10.5917
ค้อน	-10.5922
เคลียร์	-10.5926
มาดูกัน	-10.5928
ทิ้งไว้	-10.593
ื่อง	-10.5933
แทงหวย	-10.594
ผู้กํากับ	-10.5946
ภูมิแพ้	-10.5947
เป็นตัวแทน	-10.5947
▁Pi	-10.5951
คุณจะได้	-10.5955
วิศวกร	-10.5955
สุริย	-10.5955
ตําหนิ	-10.5955
พระสงฆ์	-10.5956
du	-10.5958
ฉีก	-10.5964
โรจน์	-10.5967
▁Tri	-10.5967
แด่	-10.597
ในเดือนนี้	-10.5972
ตอง	-10.5974
View	-10.5977
สาธารณรัฐ	-10.598
ริ่ง	-10.5981
ผ่านเว็บ	-10.5982
สมรรถนะ	-10.5985
ผื่น	-10.5985
ฮาร์ด	-10.5987
อุดมศึกษา	-10.599
▁Post	-10.5994
AA	-10.5994
DI	-10.5995
รุม	-10.5996
จุก	-10.5996
การก่อสร้าง	-10.5998
หอพัก	-10.5998
ลิค	-10.5999
นิก	-10.6
การเจริญเติบโต	-10.6001
เชื้อเพลิง	-10.6004
การแก้ไข	-10.6014
ชั่ง	-10.6016
แมท	-10.6018
ฉัตร	-10.6018
,7	-10.602
จริยธรรม	-10.6021
à	-10.6021
ได้ยาก	-10.6023
สามารถสร้าง	-10.6024
คล้ายกับ	-10.6029
ปลัด	-10.6031
แอส	-10.6032
เป็นทีม	-10.6033
TI	-10.6035
ขณะที่	-10.6038
180	-10.604
▁Light	-10.6041
น้ําตา	-10.6043
บ้านเมือง	-10.6045
การสํารวจ	-10.6048
ศาสตราจารย์	-10.605
บอส	-10.6052
ให้คุณได้	-10.6052
กรณ์	-10.6055
ๆๆๆ	-10.6056
▁Mobile	-10.6056
วิถีชีวิต	-10.6057
ก็ควร	-10.6058
ความชื้น	-10.6059
พุทธศาสนา	-10.6059
นวล	-10.6067
ภูมิคุ้มกัน	-10.6068
จ่าฝูง	-10.6068
ในสิ่งที่	-10.6069
hon	-10.6072
ปรัชญา	-10.6074
สําเนา	-10.6074
หญิงสาว	-10.6075
ปาน	-10.608
IA	-10.6083
ว่ายน้ํา	-10.6085
mes	-10.6088
ไม่ได้รับ	-10.6088
องค์กรปกครองส่วน	-10.6092
คิม	-10.6096
นางเอก	-10.6097
หลายๆคน	-10.6098
▁San	-10.6098
ฉันจะ	-10.6099
ตั้งค่า	-10.61
นนท์	-10.6101
อิม	-10.6102
DE	-10.6106
ยังต้อง	-10.6107
Pro	-10.6107
SL	-10.6113
ความเชื่อมั่น	-10.6113
พวกเขาจะ	-10.6115
แพลตฟอร์ม	-10.6116
ผู้สนใจ	-10.6116
/2561	-10.6118
ผ่า	-10.6118
จากเส้นเลือดขอด	-10.612
ลูกแมว	-10.6126
ผู้ซื้อ	-10.6127
,8	-10.6127
มีความหมาย	-10.613
โล่ง	-10.6131
๋อ	-10.6131
ที่มีประสิทธิภาพ	-10.6134
ah	-10.6136
ราคาไม่แพง	-10.6139
ตามมาตรา	-10.6141
▁High	-10.6141
มิใช่	-10.6143
เทียบกับ	-10.6147
ในรายการ	-10.615
ปอนด์	-10.6152
มุสลิม	-10.6152
เดรส	-10.6153
ชาญ	-10.6155
ส่วนใหญ่จะ	-10.6156
ไม่จํากัด	-10.6157
คัดสรร	-10.6164
ในเครือ	-10.6165
ครึ่งหลัง	-10.6168
в	-10.617
ชายแดน	-10.617
lock	-10.6171
л	-10.6182
เบอร์สวย	-10.6183
บอกเลยว่า	-10.6184
▁เพียงแต่	-10.6185
ซีรีย์	-10.6189
Drive	-10.6189
โคน	-10.6192
เมล	-10.6194
แถลง	-10.6196
und	-10.6206
สร้างบ้าน	-10.6208
ต้องการที่จะ	-10.6209
ที่ใช้ในการ	-10.6209
ชุม	-10.6211
ทําให้เขา	-10.6212
เผ่า	-10.6212
ขนมปัง	-10.6213
รินทร์	-10.6216
ลุค	-10.6219
era	-10.6221
เพศสัมพันธ์	-10.6224
เกต	-10.6225
ตกใจ	-10.6234
.61	-10.6235
ดุสิต	-10.6236
ร้องขอ	-10.6237
สื่อมวลชน	-10.6238
อิฐ	-10.6239
ไทร	-10.624
ตู้เย็น	-10.6242
ฉะเชิงเทรา	-10.6242
อัพเดต	-10.6242
ข้อเสีย	-10.6243
2561	-10.6248
คูปอง	-10.6249
ฟีเจอร์	-10.625
พนม	-10.6251
สุดพิเศษ	-10.6252
3,000	-10.6253
พระมหา	-10.6257
ร้าว	-10.6259
เพื่อพัฒนา	-10.6262
บุหรี่	-10.6266
เพลิน	-10.6269
ทีละ	-10.6271
เซ็กส์	-10.6279
ชื้น	-10.6282
ทั้งปวง	-10.6285
สารพิษ	-10.6286
สมุทร	-10.6287
พระเอก	-10.6289
จดทะเบียนบริษัท	-10.6289
ให้คําแนะนํา	-10.6291
จะหมด	-10.6292
แสดงว่า	-10.6293
ไลฟ์สไตล์	-10.6299
50,000	-10.63
เบิร์	-10.6302
ทําเอา	-10.6303
สโบเบ็ต	-10.6303
เมื่อไหร่	-10.6303
ลงบน	-10.6304
นิ้วเท้า	-10.6305
นราธิวาส	-10.6309
แปรรูป	-10.6313
กาง	-10.6316
พยาน	-10.6317
อายุการใช้งาน	-10.6319
▁Hy	-10.632
คนแรก	-10.6321
PL	-10.6321
จากเดิม	-10.6323
ผู้สมัคร	-10.6324
OM	-10.6329
กันเอง	-10.6329
hat	-10.633
ในการใช้	-10.6331
rac	-10.6332
คนที่มี	-10.6332
บุคลิก	-10.6333
โยน	-10.6334
พาส	-10.6335
แพร่หลาย	-10.6335
เป็นธรรม	-10.6336
เพื่อช่วย	-10.6338
เพื่อหา	-10.6345
▁02-	-10.6348
▁เรื่องย่อ	-10.6352
นมใหญ่	-10.6353
นิล	-10.6353
สมัยใหม่	-10.6353
เลย์	-10.6357
เชิญชวน	-10.6361
yl	-10.6361
หมัด	-10.638
ลึง	-10.6381
ดูรายละเอียด	-10.6382
▁Jo	-10.6386
ปราบปราม	-10.6389
ช่อ	-10.6393
นั่นแหละ	-10.6393
ผึ้ง	-10.6395
▁Download	-10.6395
รับรองว่า	-10.6396
คุณหมอ	-10.6396
ติดถนน	-10.6398
ในชีวิตประจําวัน	-10.64
ใครจะ	-10.6402
888	-10.6405
▁ฝ่าย	-10.6408
ได้ง่ายๆ	-10.6416
พระยา	-10.6419
คูณ	-10.6419
อินทรีย์	-10.6421
หมุนเวียน	-10.6421
แม่บ้าน	-10.6421
รอก	-10.6422
เน่	-10.6423
วิทย์	-10.6424
เดย์	-10.6431
บทความนี้	-10.6431
เล็ง	-10.6433
ตัวแทนจําหน่าย	-10.6439
เปิดโอกาสให้	-10.644
โอ้	-10.6442
ภาคเอกชน	-10.6443
ทาวน์	-10.6445
แสดงออก	-10.645
พาร์ค	-10.6452
ปั้ม	-10.6458
ความทรงจํา	-10.647
แค้น	-10.6471
เลขเด็ด	-10.6471
็อบ	-10.6476
รั้ว	-10.6477
เร็วขึ้น	-10.6478
ความลับ	-10.6479
หลักทรัพย์	-10.648
เป็นอัน	-10.6485
gg	-10.6485
FI	-10.6485
เดือด	-10.6486
จัดเต็ม	-10.6486
ection	-10.6488
ใกล้กับ	-10.6489
เป็นช่วง	-10.6494
ถู	-10.6495
ไม่อาจ	-10.6506
GA	-10.651
เซต	-10.6513
สุรินทร์	-10.6517
การจัดส่ง	-10.6518
ฤดูหนาว	-10.652
lt	-10.6521
ทาย	-10.6521
ลิงค์	-10.6522
บลู	-10.6523
บะ	-10.6524
ยุติ	-10.6524
เพื่อสุขภาพ	-10.6526
ความเครียด	-10.6527
ั๊ก	-10.6528
▁LINE	-10.6538
ดําเนินธุรกิจ	-10.6541
วัตต์	-10.6541
ต้านทาน	-10.6541
ยุ่ง	-10.6543
หมัก	-10.6546
ประกาย	-10.6547
ชิงแชมป์	-10.6549
คลอ	-10.6551
▁PM	-10.6552
นําเอา	-10.6555
สตี	-10.6556
к	-10.6557
ช่วยให้คุณ	-10.6559
การใช้ยา	-10.656
ได้มีโอกาส	-10.6562
พวงหรีด	-10.6563
▁Office	-10.6563
ระบบปฏิบัติการ	-10.6565
ฆาต	-10.657
คลิ๊ก	-10.6576
now	-10.6578
คอร์ส	-10.6583
ล่อง	-10.6587
ดูเหมือน	-10.6587
สามัคคี	-10.6588
น้ําหนักเบา	-10.6592
▁Day	-10.6593
ก็เริ่ม	-10.6594
นางแบบ	-10.6594
หายาก	-10.6595
▁Love	-10.6599
ของพระองค์	-10.6609
คว้าตัว	-10.6609
ผัน	-10.6611
การฝึก	-10.6618
เหลือเกิน	-10.6619
ของสโมสร	-10.6622
mark	-10.6624
ได้เรียนรู้	-10.6625
ที่จะใช้	-10.6626
คุณลักษณะ	-10.6627
ศตวรรษที่	-10.663
รุ่งเรือง	-10.663
ก็ยังมี	-10.663
จุดอายุ	-10.663
ไถ	-10.6631
หัวเราะ	-10.6632
พื้นดิน	-10.6632
ลูกสุนัข	-10.6633
ทานอาหาร	-10.6635
เมฆ	-10.6635
ชนิดหนึ่ง	-10.6639
เว็บบอร์ด	-10.6639
แฮร์	-10.6642
อุทิศ	-10.6642
หนทาง	-10.6645
▁เซนติเมตร	-10.6645
ผัง	-10.6651
สีทอง	-10.6652
รอคอย	-10.6652
oom	-10.6653
ไลท์	-10.6653
อีเมล์	-10.6656
นําไปสู่	-10.6658
สรรพ	-10.6659
part	-10.6664
ระบายน้ํา	-10.6668
ห้องอาหาร	-10.6669
▁อย่างไรก็ดี	-10.667
ผิดกฎหมาย	-10.6675
▁Park	-10.6677
ความเร็วสูง	-10.6677
ด้วยเช่นกัน	-10.6678
▁Full	-10.6683
ด้วยซ้ํา	-10.6687
ใหญ่ๆ	-10.6695
เกิดอาการ	-10.6695
ผิวคล้ํา	-10.6696
$	-10.6696
ห้องเรียน	-10.6698
▁ผบ	-10.6699
ทางวิชาการ	-10.6702
เจ็บปวด	-10.6705
สม่ําเสมอ	-10.6705
▁จํานวนห้องพัก	-10.6716
พาร์ท	-10.6717
มีเพียง	-10.6718
เบรค	-10.6721
arm	-10.6726
ฮีโร่	-10.6728
เด็กหญิง	-10.6729
Life	-10.6729
ขับขี่	-10.6731
ร้ายแรง	-10.6733
สุนทร	-10.6734
ดูแลรักษา	-10.6741
เกย์	-10.6741
มอบให้	-10.6744
พิทักษ์	-10.6746
ได้หรือไม่	-10.6748
แล้ง	-10.6749
อย่างมากมาย	-10.6754
cle	-10.6755
▁years	-10.6759
▁Design	-10.6766
เจ้าอยู่หัว	-10.6766
การขับขี่	-10.6767
eak	-10.6767
▁Nu	-10.677
แข	-10.6773
atch	-10.6774
แม่น	-10.6782
▁๒๕๖๑	-10.6785
็อค	-10.6797
มันคือ	-10.6798
วันอาทิตย์ที่	-10.6802
เรียล	-10.6805
ขยัน	-10.6805
พะ	-10.681
แฉ	-10.6814
การใช้ชีวิต	-10.6815
หลายแห่ง	-10.6816
ตรงนั้น	-10.6816
นิเวศ	-10.6817
การชําระเงิน	-10.682
วางจําหน่าย	-10.6822
102	-10.6825
ครัวเรือน	-10.6826
อภัย	-10.6827
แม่เหล็ก	-10.6828
เกรง	-10.6829
จอห์น	-10.683
ภาวนา	-10.683
ตั๋วเครื่องบิน	-10.6831
▁และยังมี	-10.6832
มนุษย	-10.6833
ต้นฉบับ	-10.6835
-18	-10.684
เพลิดเพลิน	-10.684
ให้ความสําคัญกับ	-10.6843
ใช้วิธี	-10.6845
เสนา	-10.6851
เลส	-10.6854
กระต่าย	-10.6855
▁ล้านคน	-10.6857
นิ่ม	-10.686
ตกเป็น	-10.686
ฮัน	-10.686
UB	-10.6861
jo	-10.6861
อาร์เซน่อล	-10.6862
บาป	-10.6862
ซอฟ	-10.6864
MB	-10.6868
บัญชา	-10.6868
คนขับ	-10.6868
ณะ	-10.6869
▁On	-10.6869
▁50%	-10.6871
1688	-10.6875
อเนกประสงค์	-10.6881
แท็บเล็ต	-10.6881
เศรษฐี	-10.6882
บํารุงรักษา	-10.6883
เทคนิคการ	-10.6888
ระยะยาว	-10.6888
ขบวนการ	-10.6888
สับ	-10.6891
ร่อน	-10.6892
กําหนดไว้	-10.6892
เพลงนี้	-10.6905
-17	-10.6905
ร้านนี้	-10.691
ฟิลิปปินส์	-10.692
ซอส	-10.6923
นักวิจัย	-10.6924
▁ขายที่ดิน	-10.6926
าลัย	-10.6927
ได้เช่นกัน	-10.6927
มีรูปภาพ	-10.6927
><	-10.6928
สําคัญในการ	-10.6932
จุดเริ่มต้น	-10.6932
พร้อมส่ง	-10.6938
โจทก์	-10.6939
▁SME	-10.6943
เมื่อวาน	-10.6944
เห็นชอบ	-10.695
ที่โดดเด่น	-10.6951
ไม่รู้จัก	-10.6952
การฝึกอบรม	-10.6956
999	-10.6957
สีม่วง	-10.6957
ครรภ์	-10.6959
ปภ	-10.696
นัส	-10.6961
ยืม	-10.6961
ในการใช้งาน	-10.6966
gl	-10.6969
ลือ	-10.697
ลงพื้นที่	-10.6972
สะดุด	-10.6972
กลืน	-10.6972
▁ยางรถตัก	-10.6972
อาณาจักร	-10.6976
โดยไม่มี	-10.698
ธ์	-10.698
ชั้นมัธยมศึกษาปี	-10.698
ตระหนัก	-10.6987
150	-10.6988
พระพุทธรูป	-10.6989
แห่	-10.6993
men	-10.7
เดล	-10.7001
ปืนใหญ่	-10.7003
▁นําโดย	-10.7003
cal	-10.7005
เยาว์	-10.7012
ก็ถือว่า	-10.7013
ํ	-10.7022
▁Service	-10.7024
BL	-10.7025
สักการะ	-10.7031
ครั้งเดียว	-10.7031
เจ้าถิ่น	-10.7035
eck	-10.7036
็อง	-10.7037
ดัดแปลง	-10.7039
home	-10.7039
▁แห่งใน	-10.704
มีความสามารถ	-10.7043
ปลายทาง	-10.7048
หมดแล้ว	-10.705
เรย์	-10.7051
รัชดา	-10.7057
›	-10.7057
จับคู่	-10.7058
ความพยายาม	-10.706
ถ้วน	-10.7062
fer	-10.7064
ผิดพลาด	-10.7066
ราคาแพง	-10.7067
ttle	-10.7068
คุณภาพชีวิต	-10.707
ปริญญาตรี	-10.7078
ดอลลาร์สหรัฐ	-10.7078
สัตว์ป่า	-10.7093
แมตช์	-10.7097
มอเตอร์ไซค์	-10.7097
วางเดิมพัน	-10.7103
ยนต์	-10.7104
จาร	-10.7104
ไหนก็	-10.7105
วางไว้	-10.7109
นิพนธ์	-10.711
ช่วงเช้า	-10.7115
▁2-1	-10.7117
ชัยภูมิ	-10.7118
โปรโมท	-10.7118
เจ๋ง	-10.7119
คิดค้น	-10.712
ปทุม	-10.7122
วันแรก	-10.7122
นายก	-10.7128
ไส	-10.7128
ler	-10.7135
ปราบ	-10.7137
0.0	-10.7139
วิเศษ	-10.7144
rack	-10.7152
คุ้น	-10.7153
ปริศนา	-10.7157
ฎีกา	-10.7157
ธุระ	-10.7157
คุมทีม	-10.7158
สงวน	-10.7164
โปรโมชั่นนี้	-10.7168
rate	-10.7171
หากใคร	-10.7173
นิเทศ	-10.7175
สูญหาย	-10.7181
นัดแรก	-10.7182
ยินยอม	-10.7187
ท่อน	-10.7188
นครสวรรค์	-10.7193
กรุ	-10.7194
สกุลเงิน	-10.7195
ไม่ทราบ	-10.7196
ลอนดอน	-10.7198
="	-10.72
อิส	-10.7206
สกี	-10.7207
สุดคุ้ม	-10.721
แอพพลิเคชั่น	-10.721
▁ทั้งยัง	-10.7214
rid	-10.7215
เปื่อย	-10.7217
ฮู	-10.7217
เป็นเอกลักษณ์	-10.7219
ขายสินค้า	-10.7223
ริส	-10.7224
แนวข้อสอบ	-10.7226
ข้อมือ	-10.7229
ray	-10.7233
ทะเบียนรถ	-10.7235
เรอัล	-10.7235
คริสตัล	-10.7236
ชาวต่างชาติ	-10.7236
มีโอกาสได้	-10.7236
▁10,000	-10.7236
▁Phlebology	-10.7237
ไก	-10.7237
กลิ่นหอม	-10.7243
บาตร	-10.7244
เสพ	-10.7245
หลักๆ	-10.7246
ขนาน	-10.7248
▁ผลิตภัณฑ์นี้	-10.7249
ท้า	-10.7254
เสียเงิน	-10.7255
เพื่อไม่ให้	-10.7256
ชิป	-10.7259
DC	-10.726
สล็อตออนไลน์	-10.7269
คัมภีร์	-10.727
เครื่องพิมพ์	-10.7273
บรรณ	-10.7273
มิว	-10.7276
เพิ่มเติมเกี่ยว	-10.7277
ยังคงมี	-10.7278
ปริญญาโท	-10.7278
ตอนเช้า	-10.7279
ปรากฏการณ์	-10.7279
Engine	-10.7284
ความสงบ	-10.7285
ผลิตภัณฑ์ความงาม	-10.7285
▁เนื้อเพลง	-10.7287
พั	-10.7288
ก็ยังคง	-10.729
COM	-10.7293
▁61,	-10.7296
จากผลิตภัณฑ์	-10.7299
เปี่ยม	-10.7304
love	-10.7305
ท้าทาย	-10.7307
พระธรรม	-10.7313
คุณสมบัติและ	-10.7314
▁๑๐	-10.7318
▁UFABET	-10.7324
ม์	-10.7324
พื้นเมือง	-10.7326
รายจ่าย	-10.7327
การเข้าถึง	-10.7328
แม็	-10.7331
อยู่ในระดับ	-10.7331
ตามหลัก	-10.7331
เป็นเวลานาน	-10.7331
ze	-10.7332
ในนาม	-10.7332
ความหวัง	-10.7336
เพื่อลด	-10.7337
บอย	-10.7339
จันทบุรี	-10.7341
อิง	-10.7341
มีสิทธิ์	-10.7344
OK	-10.7345
อ่านหนังสือ	-10.7345
เหนือกว่า	-10.7347
หัด	-10.7347
ล่ม	-10.7348
เอสซีจี	-10.7351
แฮม	-10.7355
กินอาหาร	-10.7365
ตามความต้องการ	-10.7367
ผูกพัน	-10.7369
ย้ายบ้าน	-10.7377
เดือนมกราคม	-10.7378
▁เพราะมัน	-10.7381
เห็นผล	-10.7381
สําหรับการรักษา	-10.7383
back	-10.7384
job	-10.7386
คนพิการ	-10.7388
/3	-10.7389
ป้อม	-10.739
แพร	-10.7391
ว่าด้วยการ	-10.7392
นักธุรกิจ	-10.7394
mber	-10.7395
ร้องเรียน	-10.7399
ปะทะ	-10.7401
----------------	-10.7404
จนเกินไป	-10.7404
กรมการขนส่งทางบก	-10.7406
ในฤดูกาลนี้	-10.7407
ส่งผลต่อ	-10.7409
ช่วงเวลาที่	-10.7412
วันนั้น	-10.7415
ภูมิพลอดุลยเดช	-10.7419
ซีรีส์	-10.7419
สั้นๆ	-10.7421
ถ้าใคร	-10.7422
พรุ่งนี้	-10.7426
++	-10.7428
ด้อย	-10.7428
สกลนคร	-10.7433
อ้างว่า	-10.7435
put	-10.7437
ประเภทนี้	-10.7444
แปลกใจ	-10.7446
จุดโทษ	-10.7447
พระเครื่อง	-10.7448
▁Ni	-10.745
บิว	-10.7451
คนไข้	-10.7454
อย่างยั่งยืน	-10.7464
ยิงประตู	-10.7467
ความพึงพอใจ	-10.7467
ชะตา	-10.7467
▁Card	-10.7467
เชีย	-10.747
GE	-10.7477
ley	-10.7479
เจ็ด	-10.7481
โรแมนติก	-10.7488
ก้าวหน้า	-10.7493
BI	-10.7494
AY	-10.7498
สวัสดิ์	-10.7501
มีการเปลี่ยนแปลง	-10.7504
ดําเนินงาน	-10.7506
,900	-10.7512
........	-10.7513
ชื่น	-10.7515
▁โรนัลโด้	-10.7515
ผู้เขียน	-10.7519
คําสอน	-10.7521
ทักษิณ	-10.7529
ทําเนียบ	-10.7529
บรรเทา	-10.7532
▁Airbnb	-10.7536
เทว	-10.7537
ลิ้ง	-10.7537
ลอส	-10.7541
็ต	-10.7543
OW	-10.7546
▁สําหรับข้อมูล	-10.7552
ปรับแต่ง	-10.7558
ไม่มีปัญหา	-10.7561
แซน	-10.7567
แชมพู	-10.7572
โสม	-10.7574
ตรงกลาง	-10.7574
ไม่ต้องการ	-10.7574
ผู้ใช้บริการ	-10.7577
เปลือง	-10.7577
จบเกม	-10.7578
ค้นคว้า	-10.7579
▁more	-10.7582
เปิดรับสมัคร	-10.7582
▁Tel	-10.759
ดัด	-10.7591
▁Sun	-10.7591
เหงื่อ	-10.7591
สัญชาติ	-10.7591
dro	-10.7592
มีชื่อเสียง	-10.7593
หนังศีรษะ	-10.7593
สงเคราะห์	-10.7598
▁หนังใหม่	-10.7598
เออร์	-10.7599
และโรคสะเก็ดเงิน	-10.76
รายงานผล	-10.7609
ัติ	-10.7612
บัดนี้	-10.7612
▁จนทําให้	-10.7614
ผ่านระบบ	-10.762
เจ้านาย	-10.7626
ว่าราชการจังหวัด	-10.763
ลุ่ม	-10.7636
เลยนะ	-10.7637
▁System	-10.764
หนองคาย	-10.764
อนุบาล	-10.7646
พะเยา	-10.7647
สายไฟ	-10.765
ไม่ควรพลาด	-10.7656
har	-10.7659
เลือกที่จะ	-10.7662
ham	-10.7667
คริสต์	-10.7672
อย่างจริงจัง	-10.7676
ให้ความสําคัญ	-10.7682
▁Bank	-10.7682
ธนบุรี	-10.7683
▁ที่สมบูรณ์	-10.7685
อวัยวะเพศ	-10.7687
โยก	-10.7687
บูรณะ	-10.7689
บางชนิด	-10.7692
สหราชอาณาจักร	-10.7696
ชายฝั่ง	-10.7696
กู้ยืม	-10.77
VA	-10.77
ครม	-10.7704
คณะรัฐมนตรี	-10.7706
ต่ําสุด	-10.7707
เบ็ด	-10.7708
กุมาร	-10.7712
บ่อน	-10.7715
เด็กเล็ก	-10.7718
ล่าสุดที่นี่	-10.7719
scr	-10.772
php	-10.7722
ไปเยือน	-10.7722
นายกฯ	-10.7723
พระราชา	-10.7723
ฮอต	-10.7725
ใคร่	-10.7725
ค้าขาย	-10.7729
®	-10.7731
มหกรรม	-10.7732
บรู	-10.7734
สถานีรถไฟ	-10.7737
อ้อ	-10.7737
พระนคร	-10.7738
เคาน์เตอร์	-10.7738
เสร็จสิ้น	-10.7744
อวบ	-10.7744
สิ่งที่เรา	-10.7746
▁ตัวอย่างเช่น	-10.7747
tom	-10.775
สะโพก	-10.7752
บัล	-10.7752
ตามธรรมชาติ	-10.7753
จะทําอย่างไร	-10.7754
เครื่องเล่น	-10.7755
ไม่ใช่แค่	-10.7758
DO	-10.7763
▁คลิกที่ปุ่ม	-10.7766
จะกลายเป็น	-10.7767
อัญมณี	-10.7773
าภรณ์	-10.7774
ตามเวลา	-10.7774
เลือกสรร	-10.7776
ผู้ตัดสิน	-10.7776
▁2-0	-10.7779
บาเยิร์น	-10.778
ภักดี	-10.7781
กดปุ่ม	-10.7786
ความก้าวหน้า	-10.7787
▁ส่งฟรี	-10.7789
กฏหมาย	-10.779
-09	-10.779
โปสเตอร์	-10.779
อุ้ม	-10.779
ปัตตานี	-10.7795
กระเพาะอาหาร	-10.7795
แมงมุม	-10.7795
▁2009	-10.7799
ดึก	-10.7801
กระดาน	-10.7802
ration	-10.7806
การพักผ่อน	-10.781
style	-10.7811
การจัดงาน	-10.7813
เพื่อให้ได้	-10.7817
ข่าวลือ	-10.7818
room	-10.7821
นครศรีธรรมราช	-10.7823
ออกเดินทาง	-10.7826
คมนาคม	-10.7827
ura	-10.783
คืนเงิน	-10.783
เต็นท์	-10.783
▁รับส่วนลดสูงสุด	-10.783
โดยรอบ	-10.7831
▁และการรับประกัน	-10.7831
print	-10.7834
ข้อมูลจําเพาะของ	-10.7837
▁Microsoft	-10.7837
▁ครั้น	-10.7837
ผิวหนังภูมิแพ้	-10.7841
ล่องเรือ	-10.7841
ชุมพร	-10.7845
แท็กซี่	-10.7845
ตํารา	-10.7848
การเล่นเกม	-10.7849
168	-10.7852
ผู้ต้องหา	-10.7852
ราชวงศ์	-10.7854
บริหารส่วนตําบล	-10.7855
ปู่	-10.7857
เนื้อผ้า	-10.7858
เป็นประธาน	-10.7861
ได้อย่างง่ายดาย	-10.7863
ขออนุญาต	-10.7864
พี่ชาย	-10.7867
การนําเสนอ	-10.7871
เชื่อมั่น	-10.7873
แสดงความยินดี	-10.7873
ปลวก	-10.7881
qua	-10.7883
pos	-10.7883
ยีนส์	-10.7887
BR	-10.7889
สํานักงานคณะกรรม	-10.7892
ประมาท	-10.7895
วอร์	-10.7897
รอยยิ้ม	-10.79
การสูญเสีย	-10.79
เลี่ยน	-10.7902
ล้มเหลว	-10.7909
สุราษฎร์ธานี	-10.7909
การจอง	-10.7909
รับทราบ	-10.7912
ไช	-10.7914
ประยุกต์	-10.7914
UP	-10.7914
ผู้เข้าพัก	-10.7915
PD	-10.7917
น้ําดื่ม	-10.7919
ทุกครั้งที่	-10.7925
Thai	-10.7929
ขาดทุน	-10.793
โซเชียล	-10.793
เกลียด	-10.793
graph	-10.793
เสก	-10.7932
▁มีจําหน่ายที่	-10.7938
พบเห็น	-10.7939
ั้	-10.7941
cho	-10.7941
อุด	-10.7944
dia	-10.7945
160	-10.7949
▁โปรดไปที่	-10.7954
cast	-10.7954
หรือบ้านพัก	-10.7955
กับรายละเอียดของ	-10.7957
vis	-10.7957
ชนบท	-10.796
ด้านล่างเพื่อดู	-10.7973
▁ด้วยราคาถูก	-10.7975
ชาน	-10.7975
น้ําทะเล	-10.7975
ทางสังคม	-10.7975
กล่าวหา	-10.7979
▁Cap	-10.7979
คําถามอื่น	-10.7979
ความคืบหน้า	-10.7981
ute	-10.7982
ต้องใช้เวลา	-10.7983
ลองดู	-10.7985
ผู้ขับขี่	-10.7988
ป็นผลิตภัณฑ์ใหม่	-10.7988
ขายอยู่ในร้าน	-10.7988
ได้ง่ายขึ้น	-10.7988
สมรส	-10.7991
คนเรา	-10.7992
ได้เปรียบ	-10.7992
อย่างใกล้ชิด	-10.8006
UM	-10.8008
เมทัล	-10.801
ผลข้างเคียง	-10.8017
▁นี่เป็น	-10.802
ที่ขายโดย	-10.8021
ตากอากาศยอดนิยม	-10.8024
ร้านค้าที่ผู้	-10.8024
พักช่วงวันหยุด	-10.8025
ถูกถ่ายใน	-10.8025
บ่อยครั้ง	-10.8025
ช้างศึก	-10.803
การค้นหา	-10.803
เมืองหลวง	-10.8032
ONE	-10.8033
กุหลาบ	-10.8038
มีมูลค่า	-10.804
มาร่วมทีม	-10.8042
UT	-10.8043
พัสดุ	-10.8046
▁โปรดตรวจสอบราคา	-10.8046
▁ลองดูรายละเอียด	-10.8047
ไทยรัฐ	-10.8047
ular	-10.8048
ต่อรอง	-10.8049
▁1-1	-10.805
ความทุกข์	-10.805
จีบ	-10.8052
การจัดทํา	-10.8052
▁ยาสําหรับ	-10.8053
เดี๋ยวนี้	-10.8053
รึ	-10.8056
ชื่อเสียง	-10.8057
จังหวัดพิษณุโลก	-10.806
ภาพลักษณ์	-10.8061
-19	-10.8062
pol	-10.8063
เพื่อรองรับ	-10.8069
ถึงขั้น	-10.8074
เกิดปัญหา	-10.8074
น้อม	-10.8074
มะม่วง	-10.8077
pri	-10.808
มิด	-10.808
▁ผลิตภัณฑ์นี้เ	-10.8081
ทุ่มเท	-10.8082
ผู้ถือหุ้น	-10.8082
คําอธิบาย	-10.8083
กองกลาง	-10.8084
เราก็จะ	-10.8084
ประเมินผล	-10.8085
สงสัยว่า	-10.8088
แคนาดา	-10.8089
ไอโฟน	-10.8089
หัวหอก	-10.8089
โตะ	-10.8092
ump	-10.8092
เวบ	-10.8095
ดิ้ง	-10.8095
หย่อน	-10.8097
เนื่องด้วย	-10.8098
▁More	-10.8098
ินทร	-10.81
ก๋วยเตี๋ยว	-10.8104
ข้อจํากัด	-10.8105
▁Trans	-10.8105
จังหวัดชลบุรี	-10.8106
โคก	-10.8108
การเจรจา	-10.8108
แฝง	-10.8111
แฟลช	-10.8111
อนิเมะ	-10.8114
ชํา	-10.8115
วิกฤต	-10.8117
▁ซึ่งจัดส่ง	-10.8118
กิ้ง	-10.8119
แคว้น	-10.8119
การคัดเลือก	-10.812
โคม	-10.8122
ซัล	-10.8122
ของชําร่วย	-10.8126
พระมหากษัตริย์	-10.8126
๋ง	-10.8126
เยื่อ	-10.8127
name	-10.8127
เติมเต็ม	-10.8131
ดาวเทียม	-10.8137
แคร์	-10.8142
นิส	-10.8144
ด่า	-10.8145
ดําเนินคดี	-10.8148
น้ําตาลทราย	-10.8148
วิลล่า	-10.8149
สนธิ	-10.8151
เบื้อง	-10.8155
นครพนม	-10.8157
ยี่กี	-10.816
เซ็นเซอร์	-10.8166
▁Char	-10.817
Work	-10.8171
บาร์เซโลนา	-10.8177
อวด	-10.8187
▁pre	-10.8188
ไอน้ํา	-10.8188
ทางหลวง	-10.819
ปฏิรูป	-10.8192
/10	-10.8193
ปริมณฑล	-10.8193
ครบทุก	-10.8195
ศาสตร	-10.8197
qui	-10.8201
รถบัส	-10.8201
▁ใครที่	-10.8202
โสด	-10.8205
คณะทํางาน	-10.8206
หิว	-10.8215
▁(2)	-10.8219
องค์ความรู้	-10.8221
ท้าว	-10.8221
▁อาทิเช่น	-10.8223
ชลประทาน	-10.8226
ได้รับเงิน	-10.8226
มีขนาดเล็ก	-10.8229
สืบสวน	-10.8231
สดๆ	-10.8231
เชิงปฏิบัติการ	-10.8235
ทองแดง	-10.8236
ชดเชย	-10.8236
ยับยั้ง	-10.8236
ครั้งหนึ่ง	-10.824
กระตุ้นให้	-10.8242
พยายามที่จะ	-10.8246
พ้นจาก	-10.825
อนุญาต	-10.8254
ออร์	-10.8257
▁เครื่องวัด	-10.8258
เสียก่อน	-10.8258
จําคุก	-10.8259
เพียร	-10.8263
สามารถเข้าถึง	-10.8265
หลายชนิด	-10.8265
แผ่นดินไหว	-10.8276
จ่อ	-10.828
จิ๋ว	-10.8296
โซฟา	-10.8297
▁ISO	-10.8299
จึงควร	-10.8307
ของจุดเม็ดสี	-10.8311
ภูเขาไฟ	-10.8311
ประยุทธ์	-10.8311
-14	-10.8311
ดูบอล	-10.8311
พลัด	-10.8312
ั่	-10.8316
ในทุกๆ	-10.8317
ฮอลิเดย์	-10.8318
ด่าง	-10.8319
ธีม	-10.833
ระหว่างวันที่	-10.8332
▁ประกาศผู้ชนะการ	-10.8333
เค็ม	-10.8333
ระทรวงศึกษาธิการ	-10.8336
หลอดไฟ	-10.8337
2015	-10.8338
เจ้าอาวาส	-10.8341
ไอศกรีม	-10.8348
คําขอ	-10.8358
tag	-10.8358
ดวล	-10.8359
ความสะอาด	-10.8359
อัมพ	-10.836
ริช	-10.8363
ในหมู่	-10.8364
พระอาทิตย์	-10.8368
ทุบ	-10.8368
มิตรภาพ	-10.8376
ตอบคําถาม	-10.8378
CP	-10.8381
ขอโทษ	-10.8384
ชิต	-10.839
ora	-10.8394
ขี้ผึ้ง	-10.8401
max	-10.8402
มัว	-10.8403
▁ครีมสําหรับ	-10.8405
ผู้ชนะ	-10.8407
นักฟุตบอล	-10.8407
ไกด์	-10.841
กลีบ	-10.8411
สกิล	-10.8411
ขวาง	-10.8414
ละออง	-10.8419
สง่า	-10.8423
>>	-10.8426
แม่นๆ	-10.8427
ดื่มน้ํา	-10.8427
พุ่ม	-10.8427
อรรถ	-10.8427
ทัก	-10.8429
โดยอัตโนมัติ	-10.8433
▁Big	-10.8435
ก็ยังไม่	-10.8437
เพื่อให้เกิด	-10.8439
HO	-10.8441
พูดคุยกับ	-10.8443
ส่วนกลาง	-10.8443
ฝึกฝน	-10.8447
พอที่จะ	-10.8447
each	-10.8455
vent	-10.8458
ทิว	-10.8463
อยู่ห่างจาก	-10.8463
เมาส์	-10.8464
พันล้าน	-10.8464
จิ้ม	-10.8469
ฮาร์	-10.8469
จัดหามา	-10.8475
ก็คงจะ	-10.8475
gram	-10.8481
ง่ายดาย	-10.8482
ธุรกรรม	-10.8484
รามคําแหง	-10.8484
เยน	-10.8489
gel	-10.8491
เหยื่อ	-10.8491
เดือนตุลาคม	-10.8491
ช่วยทําให้	-10.8493
เจ้าสาว	-10.8493
แจ้งเตือน	-10.8494
เลือดออก	-10.8497
ความประทับใจ	-10.8497
star	-10.8498
เปรี้ยว	-10.8499
รีย์	-10.8502
น้ํานม	-10.8503
เทวดา	-10.8505
อธิการบดี	-10.8507
จนต้อง	-10.851
ا	-10.8514
สระบุรี	-10.8515
พบปะ	-10.8516
นิทาน	-10.852
ตราด	-10.8523
ร้านค้าออนไลน์	-10.8528
เงินรางวัล	-10.8528
แสงสว่าง	-10.8528
late	-10.8529
การทดลอง	-10.853
หรอ	-10.853
พระองค์ทรง	-10.8531
สี่เหลี่ยม	-10.8531
เทนนิส	-10.8532
เจตนา	-10.8537
ตีเสมอ	-10.8538
ปฎิบัติ	-10.8545
ไฟเบอร์	-10.8545
จะทําให้คุณ	-10.8549
หนอนในเด็ก	-10.8551
พระราชดําริ	-10.8552
รัม	-10.8557
เบอร์มือถือ	-10.8558
ด้านนอก	-10.8558
เผาผลาญ	-10.856
ขนาดไหน	-10.856
กิเลส	-10.8562
18+	-10.8565
▁Top	-10.8568
ปราจีนบุรี	-10.8568
กัปตันทีม	-10.8572
ทางวิทยาศาสตร์	-10.8574
อธิษฐาน	-10.8575
แสบ	-10.858
ระบาด	-10.8583
ปาง	-10.8585
ปลายปี	-10.8588
ข่มขืน	-10.8606
โปรเจค	-10.8606
search	-10.8606
จัดเตรียม	-10.8607
ภาคตะวันออก	-10.8607
นครนายก	-10.8608
OC	-10.861
ชุดใหญ่	-10.8611
ขึ้นเรื่อยๆ	-10.8612
CI	-10.8615
ร่ํา	-10.8616
แท้จริง	-10.8619
ลูกทีม	-10.8622
ได้รับความสนใจ	-10.8624
สารพัด	-10.8624
ระยะสั้น	-10.8628
รัฐวิสาหกิจ	-10.8629
▁HP	-10.8632
สามารถมองเห็น	-10.8632
ju	-10.8632
ศาลเจ้า	-10.8634
จํานวนเงิน	-10.8634
tube	-10.8636
แจ่ม	-10.8637
ปิง	-10.864
ฉลาก	-10.8641
สังหาร	-10.8644
แอฟริกา	-10.8644
แลน	-10.8645
page	-10.8647
▁ท่านสามารถ	-10.865
น้องสาว	-10.8654
พาทีม	-10.8662
มาร์เก็ต	-10.8671
ลลี่	-10.8677
นานๆ	-10.868
เพิ่มเติมได้ที่	-10.8681
แว่นตา	-10.8685
**	-10.8686
ชีส	-10.8687
๊อต	-10.8689
FC	-10.8689
อวกาศ	-10.8691
เถิด	-10.8692
คนไหน	-10.8692
ปรสิตในร่างกาย	-10.8693
ณิช	-10.8694
ห่างไกล	-10.8694
ความท้าทาย	-10.8695
Int	-10.8697
▁ทีมสุดท้าย	-10.8698
mod	-10.87
ไลฟ์	-10.8705
tech	-10.8709
ประจวบคีรีขันธ์	-10.8714
▁Server	-10.8714
เสน	-10.8715
การแก้ปัญหา	-10.8721
ุ่ย	-10.8722
สมัยก่อน	-10.8723
พักอาศัย	-10.8725
สําราญ	-10.873
✔	-10.873
•	-10.8731
เก้า	-10.8732
นิต	-10.8733
ลูกน้อย	-10.8736
เพื่อนร่วมทีม	-10.8736
สะเทือน	-10.8737
สมมติ	-10.874
โรงงานผลิต	-10.874
เนื้อเยื่อ	-10.8741
วัฒน	-10.8743
เด็กชาย	-10.8743
เวิร์ค	-10.8744
live	-10.8744
นิพพาน	-10.8745
รามอินทรา	-10.8745
<	-10.8748
แหล่งน้ํา	-10.875
เป็นศูนย์กลาง	-10.8751
▁วิธีการที่จะ	-10.8753
คลาสสิค	-10.8753
โซดา	-10.8754
วิง	-10.8755
ตระ	-10.8755
จําพวก	-10.8756
โญ	-10.8759
เครา	-10.876
©	-10.8761
เวีย	-10.8762
▁เมืองทอง	-10.8763
เข็มขัด	-10.8763
เต็มรูปแบบ	-10.8764
▁Next	-10.8764
สิ่งสําคัญ	-10.8765
แกร่ง	-10.8768
อ่อนโยน	-10.8771
บ่งบอก	-10.8773
ใดก็ตาม	-10.8774
สาธิต	-10.8776
พระปรมินทรมหา	-10.8776
พจน์	-10.8777
ดวงอาทิตย์	-10.8779
รีโมท	-10.878
เป็ด	-10.8782
▁กษา	-10.8786
van	-10.8786
โปร่งใส	-10.8789
Thailand	-10.8792
กระทรวงมหาดไทย	-10.8792
เอียง	-10.8792
ตีพิมพ์	-10.8792
▁Mini	-10.8794
พิพากษา	-10.8796
ความเป็นส่วนตัว	-10.88
วัคซีน	-10.88
ลพบุรี	-10.88
วาล์ว	-10.88
สามารถใช้งานได้	-10.8801
ผลรวม	-10.8806
ไม่ต่ํากว่า	-10.8812
Categories	-10.8816
DR	-10.8817
สลาก	-10.8817
ณฑ	-10.8818
เจ้าหญิง	-10.8818
แปด	-10.8822
ขาดแคลน	-10.8823
เอ่ย	-10.8824
▁3-4	-10.8829
ท้อ	-10.8829
ใช้งานง่าย	-10.8832
หม่อม	-10.8833
ก็ยิ่ง	-10.8837
บิต	-10.8839
โครงการพัฒนา	-10.8839
อาชญากรรม	-10.8839
การทุจริต	-10.8841
วิชัย	-10.8841
▁Data	-10.8842
อาสา	-10.8842
สรรพคุณ	-10.8843
ได้รับการยอมรับ	-10.8847
เม้นท์	-10.8847
เทรนเนอร์	-10.8847
ทันใจ	-10.8849
▁2551	-10.8849
IF	-10.885
emp	-10.8851
mit	-10.8851
เลี้ยงดู	-10.8853
กิโลเมตร	-10.8854
แฝด	-10.8855
william	-10.8855
blake	-10.8856
ซุ้ม	-10.8861
โมเดิร์น	-10.8863
อยากรู้	-10.8864
สับสน	-10.8865
ึ่ง	-10.8868
oke	-10.8868
ball	-10.8873
nova	-10.8874
อัต	-10.8875
สวีเดน	-10.8879
กระจ่างใส	-10.8879
เสียดาย	-10.8879
001	-10.888
ปานกลาง	-10.8884
ร่มรื่น	-10.8886
«	-10.8886
มุข	-10.8891
board	-10.8892
สปริง	-10.8895
ยากลําบาก	-10.8907
▁Mode	-10.891
▁ตรม	-10.891
สมุทรสาคร	-10.891
▁Photo	-10.8912
ความสําคัญของ	-10.8914
ดั่ง	-10.8916
ให้กําลังใจ	-10.8919
สุ่ม	-10.8919
เจ็บป่วย	-10.8921
มอบหมายให้	-10.8921
look	-10.8923
นรก	-10.8923
▁City	-10.893
▁ประกอบกับ	-10.8932
ริมฝีปาก	-10.8934
เจ๊	-10.8935
มีความเสี่ยง	-10.8941
สมาร์ท	-10.8942
พ่อค้า	-10.8949
ยากจน	-10.8949
สเปรย์	-10.895
ทางด่วน	-10.8954
อริย	-10.8958
ฮ่า	-10.8959
ภาคกลาง	-10.8962
เพียงอย่างเดียว	-10.8963
ทาวน์เฮ้าส์	-10.8966
เด็กนักเรียน	-10.8967
เร่งด่วน	-10.8971
ผู้เสียชีวิต	-10.8974
ปฏิบัติธรรม	-10.8976
ศาสดา	-10.8982
▁จากนั้นก็	-10.8982
บรรจุภัณฑ์	-10.8983
สีส้ม	-10.8984
ความสนุกสนาน	-10.8984
ตลาดหลักทรัพย์	-10.899
การจัดกิจกรรม	-10.8994
ก็น่าจะ	-10.8996
เพชรบูรณ์	-10.9006
เงินฝาก	-10.9012
ปอร์	-10.9013
▁from	-10.9014
แมค	-10.9018
นักข่าว	-10.902
ส่งผลกระทบต่อ	-10.9023
กลุ่มเป้าหมาย	-10.9024
▁คอร์ด	-10.9024
ควรเลือก	-10.9025
ไม่เพียงพอ	-10.9028
ทาวน์โฮม	-10.903
คนรุ่นใหม่	-10.9034
สิ่งเหล่านี้	-10.9036
ปะการัง	-10.9038
ญญา	-10.904
ผอม	-10.9042
เอ็ด	-10.9049
ปลอก	-10.9052
ทรมาน	-10.9053
มวยไทย	-10.9054
กลั่น	-10.9055
ปีละ	-10.9055
ตุรกี	-10.9062
ดีมากๆ	-10.9062
ความผิดพลาด	-10.9063
ช่วงซัมเมอร์	-10.9067
AND	-10.9068
วงษ์	-10.907
เพดาน	-10.907
แทนที่จะ	-10.9074
▁was	-10.9076
ร้านขายยา	-10.9079
ธิดา	-10.9084
เสี่ย	-10.9085
โหวต	-10.9086
ภายในประเทศ	-10.9089
wan	-10.9091
สนิม	-10.9094
▁Social	-10.9094
หลงใหล	-10.9102
▁หากท่าน	-10.9104
ทีมชาติอังกฤษ	-10.9104
น่าเชื่อถือ	-10.9108
Ltd	-10.9111
โนะ	-10.9111
คุก	-10.9122
ces	-10.9124
sex	-10.9127
ตัวเก่ง	-10.9127
ยะลา	-10.9129
บังเอิญ	-10.9134
ไม่แพง	-10.9135
ฮัม	-10.9135
cat	-10.9136
แบ็ก	-10.9138
ยอดฮิต	-10.9138
ชนะเลิศอันดับที่	-10.9138
ให้กับลูกค้า	-10.9139
เส้นใย	-10.9139
นุช	-10.914
อุ่นเครื่อง	-10.9144
กระทรวงสาธารณสุข	-10.9146
ช่องคลอด	-10.915
▁Control	-10.9151
น่าเสียดาย	-10.9151
cent	-10.9152
เป็นสิ่งสําคัญ	-10.9154
ลิ่ง	-10.9156
เกษม	-10.9166
▁hallux	-10.9167
ช้อน	-10.9167
แสดงให้เห็นว่า	-10.9167
▁intl	-10.9168
ความหนา	-10.9176
ยุคสมัย	-10.9187
เลือน	-10.9199
สินทรัพย์	-10.9207
lim	-10.9207
โผล่	-10.9208
อีกต่างหาก	-10.9208
อรุณ	-10.9209
อยู่ตลอดเวลา	-10.9211
▁2007	-10.9212
บริหารธุรกิจ	-10.9213
การบริโภค	-10.9214
ล้างหน้า	-10.9215
คาเฟ่	-10.9216
▁Asia	-10.9218
д	-10.9224
แอค	-10.9226
ประเดิม	-10.9231
พูล	-10.9236
ในระยะยาว	-10.9238
สตูดิโอ	-10.924
▁Program	-10.9242
ง่ายต่อการ	-10.9245
ข้อหา	-10.9247
โจทย์	-10.9247
อุตรดิตถ์	-10.9249
▁360	-10.9252
▁Cha	-10.9253
▁สมัครแทงบอล	-10.9255
ลีย์	-10.926
หมั่น	-10.9262
มีเสน่ห์	-10.9267
ราชอาณาจักร	-10.9268
บรรทุก	-10.9272
▁Product	-10.9274
Tech	-10.9274
ประทาน	-10.928
สารสกัดจาก	-10.9288
อลังการ	-10.9291
▁Network	-10.9298
คุณจะได้รับ	-10.9299
สูญ	-10.93
ท่าอากาศยาน	-10.93
สรรหา	-10.9302
▁ล้านพิกเซล	-10.9307
กีตาร์	-10.9314
ปลื้ม	-10.9314
เกลียว	-10.9314
กัปตัน	-10.9317
พยากรณ์	-10.9319
แวว	-10.9319
พอเพียง	-10.9322
ดุจ	-10.9322
ไทม์	-10.9324
เจ้าพนักงาน	-10.9324
▁Shi	-10.9326
แท็ก	-10.9331
รายใหญ่	-10.9331
เจมส์	-10.9331
ตั้งอยู่บน	-10.9331
▁บรรยากาศดี	-10.9331
การสั่งซื้อ	-10.9331
สิ่งใด	-10.9343
คลาสสิก	-10.9347
แคปซูล	-10.9347
คลีน	-10.9349
ship	-10.9349
ful	-10.9349
คาถา	-10.9349
สามารถนําไป	-10.9355
ทัศนคติ	-10.9356
เท่านั้นเอง	-10.9357
ศิลา	-10.9361
มีศักยภาพ	-10.9362
Twitter	-10.9364
หวั่น	-10.9365
▁อบต	-10.9369
ฟังก์ชัน	-10.9372
กูล	-10.9376
ถัก	-10.9378
สุดสัปดาห์	-10.9379
การรับประกัน	-10.9379
ล้อแม็ก	-10.9383
คุณจะต้อง	-10.9384
ประชาคม	-10.9384
ชายหนุ่ม	-10.9386
ตราบ	-10.9387
บ้านเรือน	-10.939
bar	-10.9392
ให้ความช่วยเหลือ	-10.9392
test	-10.9394
เร็วที่สุด	-10.9394
จิตวิญญาณ	-10.94
พังงา	-10.94
นั่นคือ	-10.9403
แกนนํา	-10.9403
แชมเปี้ยนส์ลีก	-10.9404
เชื้อโรค	-10.9407
AG	-10.9411
เฉลิม	-10.9413
▁สพป	-10.9414
แบ่งออกเป็น	-10.9414
เร็วกว่า	-10.9414
ถาด	-10.9415
สาวน้อย	-10.9416
ลูกหลาน	-10.9421
▁Sky	-10.9423
▁ล้านยูโร	-10.9425
มั่นใจได้ว่า	-10.9426
tage	-10.9428
จนถึงปัจจุบัน	-10.9433
ย้ายทีม	-10.9435
เช็ก	-10.9438
กฏ	-10.9442
คลาส	-10.9443
กอด	-10.9447
โอลิมปิก	-10.9447
เก็บรักษา	-10.945
ผลัด	-10.9451
ยังไม่เคย	-10.9453
ป้อน	-10.9456
สิ่งมีชีวิต	-10.9456
จารย์	-10.9457
แขนยาว	-10.946
ไมโคร	-10.9463
ภาชนะ	-10.9463
ปฏิกิริยา	-10.9464
แล็	-10.9468
กระทรวงการคลัง	-10.9469
TF	-10.947
ร้อยเอ็ด	-10.9473
เลสเตอร์	-10.9478
ผสาน	-10.9479
ล้านนา	-10.9482
▁คอร์ดเพลง	-10.9484
ลูกหนัง	-10.9485
แบก	-10.9486
bot	-10.949
▁วิธีการรักษา	-10.9494
ราคาประหยัด	-10.95
อาคารพาณิชย์	-10.9502
ไม่กล้า	-10.9505
กาญจน	-10.9506
ทศวรรษ	-10.9506
▁King	-10.9508
ข้อบังคับ	-10.9509
สงสาร	-10.9515
แปลภาษา	-10.9516
เมียนมา	-10.9518
เงินลงทุน	-10.952
UL	-10.952
สเต็ป	-10.9523
ของที่ระลึก	-10.9524
สังฆ	-10.9524
โดนใจ	-10.9527
ense	-10.9529
ยุคใหม่	-10.9531
อุบล	-10.9531
ENT	-10.9542
นําไปสู่การ	-10.9543
-12.00	-10.9553
ที่เป็นอันตราย	-10.9553
เสรีภาพ	-10.9556
ดีเซล	-10.9557
แทบไม่	-10.9557
อยู่อาศัย	-10.9562
เอ็ก	-10.9563
NS	-10.9565
บางราย	-10.9566
▁Store	-10.9568
อุดมสมบูรณ์	-10.9568
เก็บเกี่ยว	-10.957
ถุงน่อง	-10.9573
ยังไงก็	-10.9578
เกิดอุบัติเหตุ	-10.9578
2559	-10.9578
▁Vol	-10.9579
SR	-10.9581
แต่ละครั้ง	-10.9582
ซึ	-10.9583
โลชั่น	-10.9583
link	-10.9591
นักเขียน	-10.9595
ทนายความ	-10.9599
▁ที่สนาม	-10.9603
IE	-10.9611
็อกซ์	-10.9613
fu	-10.9613
▁Tour	-10.9619
ประดิษฐาน	-10.9624
ข้าวโพด	-10.9624
ฟักทอง	-10.9624
ป่าไม้	-10.9626
ภัยแล้ง	-10.963
▁เปอร์เซ็น	-10.9632
เอาใจใส่	-10.9632
พวงมาลัย	-10.9633
▁lamblia	-10.9633
▁คอร์ดกีต้าร์	-10.9633
การปฏิรูป	-10.9634
เคลื่อนย้าย	-10.9636
ห้ามพลาด	-10.9637
ตะวันออกเฉียงใต้	-10.9641
ัณฑ	-10.9642
ไฟแนนซ์	-10.965
อ่างเก็บน้ํา	-10.965
▁Shop	-10.9654
ยานพาหนะ	-10.9658
เฟซบุ๊ก	-10.9658
โคราช	-10.9659
บ่น	-10.966
ขับไล่	-10.9665
จะเห็นว่า	-10.9669
ชั้นวาง	-10.9671
ยุบ	-10.9673
เข้าร่วมโครงการ	-10.9674
สรรพสิ่ง	-10.9674
นับว่าเป็น	-10.9676
จบลง	-10.9678
หลบหนี	-10.9679
ร็อค	-10.9679
นันฟุตบอลออนไลน์	-10.9683
ทําความรู้จัก	-10.9687
▁Gen	-10.969
ความตั้งใจ	-10.9691
ปัง	-10.9691
130	-10.9692
ฟิตเนส	-10.9693
บางท่าน	-10.9699
แซ่บ	-10.9701
โคลน	-10.9709
รถโดยสาร	-10.971
▁House	-10.9711
สักพัก	-10.9712
เล่าเรื่อง	-10.9722
▁หนังโป๊ออนไลน์	-10.9722
ิกซ์	-10.9723
ชัยนาท	-10.9723
แก๊ง	-10.973
ตื้น	-10.9735
▁Series	-10.9736
ดอนเมือง	-10.9739
กิโล	-10.9744
▁Water	-10.9744
กระทะ	-10.9748
aga	-10.9748
กระเช้า	-10.9749
กระทรวงพาณิชย์	-10.9749
WA	-10.975
990	-10.9753
เซรั่ม	-10.9753
ไวท์	-10.9756
พิกัด	-10.976
เที่ยวชม	-10.9765
▁Back	-10.9765
ไมค์	-10.9767
NK	-10.977
แปะ	-10.9772
รอยัล	-10.9774
food	-10.9777
แกะสลัก	-10.9779
ประจําปีการศึกษา	-10.9779
ร่วมมือกับ	-10.9785
ฉะนั้น	-10.9785
ด้านซ้าย	-10.9786
ท้องฟ้า	-10.9787
แหน	-10.9787
Green	-10.9788
ความคุ้มครอง	-10.9789
จิตวิทยา	-10.979
ธรรมศาสตร์	-10.9791
▁๑๕	-10.9792
vin	-10.9808
เพียงไม่กี่	-10.9808
google	-10.9813
ever	-10.9816
Phone	-10.9817
สํานึก	-10.9821
Market	-10.983
อพยพ	-10.9831
วอลเปเปอร์	-10.9839
ชัวร์	-10.9839
ด้าย	-10.984
hor	-10.9841
นาวา	-10.9843
ความถูกต้อง	-10.9846
จุล	-10.9849
หล่น	-10.9849
▁And	-10.9851
ได้รับรางวัลรอง	-10.9853
199	-10.9858
ตั้งเป้า	-10.9861
TION	-10.9861
ช่วยทีม	-10.9862
สาธารณ	-10.9862
Press	-10.9873
สิทธิบัตร	-10.9874
โทนสี	-10.9878
อย่างละเอียด	-10.9881
▁แต่ก็ยัง	-10.9882
เฮาส์	-10.9883
เบอร์โทร	-10.9886
ภาควิชา	-10.9889
จุลินทรีย์	-10.9891
มลพิษ	-10.9892
โดยเฉลี่ย	-10.9894
ถัดมา	-10.99
พระนครศรีอยุธยา	-10.99
ความน่าเชื่อถือ	-10.9902
จูง	-10.9906
เพื่อนร่วม	-10.9907
แฟร์	-10.9908
round	-10.9909
นามสกุล	-10.9913
ฝอย	-10.9914
ชาวไร่อ้อย	-10.9918
ซีรี่ย์	-10.9918
แสดงให้เห็นถึง	-10.9918
den	-10.9918
▁2550	-10.9923
นิรภัย	-10.9927
เพลิดเพลินกับ	-10.9929
จันทร	-10.9931
วิจัยและพัฒนา	-10.9939
เดือนกันยายน	-10.9944
▁sbobet	-10.9944
ข้างนอก	-10.9945
▁Red	-10.9947
ช่องว่าง	-10.995
มีวัตถุประสงค์	-10.9957
140	-10.996
▁๖๑	-10.9965
OO	-10.9967
ปฏิวัติ	-10.997
▁Previous	-10.997
เลวร้าย	-10.997
20,000	-10.9981
อยู่ภายใต้	-10.9983
เหงา	-10.9984
คล้ายๆ	-10.9986
▁Media	-10.9989
ความเคลื่อนไหว	-10.9997
เบลเยียม	-10.9997
▁True	-11
ขั้นสูง	-11.0001
เฟรม	-11.0005
ลําพูน	-11.0006
ส้วม	-11.0015
ผิวพรรณ	-11.0017
สระแก้ว	-11.002
MC	-11.0021
จนกว่าจะ	-11.0021
เชื่อถือได้	-11.0022
ดูเหมือนจะ	-11.0022
125	-11.0032
▁หมายเหตุ	-11.0033
▁2008	-11.0037
น่าประทับใจ	-11.0042
▁Master	-11.0045
สินค้าเกษตร	-11.0046
ตรวจจับ	-11.0048
▁องศาเซลเซียส	-11.005
อัยการ	-11.0051
aka	-11.0056
แจง	-11.0064
ข้อสงสัย	-11.0067
ยอดเขา	-11.0083
ิษฐ	-11.0085
ขิง	-11.0088
กระสุน	-11.0095
แม่ค้า	-11.0098
105	-11.0098
จะเห็นได้ว่า	-11.0107
ช่วยตัวเอง	-11.0108
แชท	-11.0113
ต้องอาศัย	-11.0122
ให้การต้อนรับ	-11.0122
พ่ายแพ้	-11.0123
GO	-11.0125
ทรัพยากรธรรมชาติ	-11.013
ลาดกระบัง	-11.013
ชู้	-11.013
นิติบุคคล	-11.0137
แคลเซียม	-11.0139
▁Group	-11.0139
6%	-11.014
กําแพงเพชร	-11.0142
กรีน	-11.0145
Leave	-11.0147
เพาเวอร์	-11.0148
จุดเม็ดสี	-11.0149
ความมุ่งมั่น	-11.0149
ด้านขวา	-11.0149
วินเทจ	-11.0157
ทยอย	-11.0157
▁10.00	-11.016
▁that	-11.0166
อาวุโส	-11.0166
นาโน	-11.0172
mini	-11.0175
นัง	-11.018
นายกสมาคม	-11.0183
ตลาดหุ้น	-11.0183
เป็นเจ้าภาพ	-11.0186
ปกปิด	-11.0192
▁สเตเดี้ยม	-11.0193
สูบบุหรี่	-11.0194
▁2019	-11.0197
รายละเอียดสินค้า	-11.0199
▁Honda	-11.0211
โน้ต	-11.0211
ยืมตัว	-11.0213
การที่เรานั้นจะ	-11.0214
IO	-11.0219
โชคลาภ	-11.022
เทือกเขา	-11.022
เจ้าหนี้	-11.0222
ตั้งชื่อ	-11.0226
จตุจักร	-11.0229
เชอร์	-11.0232
▁Porn	-11.0233
how	-11.0234
▁Word	-11.0235
▁มูรินโญ่	-11.0239
บรรทัด	-11.0239
อัป	-11.0247
ฟีฟ่า	-11.0247
อย่างปลอดภัย	-11.0248
ถือได้ว่าเป็น	-11.0248
นิดเดียว	-11.0249
เครน	-11.0252
มวลชน	-11.0253
สักหน่อย	-11.0254
108	-11.0257
เทศบาลเมือง	-11.0264
▁Camera	-11.0265
วี่	-11.0267
▁Log	-11.0267
▁Page	-11.0269
หนุ่มสาว	-11.027
ชมวิว	-11.0272
การจัดอันดับ	-11.028
ข้อมูลข่าวสาร	-11.0282
ตรงไหน	-11.0282
วงกลม	-11.0286
ตลอดกาล	-11.0291
ประเทศอังกฤษ	-11.0291
นิยาม	-11.0294
▁ตรว	-11.0298
เท่าใด	-11.03
ผลการแข่งขัน	-11.0308
โชว์ฟอร์ม	-11.0309
จุดประสงค์	-11.031
อุทธรณ์	-11.0311
▁Sony	-11.0312
▁dis	-11.0315
ปูพื้น	-11.032
▁Limited	-11.032
อิสราเอล	-11.0329
สมทบ	-11.0331
อุปกรณ์เสริม	-11.0335
▁Intel	-11.0339
เกมรุก	-11.0344
สะกด	-11.0345
▁Live	-11.0347
จุฬาลงกรณ์	-11.0347
ถือได้ว่า	-11.0354
ผู้เชี่ยวชาญด้าน	-11.0355
ยกตัวอย่าง	-11.0355
พีซี	-11.036
▁Share	-11.0366
เบิ้ล	-11.0369
ภูมิปัญญา	-11.0371
การขับเคลื่อน	-11.0382
ซื่อสัตย์	-11.0384
ประกาศนียบัตร	-11.0384
ดอทคอม	-11.0384
เข้าใจผิด	-11.0384
นิกาย	-11.0386
ช่วยป้องกัน	-11.039
ทัศนียภาพ	-11.0393
เตรียมพร้อม	-11.0394
เรียกเก็บ	-11.0397
awa	-11.0398
ตกเป็นข่าว	-11.0398
ไม่ถูกต้อง	-11.0401
คุกกี้	-11.0403
ฟูจิ	-11.0404
เหยียบ	-11.0412
อาสาสมัคร	-11.0412
ปิดท้าย	-11.0413
▁ตารางวา	-11.042
???	-11.0421
อย่างสม่ําเสมอ	-11.0425
▁Condo	-11.0426
ภาษาจีน	-11.0426
ความชํานาญ	-11.0429
หน่วยความจํา	-11.043
210	-11.0431
รัฐสภา	-11.0437
อาหารกลางวัน	-11.0438
ราชันชุดขาว	-11.0439
ซัมเมอร์	-11.0442
ซึ้ง	-11.0448
กระทําความผิด	-11.0448
บอกเล่า	-11.0454
ผ่านมือถือ	-11.0457
อัตราดอกเบี้ย	-11.0461
4,000	-11.0462
พี่สาว	-11.0467
ดูดวงความรัก	-11.0477
bag	-11.0478
ดัม	-11.0478
ณรงค์	-11.0479
รวบรวมข้อมูล	-11.0481
crea	-11.0483
ในนาทีที่	-11.0484
ระดับชาติ	-11.049
เร่	-11.0491
Net	-11.0493
ประสบปัญหา	-11.0504
ประกอบธุรกิจ	-11.0508
เขมร	-11.0515
การแข่งขันฟุตบอล	-11.0516
เทิร์น	-11.0523
▁TripAdvisor	-11.0523
ในร่างกายมนุษย์	-11.0523
สํานักพิมพ์	-11.0525
เผลอ	-11.0525
โรคหัวใจ	-11.0526
เบญจ	-11.0527
แป้น	-11.0529
ไม่ทราบว่า	-11.053
อินทร์	-11.0537
ภาคตะวันออกเฉียง	-11.054
ต้องรีบ	-11.0541
ซากุระ	-11.0541
▁comment	-11.0544
นะจ๊ะ	-11.0551
อาเจียน	-11.0551
คริสเตียน	-11.056
▁สมัครเว็บ	-11.056
ปั๊มน้ํา	-11.0568
แกล้ง	-11.0569
pot	-11.057
▁GPS	-11.0571
เบิร์น	-11.0571
blog	-11.0573
หลีกเลี่ยงการ	-11.0575
ก่อเหตุ	-11.0585
ผลกําไร	-11.059
ดูดซึม	-11.0596
▁THE	-11.0597
โบว์	-11.0599
พระภิกษุ	-11.0604
กสิกรไทย	-11.0616
เบเกอรี่	-11.0616
พึ่งพา	-11.0618
โกดัง	-11.0619
คําพิพากษา	-11.0621
พัฒนาทักษะ	-11.0622
อันดับหนึ่ง	-11.0622
รอบคัดเลือก	-11.0626
กํากับดูแล	-11.0631
ไฟไหม้	-11.0644
Tags	-11.0654
จัดให้มี	-11.0656
ร้าง	-11.0657
ALL	-11.0658
ทายาท	-11.066
ประภา	-11.0663
นักวิทยาศาสตร์	-11.0666
ข้อผิดพลาด	-11.0668
center	-11.0672
▁Management	-11.0673
▁รับผลิต	-11.0676
VER	-11.0677
▁สมัครบาคาร่า	-11.0677
▁เว็บพนันบอล	-11.0679
170	-11.0681
ขย่ม	-11.0682
จักรพรรดิ	-11.0682
บุฟเฟ่ต์	-11.0682
FL	-11.0685
เดินทางไปยัง	-11.0686
วิกฤติ	-11.0686
หนาแน่น	-11.0686
กระปุก	-11.0692
▁ตารางเมตร	-11.0692
cell	-11.07
Siam	-11.0702
ส่วนแบ่ง	-11.0703
ข้าวของเครื่อง	-11.0708
ช้ํา	-11.071
ร่ํารวย	-11.0711
เพลิดเพลินไปกับ	-11.0712
ฮะ	-11.0714
โรงงานอุตสาหกรรม	-11.0714
฿	-11.0715
ลัม	-11.0717
เชียว	-11.0722
เศรษฐกิจพอเพียง	-11.0722
ท่วม	-11.0725
ชําระหนี้	-11.0729
ออกซิเจน	-11.073
ฉลาม	-11.073
ไม่เหมือนใคร	-11.073
แบร์	-11.0732
ออโต้	-11.0735
ความแข็งแกร่ง	-11.0736
โอซาก้า	-11.0739
ห้วยขวาง	-11.0739
พิชิต	-11.0742
Beauty	-11.0749
กระแสไฟฟ้า	-11.075
RS	-11.0753
เส้นเลือดขอดที่ข	-11.0769
มะลิ	-11.077
ขํา	-11.0775
บอดี้	-11.0777
▁pm	-11.0779
จักรวาล	-11.0787
▁กว่าที่จะรักษา	-11.0788
ย้อม	-11.0788
ไม่เป็นไร	-11.0788
ทั้งสองทีม	-11.0789
ries	-11.0789
สืบทอด	-11.0791
ราบรื่น	-11.0796
แพคเกจ	-11.0796
▁Huawei	-11.0796
สนอง	-11.0797
ยูเครน	-11.0799
ตอบแทน	-11.08
3000	-11.0801
อ่อนแอ	-11.0802
▁Max	-11.0804
เด็	-11.0805
รถรับจ้าง	-11.081
ทึบ	-11.0815
VR	-11.0817
▁PRO	-11.0817
เตีย	-11.0817
ศิลปวัฒนธรรม	-11.0818
ภาพยนตร์เรื่อง	-11.0818
หมู่เกาะ	-11.0823
▁Road	-11.0826
คาร์บอน	-11.0826
เสวนา	-11.0835
เผ็ด	-11.0836
เมนูอาหาร	-11.0838
เพรส	-11.0839
อาตมา	-11.084
วุธ	-11.0843
ค่าจ้าง	-11.0844
★	-11.0844
ศัพท์	-11.0847
โพลี	-11.0849
▁Application	-11.0854
▁Music	-11.0864
เสริมทัพ	-11.087
ไต่	-11.0873
พิมพ์ลาย	-11.0878
มาโดยตลอด	-11.0881
key	-11.0886
ยางพารา	-11.0888
อธิ	-11.0891
▁Type	-11.0892
วิสัยทัศน์	-11.0892
เลียบ	-11.0893
๊อบ	-11.0896
สําเร็จการศึกษา	-11.0899
ได้ยินเสียง	-11.0906
คึกคัก	-11.0912
แพ็คเกจ	-11.0912
โภค	-11.0918
สติปัญญา	-11.0924
สวนสาธารณะ	-11.0925
สะเก็ดเงิน	-11.0925
เข้าร่วมประชุม	-11.0927
ask	-11.0928
คณะผู้บริหาร	-11.0932
เศรษฐศาสตร์	-11.0932
pack	-11.0949
ินเตอร์เนชั่นแนล	-11.096
จากจังหวะที่	-11.096
ยังมีชีวิตอยู่	-11.0961
เดือนมีนาคม	-11.097
ชั้นประถมศึกษาปี	-11.098
▁Author	-11.098
ไบโอ	-11.0988
2548	-11.0988
▁English	-11.0989
▁เครื่องชั่ง	-11.0994
▁กะรัต	-11.0999
เลี่ยง	-11.0999
▁Multi	-11.1
ราชินี	-11.1001
ไหลเวียน	-11.1003
ตกค้าง	-11.1004
table	-11.1005
ในแต่ละวัน	-11.1008
ลุมพินี	-11.1009
คริสเตียโน	-11.1009
▁ปตท	-11.1019
soft	-11.1019
ระบายอากาศ	-11.1022
5000	-11.1027
เสาเข็ม	-11.1031
▁Travel	-11.1038
อนุสาวรีย์	-11.1048
ใฝ่	-11.1048
TOR	-11.1058
พินิจ	-11.1058
2558	-11.1062
รอบคอบ	-11.1068
กระทิง	-11.1068
ทํางานร่วมกับ	-11.107
ร่วมสมัย	-11.107
โครงสร้างพื้นฐาน	-11.1074
รถเข็น	-11.1087
รวมตัวกัน	-11.109
ิ่ม	-11.1091
ลึกลับ	-11.1095
อัตราส่วน	-11.1095
เพศชาย	-11.1097
รุ่นพี่	-11.1097
สวด	-11.1104
ลุ่มน้ํา	-11.1108
ศุกร์	-11.1111
ภิเษก	-11.1117
▁Manager	-11.1117
ทักทาย	-11.1117
หยาบ	-11.1119
plan	-11.112
เปลือย	-11.1127
พิจิตร	-11.1131
ไอคอน	-11.1133
ภาคอีสาน	-11.1135
▁ห้องพักสะอาด	-11.1143
▁Food	-11.1145
กระถาง	-11.1147
แอนติบอดี	-11.1147
ศึกษาประถมศึกษา	-11.1147
ราษฎร	-11.1153
▁Gclub	-11.1155
อัศจรรย์	-11.1157
หนี้สิน	-11.116
store	-11.116
ลัย	-11.1164
น่าทึ่ง	-11.1166
น่ะครับ	-11.1171
เดือดร้อน	-11.1174
นามบัตร	-11.1176
สถิต	-11.1183
▁รมว	-11.1183
อพาร์ทเมนท์	-11.1185
มนตรี	-11.1185
แอปเปิ้ล	-11.1186
เดือนมิถุนายน	-11.1186
ดูดวงไพ่ยิปซี	-11.1193
คอลัมน์	-11.1196
2557	-11.1216
Movie	-11.1217
เกษตรกรรม	-11.1225
โภชนาการ	-11.1226
ทุเรียน	-11.1227
ราคาถูกที่สุด	-11.1227
เบาหวาน	-11.1227
เฮีย	-11.1229
มองข้าม	-11.1232
▁Ass	-11.1234
ผู้ที่สนใจ	-11.1234
จ้อง	-11.1234
เอฟเวอร์ตัน	-11.1236
ลดความอ้วน	-11.1236
2547	-11.1237
โชติ	-11.1241
โรคเบาหวาน	-11.1242
สาทร	-11.1242
อุดหนุน	-11.1245
รัศมี	-11.1247
สังเกตุ	-11.1249
▁Show	-11.1251
OU	-11.1252
ency	-11.1253
house	-11.1259
เดือนพฤศจิกายน	-11.1259
ครั้งสุดท้าย	-11.1264
ประจักษ์	-11.1266
นิวยอร์ก	-11.1266
เหมือง	-11.1266
▁User	-11.1271
รหัสผ่าน	-11.1271
เทีย	-11.1275
เกล็ด	-11.1278
วิทยาเขต	-11.128
ิ่งที่น่าสนใจจาก	-11.128
▁Watch	-11.1281
แฟร	-11.1293
เวียนนา	-11.1294
อโศก	-11.13
face	-11.13
▁Not	-11.1301
จังหวัดระยอง	-11.1302
order	-11.1303
แบล็ค	-11.1306
สุวรรณภูมิ	-11.1307
▁สวัสดีครับ	-11.1308
▁UV	-11.1315
450	-11.1316
เนย์มาร์	-11.1316
rist	-11.1326
pantip	-11.1327
▁ด้วยเหตุนี้	-11.1327
แคมป์	-11.133
life	-11.1332
อัธยาศัย	-11.1337
▁มิลลิเมตร	-11.1337
▁Marketing	-11.1337
ปาร์ค	-11.1338
อียิปต์	-11.1347
พราหมณ์	-11.1347
▁Continue	-11.1347
พิธีกร	-11.135
รายงานข่าว	-11.1351
หุ้นส่วน	-11.1351
แถลงการณ์	-11.1358
ศีลธรรม	-11.1363
▁Ya	-11.1364
,000,000	-11.1364
โคจร	-11.1367
นุ่มนวล	-11.1368
โรงไฟฟ้า	-11.137
สอบถามรายละเอียด	-11.1376
เคี้ยว	-11.1377
▁Review	-11.1382
bidding	-11.1387
มะเขือเทศ	-11.1387
ปกคลุม	-11.1389
▁Internet	-11.1389
uff	-11.1391
▁Brand	-11.1392
วิลล์	-11.1393
อาหรับ	-11.1398
ที่อาศัยอยู่ใน	-11.1398
▁แปลไทย	-11.1403
ดีกรี	-11.141
ized	-11.1411
เป๊ะ	-11.1414
worming	-11.1418
ภัยพิบัติ	-11.1418
สปีด	-11.1419
รูปลักษณ์	-11.142
▁This	-11.1421
พัฒนาศักยภาพ	-11.1424
คู่กรณี	-11.1426
▁สมัครเล่นคาสิโน	-11.1428
คล้อง	-11.1438
พยาธิตัวตืด	-11.1438
ผู้บัญชาการ	-11.1438
ตระหนักถึง	-11.1439
จะช่วยให้คุณ	-11.1446
รอบรองชนะเลิศ	-11.1448
โหม่ง	-11.1448
สถาบันการศึกษา	-11.1455
ได้รับการรับรอง	-11.1465
ชํารุด	-11.1469
ระคายเคือง	-11.1469
สินค้าและบริการ	-11.1475
พญาไท	-11.1478
เฮ้าส์	-11.1479
ัจฉ	-11.1479
lick	-11.1487
ตรงกันข้าม	-11.1489
เปรียบเสมือน	-11.149
เข้าร่วมกิจกรรม	-11.1491
▁Color	-11.1492
กะทิ	-11.1494
จินดา	-11.1497
อุปถัมภ์	-11.1499
PER	-11.1523
สนามกีฬา	-11.1528
-07-	-11.1528
โยคะ	-11.1532
น้องชาย	-11.1534
กระป๋อง	-11.1541
เม็กซิโก	-11.1541
▁your	-11.1542
1/2	-11.1543
เดือนเมษายน	-11.1551
''	-11.1558
ุ้ม	-11.1565
มหาสมุทร	-11.1568
เช็คอิน	-11.1571
right	-11.1573
code	-11.1576
ภาคี	-11.1576
duc	-11.1584
เป็นเกมที่	-11.1584
ยินดีต้อนรับ	-11.1589
เรียกกันว่า	-11.1591
เสี่ยงโชค	-11.1591
ตอกย้ํา	-11.1592
จับตามอง	-11.1592
สืบค้น	-11.1594
ประกอบอาชีพ	-11.1598
ล่าช้า	-11.1599
กระบวนการผลิต	-11.1604
จริงจัง	-11.1605
Email	-11.1608
โฟร์	-11.1609
เลขานุการ	-11.1613
เกรีย	-11.1622
สหพันธ์	-11.1623
watch	-11.1624
กราฟิก	-11.1625
คว้ารางวัล	-11.1633
พระเยซู	-11.1634
ความชุ่มชื้น	-11.1634
อาลัย	-11.1637
เป็นไปอย่าง	-11.1642
iya	-11.1647
103	-11.1648
hand	-11.1649
ูโรงแรมใกล้เคียง	-11.1651
สัญจร	-11.1655
ไม่ต้องกังวล	-11.1655
ปักกิ่ง	-11.1656
ผนึก	-11.1656
สถาบันการเงิน	-11.1665
ปลูกพืช	-11.1665
ลุกขึ้น	-11.1669
▁รวมทั้งสิ้น	-11.1671
4.5	-11.1677
▁Plan	-11.1684
พันธุกรรม	-11.1686
เซ็ท	-11.1686
plus	-11.1686
▁มิวนิค	-11.1696
▁Note	-11.1699
กรมชลประทาน	-11.1702
ประจวบ	-11.1707
เดือนพฤษภาคม	-11.1707
ฉิ	-11.1711
เตอร	-11.1711
iko	-11.1714
TRA	-11.1716
บิ๊กไบค์	-11.1717
ปาล์ม	-11.1728
ชายแดนภาคใต้	-11.1728
▁แรงม้า	-11.173
เบ็	-11.1732
โลตัส	-11.1738
จัดทําแผน	-11.1738
▁Station	-11.1744
ยูไนเต็ด	-11.1745
aku	-11.1746
ประมวลกฎหมาย	-11.1749
ค่าตอบแทน	-11.1758
ลดต้นทุน	-11.176
Point	-11.176
ประชุมคณะกรรมการ	-11.1778
๒๐	-11.178
ไอดอล	-11.178
ศัตรูพืช	-11.1784
ทัด	-11.1791
ดราม่า	-11.1791
วิธีเฉพาะเจาะจง	-11.1793
๓๐	-11.1801
พัทลุง	-11.1802
พิซซ่า	-11.1802
พระผู้เป็นเจ้า	-11.1802
ถูกสร้างขึ้น	-11.181
เป็นที่ยอมรับ	-11.1811
เลสเบี้ยน	-11.1812
พื้นที่ใช้สอย	-11.1812
list	-11.1823
▁reading	-11.1823
ะฮ์	-11.1824
ความกังวล	-11.1827
ชัง	-11.1835
ต้านอนุมูลอิสระ	-11.1844
รังสรรค์	-11.1844
เฉียบพลัน	-11.1844
▁บมจ	-11.1844
▁ฟาน	-11.1845
▁Blog	-11.1847
แบงค์	-11.185
▁เล่นคาสิโน	-11.1855
เป็	-11.186
รองพื้น	-11.1861
news	-11.1862
ป้ายกํากับ	-11.1869
คว่ํา	-11.1876
design	-11.1876
ปีศาจ	-11.1884
ผันผวน	-11.1887
เยอะแยะ	-11.1887
ชัยบาดาลวิทยา	-11.1887
raft	-11.1889
บอกได้เลยว่า	-11.1893
ลมหายใจ	-11.1894
เมนท์	-11.1897
mAh	-11.1908
หิ้ว	-11.1914
มหิดล	-11.1919
tail	-11.1927
โทรคมนาคม	-11.1933
เดวิด	-11.194
▁แซงต์	-11.1941
อ้อยและน้ําตาล	-11.1944
▁อิอิ	-11.1948
อารย	-11.1949
นิสสัน	-11.1953
สถาปนิก	-11.1961
อนุสรณ์	-11.1961
▁Casino	-11.1961
ไนท์	-11.1963
ลิ้งค์	-11.1963
▁แชมเปี้ยนส์	-11.1964
▁โรงเรียนอนุบาล	-11.1964
▁สนใจติดต่อ	-11.1964
แพ่ง	-11.1964
เท่าเทียม	-11.1966
วัชร	-11.1968
ประหยัดพลังงาน	-11.1971
อิตาเลียน	-11.1972
▁บจก	-11.1972
หมายเลขโทรศัพท์	-11.1976
คิดสร้างสรรค์	-11.1978
วุ้น	-11.1983
นิวซีแลนด์	-11.1983
ลึกซึ้ง	-11.1985
เสื้อผ้าแฟชั่น	-11.199
KI	-11.199
อ่างทอง	-11.1991
ตอบกลับเมื่อ	-11.1994
เนื่องในวัน	-11.1994
เฝ้าระวัง	-11.1996
ศึกษาขั้นพื้นฐาน	-11.2007
▁Video	-11.2015
เรือใบสีฟ้า	-11.2026
สารสกัด	-11.2027
ฝีเท้า	-11.2037
แม่ฮ่องสอน	-11.2037
ฟู้ด	-11.2038
มรดกโลก	-11.2045
เอี่ยม	-11.2048
การเล่นพนัน	-11.2053
แล่น	-11.2056
การดําเนินชีวิต	-11.2056
หลอกลวง	-11.2059
ผู้ทานมังสวิรัติ	-11.2059
ที่กล่าวมา	-11.2066
▁Ultra	-11.207
▁whi	-11.2075
กระชาก	-11.2077
อันเนื่องมาจาก	-11.208
โครเอเชีย	-11.2086
ฝ่ามือ	-11.2087
▁Link	-11.2091
สัมมาสัมพุทธเจ้า	-11.2091
เกษตรศาสตร์	-11.2096
ความเดือดร้อน	-11.2098
เฉือน	-11.2102
ทาวเวอร์	-11.2102
เป็นประธานในพิธี	-11.2102
สังกะสี	-11.2113
เลิฟ	-11.2113
ศรีราชา	-11.2113
เงินอุดหนุน	-11.2115
นัดหมาย	-11.2123
ลิฟท์	-11.2124
1.8	-11.2125
................	-11.2125
โยธา	-11.2135
ประกอบกิจการ	-11.2136
▁Sale	-11.2141
EST	-11.2147
อวัยวะเพศชาย	-11.2151
หล่อลื่น	-11.2159
เซิร์ฟเวอร์	-11.2168
make	-11.2172
เข้มงวด	-11.2181
ที่สุดเท่าที่	-11.2184
ชาเขียว	-11.2185
มรรค	-11.219
เดือนธันวาคม	-11.2192
+++	-11.2199
ป้องกันไม่ให้	-11.22
▁Permalink	-11.2201
กองทัพเรือ	-11.2201
เพิ่มความแข็งแรง	-11.2209
ดีวีดี	-11.2217
cept	-11.2218
ทวิตเตอร์	-11.2234
▁Motor	-11.2239
หาดทราย	-11.2243
ศักราช	-11.2245
คัดค้าน	-11.2245
อาร์เจนตินา	-11.2245
หยวน	-11.2245
▁Key	-11.2245
สแตน	-11.2255
กิ๊ก	-11.2263
อิหร่าน	-11.2267
ระดับปริญญาตรี	-11.2267
HER	-11.2274
เหมาะแก่การ	-11.2276
บางกะปิ	-11.2278
▁YOU	-11.228
▁Comments	-11.228
ซัมซุง	-11.2289
ล้อมรอบ	-11.2298
สิทธิประโยชน์	-11.23
รําคาญ	-11.23
เกษียณ	-11.23
มาดริด	-11.2309
จําเป็นจะต้อง	-11.2309
พิทยาคม	-11.2311
Comment	-11.2312
กรอบเขตโทษ	-11.2323
video	-11.2323
เฉลิมฉลอง	-11.2323
▁Open	-11.2329
****	-11.233
ถ่วง	-11.2334
ทรั	-11.2335
ปลัดกระทรวง	-11.2344
▁Street	-11.2345
▁Grand	-11.2346
/2552	-11.2356
CON	-11.2358
▁การทดสอบสําหรับ	-11.2359
เดือนสิงหาคม	-11.2367
กลายมาเป็น	-11.2369
ค้าปลีก	-11.2371
▁นําท่าน	-11.2378
อุโมงค์	-11.2378
▁Resort	-11.2378
ผับ	-11.2385
สังข์	-11.239
อัพเกรด	-11.2393
sale	-11.2403
น่าตื่นตาตื่นใจ	-11.2408
cret	-11.2412
กันและกัน	-11.242
▁Toyota	-11.2423
▁Code	-11.2424
ส่งเสริมการเกษตร	-11.2424
ขัดขวาง	-11.2425
ท่าหมา	-11.2426
พรรคการเมือง	-11.2438
ประกบ	-11.2444
จรวด	-11.2446
EDF	-11.2458
งัด	-11.2462
อาชีวศึกษา	-11.2463
รากฐาน	-11.2467
▁Technology	-11.2468
รดน้ํา	-11.2471
ช่วงบ่าย	-11.2471
▁ทําเลดี	-11.2473
พระบรมราชินีนาถ	-11.248
แช่แข็ง	-11.2484
▁Nov	-11.2496
โทรสอบถาม	-11.2498
โซลูชั่น	-11.2502
เดือนกรกฎาคม	-11.2502
โฆษก	-11.2502
▁เว้นแต่	-11.2505
สเปอร์ส	-11.2505
เคร่งครัด	-11.2514
เซเว่น	-11.2514
มงกุฎ	-11.2514
ฟรีคิก	-11.2514
เตี้ย	-11.2524
ถนอม	-11.2525
ผ้าม่าน	-11.253
Direct	-11.2531
มั่งคั่ง	-11.2537
ไดอารี่	-11.2537
ฤดูฝน	-11.2539
เวียร์	-11.2543
▁Bluetooth	-11.2548
สตูล	-11.255
สิทธิมนุษยชน	-11.2559
ชดใช้	-11.2567
ฉนวนกันความร้อน	-11.2571
เมล็ดพันธุ์	-11.2577
อัคร	-11.2581
▁number	-11.2582
เป็นอะไรที่	-11.2586
super	-11.2593
สว่าน	-11.2595
นิดนึง	-11.2599
ผ่าตัดหลอดเลือด	-11.2602
ขอสงวนสิทธิ์	-11.2605
ศรีนครินทร์	-11.2605
กระบะ	-11.2606
มอบหมาย	-11.2615
ฮวงจุ้ย	-11.2617
เพียงเท่านี้	-11.2628
ยันต์	-11.2638
ผ้าห่ม	-11.264
เพ็ญ	-11.264
ระบอบ	-11.264
ปฎิ	-11.2651
▁NEW	-11.2652
ough	-11.2654
าธิป	-11.2655
พหลโยธิน	-11.2663
ไม่แน่ใจว่า	-11.2664
แกรม	-11.2669
▁LCD	-11.2673
องุ่น	-11.2681
สโตร์	-11.2686
แร็	-11.2687
ตรวจเช็ค	-11.2688
ฟิสิกส์	-11.2697
▁available	-11.2697
▁ตัวเลือกอาหารเจ	-11.2697
ather	-11.2702
NET	-11.2702
รอบชิงชนะเลิศ	-11.2709
รถเก๋ง	-11.271
คําศัพท์	-11.2714
ชุดว่ายน้ํา	-11.2718
สัมภาระ	-11.2722
เฟิร์ม	-11.2732
▁Cream	-11.2732
โง่	-11.2733
ปนเปื้อน	-11.2744
ฟฟ์	-11.2748
จิตสํานึก	-11.2757
แบบปลอดกลูเตน	-11.2767
นมัสการ	-11.2767
▁เซเรีย	-11.2771
ขีดความสามารถ	-11.2777
ชุ่มชื่น	-11.2779
/2550	-11.2779
รอบแบ่งกลุ่ม	-11.2779
สักนิด	-11.2779
วิจิตร	-11.2788
ทุจริต	-11.2788
ลังกา	-11.2791
Print	-11.2802
▁หอประชุม	-11.2803
วชิร	-11.2807
6,000	-11.2809
รูขุมขน	-11.2814
ซึ่งกันและกัน	-11.2824
สอดคล้อง	-11.2833
โลจิสติกส์	-11.2837
อุดมไปด้วย	-11.2841
เทรน	-11.2848
8,000	-11.2848
ห้องนั่งเล่น	-11.2849
ดับเพลิง	-11.285
อวยพร	-11.2858
สัปดาห์ที่ผ่านมา	-11.2865
สวิตเซอร์แลนด์	-11.2872
แฮปปี้	-11.2884
จันทน์	-11.2884
อสังหา	-11.2885
จุดชมวิว	-11.2889
ขมิ้น	-11.2896
สวนผึ้ง	-11.2903
มูรินโญ	-11.2907
แบงค็อก	-11.2908
ป๊อป	-11.2908
สรรเสริญ	-11.2919
รุ่นอายุไม่เกิน	-11.2919
▁รองประธาน	-11.2925
เร็	-11.2929
ปศุสัตว์	-11.2931
ะฮฺ	-11.2945
เคยได้ยิน	-11.2948
จิตอาสา	-11.2959
▁เว็บบาคาร่า	-11.2961
ออกแบบมาเพื่อ	-11.2964
ไอศครีม	-11.2967
ดอร์ทมุนด์	-11.2979
มิวสิค	-11.2979
มีชีวิตชีวา	-11.2979
บางเขน	-11.2979
drive	-11.298
กมล	-11.298
ลดความเสี่ยง	-11.3014
▁ผมน้ําตาลเข้ม	-11.3015
มีส่วนผสมของ	-11.3017
ทิศตะวันออก	-11.3028
ตอบโต้	-11.3034
ระบายความร้อน	-11.304
▁Cloud	-11.305
สหประชาชาติ	-11.3062
คีย์บอร์ด	-11.3063
ทางหลวงหมายเลข	-11.3064
▁ขออภัย	-11.3077
กู้ภัย	-11.3079
พนักงานสอบสวน	-11.3081
อุโบสถ	-11.3082
าสน์	-11.3082
แจ่มใส	-11.3085
ฟุตซอล	-11.3086
นวม	-11.3093
พิกเซล	-11.3098
สมรรถภาพ	-11.3098
ห้างหุ้นส่วน	-11.3099
30,000	-11.31
กลุ้ม	-11.3101
▁School	-11.311
▁Eye	-11.3122
html	-11.3123
รึเปล่า	-11.3124
เกราะ	-11.3127
อําลา	-11.3134
เปื้อน	-11.3135
แร่ใยหิน	-11.3135
ASEAN	-11.3147
ซ่อมบํารุง	-11.3157
ปั่นจักรยาน	-11.3162
ประกาศรับสมัคร	-11.3164
▁Studio	-11.3171
กระบวน	-11.3199
ทิศเหนือ	-11.3202
ฝึกหัด	-11.3202
แปซิฟิก	-11.3207
ดินสอ	-11.3208
จัดซื้อจัดจ้าง	-11.322
สามเณร	-11.322
มะขาม	-11.322
อุบัติ	-11.323
จุดมุ่งหมาย	-11.3232
Black	-11.3238
▁this	-11.3239
บางซื่อ	-11.3244
master	-11.3254
มัลแวร์	-11.3256
▁฿฿฿	-11.3256
องศา	-11.3257
body	-11.3261
พระมหากรุณาธิคุณ	-11.3268
ธุรการ	-11.3268
ปรกติ	-11.3268
Electro	-11.3269
ชีววิทยา	-11.3279
รุ่งโรจน์	-11.3282
▁จันทร์โอชา	-11.3293
๑๗	-11.3295
ป๋า	-11.3297
▁Access	-11.3305
ศุลกากร	-11.3305
ทับทิม	-11.3305
การเสริมเต้านม	-11.3306
ภูมิภาคเอเชีย	-11.3326
เซอร์ไพรส์	-11.333
หุบเขา	-11.333
หลอดเลือดดําที่ข	-11.3333
อึดอัด	-11.3343
lpro	-11.3343
ization	-11.335
▁มิลลิกรัม	-11.3355
▁Nikon	-11.3355
เฉียงเหนือ	-11.3357
ไม่น่าเชื่อ	-11.336
กฎระเบียบ	-11.336
สุจริต	-11.3367
เสี่ยงต่อการ	-11.3372
▁Category	-11.3379
สาหร่าย	-11.3379
-08-	-11.338
อิจฉา	-11.3392
▁Flash	-11.3392
Poly	-11.3394
อ่อนนุช	-11.3394
อินทรี	-11.3395
▁สําหรับใครที่	-11.3399
iber	-11.3399
เฒ่า	-11.3404
ภาษีมูลค่าเพิ่ม	-11.3404
เหยียด	-11.3404
สังสรรค์	-11.3404
▁Search	-11.3404
โพรง	-11.3404
ดีแทค	-11.3417
ระยะห่าง	-11.3425
รวบ	-11.3425
เบราว์เซอร์	-11.3429
แหวก	-11.3438
เนเธอร์แลนด์	-11.3441
บูรพา	-11.3441
มีนบุรี	-11.3442
ดับเบิ้ล	-11.3442
ชะอํา	-11.3442
ฉ่ํา	-11.3448
มาเก๊า	-11.3454
อุปการะ	-11.3454
คาราโอเกะ	-11.3456
เถื่อน	-11.3479
ประณีต	-11.3479
ลําเลียง	-11.3479
สวดมนต์	-11.3479
สมัครด้วยตนเอง	-11.3491
▁Special	-11.3491
แบงก์	-11.3504
มารยาท	-11.3505
เพชรเกษม	-11.3518
ology	-11.3525
movie	-11.353
มหาลัย	-11.3532
เทอร์โบ	-11.355
บีทีเอส	-11.3554
ขูด	-11.3554
มพ์	-11.3558
สยามบรมราชกุมารี	-11.3567
เรียบเนียน	-11.357
spec	-11.3571
»	-11.3581
Anime	-11.3585
แชร์กแมง	-11.3592
ทุกภาคส่วน	-11.3592
หวยยี่กี	-11.3598
ักษ์	-11.3602
ที่ได้รับมอบหมาย	-11.3603
คณาจารย์	-11.3605
นารายณ์	-11.3605
smart	-11.3618
ศึกษาดูงาน	-11.3622
ประท้วง	-11.363
บ่งชี้	-11.363
แคลิฟอร์เนีย	-11.363
▁Premium	-11.363
▁Mitsubishi	-11.3643
ซึมเศร้า	-11.3644
เดือนกุมภาพันธ์	-11.3656
ระนอง	-11.3656
แจ้งวัฒนะ	-11.3668
ก๊อกน้ํา	-11.3669
เฉลย	-11.3669
media	-11.3679
เป็นไปไม่ได้	-11.369
ould	-11.3704
ไมเคิล	-11.3707
พัฒน	-11.3715
world	-11.3719
อันโตนิโอ	-11.3732
▁BMW	-11.3732
คริสต์มาส	-11.3732
เสื้อเชิ้ต	-11.3745
ภัยคุกคาม	-11.3745
ตรึง	-11.377
อุทกภัย	-11.3771
ทรัมป์	-11.3784
เซี่ยงไฮ้	-11.3797
▁YouTube	-11.3809
นวมินทร์	-11.381
เกษตรอินทรีย์	-11.3811
เศรษฐ	-11.3814
dress	-11.382
กฐิน	-11.3822
สาหัส	-11.3822
เอเอฟซี	-11.3835
วิสาหกิจ	-11.3836
index	-11.3839
แพร่กระจาย	-11.3845
▁SEO	-11.3847
ลัทธิ	-11.3848
โศก	-11.3858
ระฆัง	-11.3861
มาสด้า	-11.3862
ขันธ์	-11.3862
พาวเวอร์	-11.3868
ดวงชะตา	-11.3869
เสื้อโปโล	-11.3874
ative	-11.3902
ข่ม	-11.3905
เป็นวิธีที่	-11.3913
ก่อการร้าย	-11.3913
เข้ารับราชการ	-11.3914
ออมทรัพย์	-11.3915
อนิเม	-11.3921
รังเกียจ	-11.3926
หน้าผาก	-11.3939
สังขาร	-11.3945
ระเภทของทรัพยากร	-11.395
ขี้เกียจ	-11.3953
แอปพลิเคชัน	-11.3953
หงุดหงิด	-11.3966
<<	-11.3982
ไครโซไทล์	-11.3992
▁Season	-11.3992
ทําเลที่ตั้ง	-11.4009
ฝักบัว	-11.4018
สถาปนา	-11.4018
อพาร์ทเม้นท์	-11.4018
ราชเทวี	-11.4019
กรุงศรีอยุธยา	-11.4032
เอนกประสงค์	-11.4032
ไข้หวัด	-11.4032
หัวหน้าผู้ฝึกสอน	-11.4032
ตลอดทั้งปี	-11.4036
คอนโทรล	-11.4047
สติกเกอร์	-11.4058
สไลด์	-11.4058
ยยย	-11.4059
iving	-11.4062
เหย้า	-11.4071
water	-11.4072
โอลด์	-11.4072
▁ดาวโหลด	-11.4075
cactus	-11.4085
สิงห์บุรี	-11.4086
ขัดแย้ง	-11.4097
▁Science	-11.4098
สงครามโลกครั้ง	-11.4098
▁Edition	-11.4111
mobile	-11.4111
ทิศตะวันตก	-11.4113
มุกดาหาร	-11.4125
สิงห์บลู	-11.4125
▁เลขเรียกหนังสือ	-11.4138
▁แต่ทว่า	-11.4148
วิปัสสนา	-11.4151
ไพเราะ	-11.4151
แกว่ง	-11.4151
▁SPF	-11.4153
down	-11.4157
แม่น้ําโขง	-11.4165
จําแนก	-11.4165
บลูทูธ	-11.4178
ตกเป็นเหยื่อ	-11.4179
▁อเล็กซ์	-11.4192
ฌาน	-11.4192
▁เนื่องในโอกาส	-11.4205
▁การกําจัดของ	-11.4206
มึน	-11.4206
หนีไม่พ้น	-11.4219
กระเป๋าสะพาย	-11.4259
สํานวน	-11.4259
ตอบสนองความต้อง	-11.428
แวดล้อม	-11.428
ชัตเตอร์	-11.4286
▁Items	-11.4286
เลื้อย	-11.4286
วิสัย	-11.4288
ถ้อยคํา	-11.4313
ประคอง	-11.4327
gree	-11.4348
จําเป็นที่จะต้อง	-11.4359
ไพบูลย์	-11.4368
ตัวคุณเอง	-11.4369
source	-11.437
place	-11.4372
คอมมิวนิสต์	-11.4395
เนรมิต	-11.4416
โบรกเกอร์	-11.4423
เทพรัตนราชสุดาฯ	-11.4423
ด็จพระราชดําเนิน	-11.4427
โซเชียลมีเดีย	-11.445
ไม่พึงประสงค์	-11.4464
ไฮโดรเจน	-11.4464
▁PHP	-11.4464
ดํารงฐานะ	-11.4465
โมดูล	-11.4469
▁นาฬิกาข้อมือ	-11.4478
เพี้ยน	-11.4492
▁Development	-11.4505
▁แทงพนันบอล	-11.4506
▁download	-11.4519
กล้าหาญ	-11.4519
เฉียบ	-11.4519
ขอบพระคุณ	-11.4533
บริดจ์	-11.454
จํานอง	-11.4553
บรรเทาอาการ	-11.4568
เหนี่ยว	-11.4575
ตํารวจภูธร	-11.4575
ิ่ว	-11.4576
หมิ่น	-11.4596
กฤต	-11.4609
กระเป๋าสตางค์	-11.4617
ฉาบ	-11.4618
รับรางวัลชนะเลิศ	-11.464
ผลิตและจําหน่าย	-11.4648
รองชนะเลิศอันดับ	-11.4657
รถเมล์	-11.4673
▁฿฿	-11.4674
▁Women	-11.4701
เอนไซม์	-11.4715
เชษฐ	-11.4715
พลาซ่า	-11.4716
คณะอนุกรรมการ	-11.473
▁แม้กระนั้น	-11.473
article	-11.4732
สวีท	-11.4746
แฮนด์	-11.4746
เป็นอันตรายต่อ	-11.477
พระโขนง	-11.4772
คนรอบข้าง	-11.4773
เฮดโค้ช	-11.4787
๐๐๐	-11.4793
ชุดชั้นใน	-11.4803
ปิ๊กอัพ	-11.4815
ทิงเจอร์	-11.4815
เว็ป	-11.4829
▁National	-11.4844
▁ด้านนวัตกรรมและ	-11.4846
วัฏ	-11.4857
สมมุติ	-11.4858
grad	-11.4863
บริบูรณ์	-11.4872
ยิม	-11.4881
อีซูซุ	-11.4887
▁TOYOTA	-11.4887
ชักว่าว	-11.4887
พรีเมียร์	-11.49
9,000	-11.4901
PORN	-11.4901
ฝ่าฝืน	-11.4901
ด้วยวิธีประกวดรา	-11.4902
ซัพพลาย	-11.4916
วิพากษ์วิจารณ์	-11.4916
▁Nissan	-11.4916
ประกาศรายชื่อผู้	-11.4933
▁Activ	-11.4936
าวน์	-11.4938
class	-11.4945
week	-11.4947
พิถีพิถัน	-11.4959
ฤดูใบไม้ร่วง	-11.4959
ตะกั่ว	-11.4959
แบรนด์เนม	-11.4959
0.30	-11.4979
โฉนด	-11.4988
บรรณาธิการ	-11.4988
ต่อมลูกหมาก	-11.5003
สแควร์	-11.5003
กสทช	-11.5003
ประทับใจในบริการ	-11.5003
สกรู	-11.5007
ความหลากหลายของ	-11.5008
กระดุม	-11.5017
ตระเวน	-11.5018
อัปเดต	-11.5032
หมั้น	-11.5032
ทาวน์เฮาส์	-11.5032
พอร์ท	-11.5037
โน๊ตบุ๊ค	-11.5046
าธิราช	-11.5048
คฤห	-11.5058
ภัตตาคาร	-11.5061
▁Collection	-11.5061
ตลับหมึก	-11.5061
▁Excel	-11.5074
คร่าวๆ	-11.5076
กระหน่ํา	-11.51
แอตเลติโก	-11.5105
มิตซูบิชิ	-11.512
ศิลปากร	-11.5135
▁[-]	-11.515
เครื่องแต่งกาย	-11.5165
สถานประกอบการ	-11.5165
ยาปฏิชีวนะ	-11.5179
ป้อง	-11.5185
พรีเมียม	-11.5194
อัลลอฮฺ	-11.5194
bkk	-11.5209
รับจ้างขนของ	-11.522
เกื้อกูล	-11.5224
ครุภัณฑ์	-11.5224
ตะแกรง	-11.5224
จารึก	-11.5225
หน่วง	-11.5227
▁ยกตัวอย่างเช่น	-11.5239
เอสเอ็มอี	-11.5253
▁Chrome	-11.5253
โมเลกุล	-11.5268
บรรเลง	-11.5268
จ้ะ	-11.527
จิ้งจอก	-11.5298
casino	-11.5298
▁Garden	-11.5298
กระตุก	-11.5298
คอลเลคชั่น	-11.5313
น้ําส้มสายชู	-11.5328
▁Agoda	-11.5328
▁คําค้น	-11.5338
วิวัฒนาการ	-11.5344
uction	-11.5348
THAILAND	-11.5359
ฤดูใบไม้ผลิ	-11.5374
ฮือฮา	-11.5374
โปรดเกล้าฯ	-11.5374
พ้อง	-11.5389
เฉดสี	-11.539
อัญเชิญ	-11.5404
เผด็จการ	-11.5404
โบรชัวร์	-11.5404
▁Hosting	-11.5419
มรกต	-11.545
ออสเตรีย	-11.5455
กรีก	-11.5457
ศึกษามัธยมศึกษา	-11.5461
เวสต์แฮม	-11.5465
ห้วง	-11.5465
ยามค่ําคืน	-11.548
▁Jobthaiweb	-11.548
Google	-11.5487
หนองบัวลําภู	-11.5495
ช็อกโกแลต	-11.5495
สับปะรด	-11.5495
ไม่มีห้องว่าง	-11.5495
โชว์รูม	-11.5495
อันดับต้นๆ	-11.5496
ทั่วๆไป	-11.5496
ผู้มีพระภาคเจ้า	-11.5511
อัณฑะ	-11.5511
โรเบิร์ต	-11.5511
▁Notebook	-11.5511
ไปพร้อมๆ	-11.5516
เครื่องซักผ้า	-11.5526
กระพริบ	-11.5541
▁Magic	-11.5542
▁iPod	-11.5557
แรงจูงใจ	-11.5572
▁089-	-11.5576
7,000	-11.5582
เฉิ	-11.5583
กระตือรือร้น	-11.5603
ไมโครเวฟ	-11.5603
ไบนารี่ออฟชั่น	-11.5634
▁Genting	-11.5634
▁Global	-11.5649
′′	-11.565
▁อันเดร	-11.5656
กูเกิล	-11.5665
‘	-12.0905
′	-12.5491
·	-12.6696
